/***************************************************************************//**
* \file MAGIC_WAND_tflm_model_int8x8.c
*
* \brief
* Autogenerated with ml-coretools, this file contains MAGIC_WAND model data.
* Date: 2023-08-30 18:28:18.380505
*******************************************************************************
* \copyright
* Copyright 2023, Cypress Semiconductor Corporation (an Infineon company).
* All rights reserved.
* You may use this file only in accordance with the license, terms, conditions,
* disclaimers, and limitations in the end user license agreement accompanying
* the software package with which this file was provided.
******************************************************************************/


#include "MAGIC_WAND_tflm_model_int8x8.h"


#ifdef CY_ML_MODEL_MEM
#include "cy_utils.h"
#define Q(x) #x
#define QUOTE(x) Q(x)
CY_SECTION(QUOTE(CY_ML_MODEL_MEM))
const
#endif

uint8_t MAGIC_WAND_model_bin[MAGIC_WAND_MODEL_BIN_LEN] __attribute__((aligned(4))) = {
0x20, 0x00, 0x00, 0x00, 0x54, 0x46, 0x4c, 0x33, 0x00, 0x00, 0x00, 0x00, 0x14, 0x00, 0x20, 0x00,
0x1c, 0x00, 0x18, 0x00, 0x14, 0x00, 0x10, 0x00, 0x0c, 0x00, 0x00, 0x00, 0x08, 0x00, 0x04, 0x00,
0x14, 0x00, 0x00, 0x00, 0x1c, 0x00, 0x00, 0x00, 0x90, 0x00, 0x00, 0x00, 0xc0, 0x00, 0x00, 0x00,
0xf8, 0x17, 0x00, 0x00, 0x08, 0x18, 0x00, 0x00, 0x70, 0x2a, 0x00, 0x00, 0x03, 0x00, 0x00, 0x00,
0x01, 0x00, 0x00, 0x00, 0x10, 0x00, 0x00, 0x00, 0x00, 0x00, 0x0a, 0x00, 0x10, 0x00, 0x0c, 0x00,
0x08, 0x00, 0x04, 0x00, 0x0a, 0x00, 0x00, 0x00, 0x0c, 0x00, 0x00, 0x00, 0x1c, 0x00, 0x00, 0x00,
0x3c, 0x00, 0x00, 0x00, 0x0f, 0x00, 0x00, 0x00, 0x73, 0x65, 0x72, 0x76, 0x69, 0x6e, 0x67, 0x5f,
0x64, 0x65, 0x66, 0x61, 0x75, 0x6c, 0x74, 0x00, 0x01, 0x00, 0x00, 0x00, 0x04, 0x00, 0x00, 0x00,
0xc0, 0xff, 0xff, 0xff, 0x15, 0x00, 0x00, 0x00, 0x04, 0x00, 0x00, 0x00, 0x0a, 0x00, 0x00, 0x00,
0x73, 0x65, 0x71, 0x75, 0x65, 0x6e, 0x74, 0x69, 0x61, 0x6c, 0x00, 0x00, 0x01, 0x00, 0x00, 0x00,
0x04, 0x00, 0x00, 0x00, 0xe6, 0xe7, 0xff, 0xff, 0x04, 0x00, 0x00, 0x00, 0x07, 0x00, 0x00, 0x00,
0x69, 0x6e, 0x70, 0x75, 0x74, 0x5f, 0x32, 0x00, 0x01, 0x00, 0x00, 0x00, 0x0c, 0x00, 0x00, 0x00,
0x08, 0x00, 0x0c, 0x00, 0x08, 0x00, 0x04, 0x00, 0x08, 0x00, 0x00, 0x00, 0x17, 0x00, 0x00, 0x00,
0x04, 0x00, 0x00, 0x00, 0x13, 0x00, 0x00, 0x00, 0x6d, 0x69, 0x6e, 0x5f, 0x72, 0x75, 0x6e, 0x74,
0x69, 0x6d, 0x65, 0x5f, 0x76, 0x65, 0x72, 0x73, 0x69, 0x6f, 0x6e, 0x00, 0x18, 0x00, 0x00, 0x00,
0x34, 0x17, 0x00, 0x00, 0x2c, 0x17, 0x00, 0x00, 0x14, 0x17, 0x00, 0x00, 0x74, 0x16, 0x00, 0x00,
0x24, 0x16, 0x00, 0x00, 0x04, 0x16, 0x00, 0x00, 0xe4, 0x15, 0x00, 0x00, 0xd4, 0x03, 0x00, 0x00,
0x44, 0x03, 0x00, 0x00, 0x34, 0x01, 0x00, 0x00, 0xe4, 0x00, 0x00, 0x00, 0x94, 0x00, 0x00, 0x00,
0x74, 0x00, 0x00, 0x00, 0x6c, 0x00, 0x00, 0x00, 0x64, 0x00, 0x00, 0x00, 0x5c, 0x00, 0x00, 0x00,
0x54, 0x00, 0x00, 0x00, 0x4c, 0x00, 0x00, 0x00, 0x44, 0x00, 0x00, 0x00, 0x3c, 0x00, 0x00, 0x00,
0x34, 0x00, 0x00, 0x00, 0x2c, 0x00, 0x00, 0x00, 0x24, 0x00, 0x00, 0x00, 0x04, 0x00, 0x00, 0x00,
0x92, 0xe8, 0xff, 0xff, 0x04, 0x00, 0x00, 0x00, 0x10, 0x00, 0x00, 0x00, 0x31, 0x2e, 0x31, 0x34,
0x2e, 0x30, 0x00, 0x00, 0x00, 0x00, 0x00, 0x00, 0x00, 0x00, 0x00, 0x00, 0xa8, 0xd7, 0xff, 0xff,
0xac, 0xd7, 0xff, 0xff, 0xb0, 0xd7, 0xff, 0xff, 0xb4, 0xd7, 0xff, 0xff, 0xb8, 0xd7, 0xff, 0xff,
0xbc, 0xd7, 0xff, 0xff, 0xc0, 0xd7, 0xff, 0xff, 0xc4, 0xd7, 0xff, 0xff, 0xc8, 0xd7, 0xff, 0xff,
0xcc, 0xd7, 0xff, 0xff, 0xd6, 0xe8, 0xff, 0xff, 0x04, 0x00, 0x00, 0x00, 0x10, 0x00, 0x00, 0x00,
0x45, 0x00, 0x00, 0x00, 0xf6, 0xff, 0xff, 0xff, 0x51, 0x00, 0x00, 0x00, 0x76, 0xff, 0xff, 0xff,
0xf2, 0xe8, 0xff, 0xff, 0x04, 0x00, 0x00, 0x00, 0x40, 0x00, 0x00, 0x00, 0x9e, 0xcc, 0x35, 0x15,
0x68, 0xc4, 0xbd, 0xcb, 0xf2, 0x0d, 0x14, 0xab, 0x5e, 0x43, 0x31, 0xe2, 0x3a, 0x20, 0x44, 0x1e,
0xd3, 0xbf, 0xb1, 0xc0, 0x23, 0xbf, 0xf0, 0x4a, 0x22, 0x1c, 0x81, 0xb7, 0x2c, 0xab, 0x9e, 0x14,
0x20, 0x18, 0xe4, 0xb3, 0x8f, 0x49, 0xf1, 0xed, 0xae, 0x34, 0xae, 0x57, 0x0d, 0x08, 0x36, 0xb5,
0x07, 0x23, 0x51, 0x20, 0x23, 0x24, 0xd3, 0x42, 0xfc, 0xb0, 0x03, 0x2c, 0x3e, 0xe9, 0xff, 0xff,
0x04, 0x00, 0x00, 0x00, 0x40, 0x00, 0x00, 0x00, 0x31, 0x00, 0x00, 0x00, 0x0f, 0x00, 0x00, 0x00,
0x12, 0x00, 0x00, 0x00, 0x16, 0x00, 0x00, 0x00, 0x12, 0x00, 0x00, 0x00, 0xff, 0xff, 0xff, 0xff,
0xf2, 0xff, 0xff, 0xff, 0x2a, 0x00, 0x00, 0x00, 0x13, 0x00, 0x00, 0x00, 0x0e, 0x00, 0x00, 0x00,
0xe7, 0xff, 0xff, 0xff, 0x2d, 0x00, 0x00, 0x00, 0xf4, 0xff, 0xff, 0xff, 0xf4, 0xff, 0xff, 0xff,
0x30, 0x00, 0x00, 0x00, 0x2d, 0x00, 0x00, 0x00, 0x8a, 0xe9, 0xff, 0xff, 0x04, 0x00, 0x00, 0x00,
0x00, 0x02, 0x00, 0x00, 0xe3, 0xdc, 0xd1, 0x0a, 0xf1, 0xc9, 0x26, 0xf3, 0xf0, 0xe7, 0xdf, 0xcd,
0xe2, 0x15, 0x2b, 0x0d, 0x4f, 0xaa, 0x1e, 0xa8, 0xb3, 0x30, 0x4d, 0x23, 0xf3, 0x45, 0x11, 0x48,
0xf2, 0x11, 0x7f, 0x2a, 0x5a, 0x25, 0x92, 0x97, 0xee, 0xda, 0x12, 0x43, 0x12, 0xfd, 0xf5, 0x5e,
0xe7, 0xde, 0x42, 0x88, 0x13, 0x9c, 0x66, 0xee, 0x15, 0x29, 0x14, 0x14, 0x03, 0x4d, 0xe7, 0x14,
0xff, 0x0a, 0x4a, 0x0e, 0x3f, 0x4d, 0x16, 0xc1, 0xea, 0xc7, 0x49, 0x4d, 0xe5, 0x00, 0x2b, 0x6e,
0xe1, 0xfd, 0xe8, 0xf2, 0xe6, 0xe1, 0x37, 0x1c, 0xf2, 0x6b, 0x14, 0xc4, 0x3e, 0x16, 0x40, 0x25,
0x15, 0x41, 0x25, 0xda, 0xd9, 0x48, 0x09, 0x2b, 0x31, 0x03, 0x2d, 0xd1, 0x1b, 0x2a, 0x0e, 0xd4,
0xe8, 0x2a, 0x69, 0xc0, 0x09, 0xf1, 0xdd, 0x24, 0xed, 0x17, 0xfa, 0xf1, 0xb8, 0x2c, 0x21, 0x6d,
0x90, 0xa0, 0x1c, 0xc4, 0xd4, 0xd8, 0x39, 0x0d, 0xc0, 0x4c, 0xfc, 0xea, 0x14, 0x22, 0x64, 0xb7,
0xfd, 0x04, 0x16, 0x03, 0xd3, 0x53, 0xfa, 0x4e, 0xf3, 0xe8, 0xd2, 0x18, 0x21, 0xa4, 0xf9, 0x1d,
0x00, 0x16, 0xc7, 0x22, 0xdb, 0xb6, 0xf2, 0xa7, 0x0f, 0x40, 0xfa, 0x16, 0xf5, 0xe3, 0xf3, 0x0b,
0x18, 0xba, 0xdd, 0xe5, 0x25, 0x27, 0x53, 0x16, 0x6c, 0x22, 0x1d, 0x63, 0xe1, 0xf6, 0x2b, 0x99,
0x3d, 0xe7, 0x3b, 0x35, 0xdb, 0xe6, 0xee, 0xa8, 0x4a, 0x0e, 0x09, 0x08, 0xa9, 0xde, 0x1b, 0xdf,
0x2b, 0xb9, 0xa1, 0x05, 0x02, 0x00, 0x5f, 0x09, 0x4f, 0x27, 0x59, 0xfe, 0x64, 0xdd, 0xda, 0xbb,
0x01, 0x55, 0xe3, 0x51, 0x08, 0x18, 0xaf, 0xbd, 0x1a, 0xbd, 0xdc, 0x67, 0xf9, 0xc1, 0x1c, 0xe8,
0x30, 0xe6, 0x27, 0x1a, 0x29, 0x04, 0x2a, 0xc0, 0x06, 0xee, 0x03, 0x00, 0x28, 0x22, 0xe8, 0x9b,
0x0f, 0x54, 0xe4, 0x25, 0xf7, 0x5b, 0xf4, 0x9e, 0x3c, 0xb3, 0x31, 0x28, 0xa7, 0xde, 0x2e, 0x36,
0x49, 0x08, 0xd7, 0xe4, 0xec, 0xec, 0x50, 0x13, 0x14, 0x41, 0xf6, 0x25, 0x3c, 0x3c, 0xd8, 0x06,
0x0b, 0x13, 0x5c, 0xd8, 0x11, 0xda, 0x01, 0xf1, 0x32, 0x22, 0xfe, 0x01, 0x4d, 0x33, 0xc5, 0xe5,
0x61, 0xaa, 0xba, 0x6f, 0x60, 0xfd, 0x59, 0xe5, 0x4f, 0xfd, 0xe6, 0x21, 0xff, 0xf1, 0x39, 0xe0,
0x21, 0xdc, 0xe1, 0x26, 0xb3, 0x36, 0x21, 0xbc, 0xba, 0xf8, 0xc5, 0xef, 0xec, 0x0f, 0xdb, 0xb2,
0xdc, 0xe9, 0x11, 0xed, 0xca, 0xbd, 0x0f, 0x11, 0x38, 0xed, 0xec, 0xc5, 0xda, 0x15, 0xeb, 0x17,
0x2e, 0x2f, 0xf8, 0x22, 0xe0, 0x50, 0xb5, 0xe1, 0x26, 0xcb, 0x19, 0x57, 0xd9, 0x00, 0xf8, 0x36,
0xfc, 0xe6, 0x26, 0xbb, 0x08, 0xe7, 0x1e, 0xac, 0x0b, 0x1a, 0x41, 0x04, 0x00, 0x18, 0x10, 0xc6,
0x35, 0xf5, 0x0e, 0xef, 0x41, 0x6c, 0x37, 0x40, 0x93, 0xed, 0x3c, 0xcb, 0x0e, 0x32, 0x32, 0xe1,
0xe9, 0xe8, 0xf5, 0x58, 0xc8, 0x51, 0x0d, 0x1f, 0x02, 0xb3, 0x11, 0xba, 0xd8, 0xdc, 0x13, 0x43,
0xe5, 0x4e, 0x93, 0xc0, 0x2a, 0x16, 0x35, 0x5e, 0x15, 0x2d, 0xec, 0xfd, 0x35, 0x00, 0x20, 0xc6,
0xdb, 0x29, 0x31, 0x0a, 0xdb, 0x40, 0x03, 0xef, 0x0a, 0xcc, 0x8b, 0x10, 0xdb, 0xe5, 0x3e, 0x40,
0xea, 0xca, 0x20, 0xdb, 0x5f, 0x09, 0xf0, 0x15, 0xe8, 0xed, 0x0a, 0xea, 0xe7, 0xfe, 0x0d, 0x15,
0xe6, 0xe7, 0x03, 0x61, 0xf7, 0x3f, 0xd6, 0x06, 0xfe, 0xdc, 0xf0, 0x16, 0x1b, 0xac, 0xd5, 0x1d,
0x61, 0x3f, 0xc9, 0xe8, 0xf3, 0x97, 0xd4, 0x22, 0x11, 0x1e, 0x09, 0x10, 0xf9, 0x0a, 0xac, 0xdf,
0x62, 0xdf, 0xbe, 0x65, 0x2d, 0x12, 0x31, 0xe6, 0x51, 0xe1, 0x3c, 0x22, 0x1d, 0xed, 0xf9, 0xdb,
0x11, 0x09, 0x3a, 0x26, 0x96, 0xeb, 0xff, 0xff, 0x04, 0x00, 0x00, 0x00, 0x80, 0x00, 0x00, 0x00,
0x57, 0x00, 0x00, 0x00, 0x8e, 0x00, 0x00, 0x00, 0x0a, 0x00, 0x00, 0x00, 0xa2, 0xff, 0xff, 0xff,
0x4d, 0x00, 0x00, 0x00, 0xdc, 0xff, 0xff, 0xff, 0x1b, 0x01, 0x00, 0x00, 0x07, 0x00, 0x00, 0x00,
0xcc, 0x00, 0x00, 0x00, 0xe4, 0xff, 0xff, 0xff, 0x3c, 0x00, 0x00, 0x00, 0x79, 0x00, 0x00, 0x00,
0xf1, 0xff, 0xff, 0xff, 0x16, 0x00, 0x00, 0x00, 0x8f, 0x00, 0x00, 0x00, 0x54, 0x00, 0x00, 0x00,
0xb7, 0x00, 0x00, 0x00, 0xcb, 0xff, 0xff, 0xff, 0x84, 0xff, 0xff, 0xff, 0xaa, 0xff, 0xff, 0xff,
0x5f, 0x00, 0x00, 0x00, 0xed, 0xff, 0xff, 0xff, 0x5e, 0x00, 0x00, 0x00, 0x38, 0x00, 0x00, 0x00,
0xb2, 0xff, 0xff, 0xff, 0x70, 0xff, 0xff, 0xff, 0x46, 0x00, 0x00, 0x00, 0x29, 0x00, 0x00, 0x00,
0x24, 0x00, 0x00, 0x00, 0x76, 0x00, 0x00, 0x00, 0x7c, 0x00, 0x00, 0x00, 0x58, 0x00, 0x00, 0x00,
0x22, 0xec, 0xff, 0xff, 0x04, 0x00, 0x00, 0x00, 0x00, 0x12, 0x00, 0x00, 0xbf, 0xfa, 0x8c, 0xbb,
0x91, 0xdc, 0x50, 0xf8, 0x25, 0x36, 0xba, 0x19, 0x3c, 0x50, 0x0b, 0x41, 0xbf, 0x15, 0x15, 0x03,
0x10, 0xe4, 0xeb, 0x2f, 0x10, 0xbe, 0x16, 0x18, 0xb5, 0xd8, 0xc3, 0xd0, 0x54, 0x02, 0x15, 0xfa,
0x1b, 0x16, 0x3a, 0xd5, 0x86, 0x47, 0xfd, 0xff, 0x9a, 0x21, 0x2a, 0xc6, 0xff, 0xf9, 0x98, 0x99,
0x96, 0xc7, 0x1f, 0xbf, 0x57, 0xf7, 0xda, 0x07, 0x44, 0x3b, 0x5d, 0xf4, 0xc4, 0x09, 0x32, 0xea,
0xfe, 0x19, 0x02, 0x16, 0x23, 0x18, 0x06, 0xdc, 0xcf, 0xe4, 0xc4, 0xd0, 0xf5, 0xff, 0xca, 0x32,
0xdc, 0x21, 0x54, 0xee, 0xf8, 0x32, 0x22, 0xea, 0xf9, 0x12, 0x3d, 0xf2, 0xe2, 0x0a, 0xb1, 0xee,
0x81, 0xb2, 0xde, 0x8b, 0x6e, 0xdc, 0xd9, 0xaa, 0x63, 0x29, 0x00, 0x64, 0xeb, 0xcb, 0xfa, 0xe3,
0x1f, 0x75, 0x38, 0x44, 0xfe, 0xcb, 0x04, 0x10, 0xc9, 0x10, 0xa1, 0xc8, 0x59, 0x55, 0x47, 0x03,
0x0e, 0x2f, 0x4b, 0x08, 0xc8, 0x22, 0x14, 0x0d, 0xbf, 0xee, 0xf8, 0xc9, 0xda, 0xb9, 0xf5, 0x01,
0xd1, 0xe9, 0x2b, 0xc4, 0x56, 0xd1, 0xcd, 0x93, 0x60, 0x32, 0x4d, 0x17, 0xcf, 0x0e, 0x31, 0x22,
0x22, 0xf8, 0x19, 0x1c, 0x39, 0xe3, 0xde, 0xec, 0x04, 0x09, 0x23, 0xf3, 0x40, 0x5f, 0x08, 0x7f,
0x1c, 0xeb, 0xdf, 0xf3, 0xc2, 0x00, 0x4a, 0x59, 0xe6, 0x1a, 0x0a, 0x20, 0xd5, 0xeb, 0xb6, 0xeb,
0xd8, 0xe7, 0x26, 0xcd, 0x34, 0xb9, 0xdd, 0xb9, 0x4d, 0x05, 0x2f, 0x26, 0xd3, 0xe4, 0x19, 0xdd,
0xc9, 0xec, 0x35, 0x00, 0x3c, 0xea, 0xc0, 0xe7, 0x15, 0x0e, 0x2b, 0xd9, 0x27, 0x44, 0x03, 0x29,
0x15, 0xf8, 0xf8, 0xff, 0xda, 0x04, 0x33, 0x5d, 0xbd, 0x31, 0x21, 0x15, 0xfd, 0x02, 0xca, 0xe6,
0xf8, 0xe4, 0x20, 0xdb, 0x32, 0xd0, 0xf8, 0xbc, 0x3d, 0x18, 0x41, 0x1f, 0xc3, 0x00, 0xd7, 0x06,
0xb8, 0xee, 0x45, 0xee, 0x2b, 0xe5, 0xb8, 0xda, 0xfa, 0x14, 0x20, 0x04, 0xf5, 0x3d, 0x09, 0x23,
0x1a, 0xf8, 0xde, 0x07, 0x9e, 0x03, 0x25, 0x2d, 0xdc, 0x02, 0x0e, 0xe2, 0xf9, 0x1a, 0xbe, 0xe9,
0xc4, 0x8d, 0xec, 0xa9, 0xdb, 0xd7, 0xe4, 0x02, 0xe4, 0x04, 0x0d, 0x06, 0xc7, 0xef, 0xf8, 0xe1,
0xfc, 0x31, 0x18, 0x0b, 0x27, 0x06, 0xda, 0xea, 0xfd, 0x0e, 0xfb, 0xf2, 0x37, 0x38, 0x1d, 0x4e,
0x0b, 0xfc, 0x10, 0xf7, 0x2d, 0xfc, 0x34, 0x21, 0x20, 0x0a, 0xe9, 0x0d, 0x0f, 0x2f, 0xe3, 0x09,
0xdf, 0x81, 0xd7, 0xaf, 0xff, 0xde, 0xff, 0xc8, 0xf8, 0xe3, 0xf1, 0xea, 0xc6, 0xe6, 0xf0, 0xd4,
0xc5, 0x19, 0x0c, 0xe3, 0x23, 0x0d, 0xd7, 0x02, 0xee, 0x16, 0x02, 0xec, 0x0a, 0x34, 0x11, 0x46,
0x26, 0xf3, 0x0e, 0x0a, 0x21, 0xe8, 0x47, 0x0c, 0x08, 0x06, 0x04, 0xfb, 0x31, 0x18, 0x25, 0x0f,
0x16, 0x93, 0xb2, 0x01, 0x0a, 0xc0, 0x31, 0xe8, 0xf7, 0xf1, 0xf1, 0xfa, 0xc6, 0xe9, 0xf0, 0xed,
0xc2, 0xd2, 0xfe, 0xcc, 0x2a, 0xef, 0xeb, 0x00, 0xf6, 0xe5, 0xd8, 0xd5, 0x32, 0x25, 0x13, 0x5f,
0x08, 0xf5, 0x05, 0x15, 0x33, 0xfb, 0x0f, 0x06, 0xf7, 0x14, 0x04, 0xe9, 0xb9, 0x11, 0x2c, 0x2b,
0x30, 0x71, 0x05, 0x19, 0x20, 0x45, 0xb2, 0x22, 0xef, 0x17, 0x37, 0x21, 0xcd, 0x22, 0x2c, 0x27,
0x27, 0x7f, 0x1e, 0xf8, 0xd8, 0x21, 0x0b, 0x23, 0xcc, 0x43, 0x1a, 0xe5, 0x2a, 0x40, 0xef, 0x03,
0xfb, 0x20, 0x28, 0xf7, 0x12, 0xfa, 0x39, 0x15, 0x19, 0x2a, 0xfb, 0x02, 0xd8, 0xf2, 0x25, 0x1a,
0x21, 0x7a, 0x1e, 0x16, 0x23, 0x1a, 0xcb, 0x2d, 0xe4, 0x3f, 0x29, 0xf8, 0xf2, 0x1a, 0x16, 0xff,
0x14, 0x23, 0x37, 0x14, 0x01, 0x25, 0x06, 0x2f, 0xed, 0x51, 0x35, 0x01, 0x30, 0x05, 0x11, 0x3a,
0xea, 0x03, 0x4a, 0x0c, 0x1a, 0x0d, 0x0b, 0x05, 0x06, 0x00, 0x18, 0x10, 0xdf, 0xc0, 0x25, 0xe2,
0xda, 0x61, 0x2d, 0x27, 0x2d, 0x1e, 0xad, 0x0a, 0x07, 0x47, 0x2d, 0xf9, 0xb9, 0xf8, 0xf6, 0x14,
0xe8, 0x35, 0x42, 0x2a, 0xf8, 0x31, 0xec, 0x07, 0xe7, 0x45, 0x49, 0x08, 0x15, 0x18, 0x2c, 0x2e,
0xff, 0x18, 0x20, 0xee, 0x35, 0x04, 0x1e, 0xe5, 0x21, 0xed, 0x0f, 0x15, 0x33, 0xcd, 0xd4, 0x9a,
0x05, 0x22, 0x5d, 0xe7, 0x1a, 0x0c, 0x20, 0xfc, 0x47, 0x60, 0x56, 0x52, 0xc6, 0xdc, 0x61, 0xbd,
0x20, 0x58, 0xfa, 0x51, 0xcb, 0xf6, 0xd8, 0xe0, 0x1a, 0x43, 0x1e, 0x22, 0x0e, 0xd9, 0x56, 0xdf,
0x22, 0x14, 0xce, 0x0f, 0x65, 0x05, 0xfd, 0x38, 0x7f, 0x1a, 0x1d, 0x4b, 0x63, 0xfb, 0x04, 0xc5,
0x0a, 0x33, 0x1b, 0x55, 0xce, 0x18, 0x4e, 0x17, 0x20, 0x2f, 0xfa, 0xf3, 0x03, 0x1e, 0x34, 0xf0,
0x3b, 0x2d, 0xdc, 0x3d, 0x16, 0xe8, 0x1f, 0xc3, 0x1b, 0x2a, 0x34, 0x59, 0x18, 0xe0, 0x1d, 0xec,
0x2e, 0xf8, 0xf4, 0xf4, 0x48, 0x16, 0xd5, 0x1f, 0x15, 0xd2, 0xfa, 0x5e, 0x4b, 0xfc, 0x2e, 0x43,
0x17, 0x3e, 0xeb, 0x47, 0x20, 0xff, 0x1d, 0x12, 0x75, 0x20, 0x1e, 0x4a, 0xfb, 0x30, 0x28, 0xdf,
0x65, 0xf8, 0xb8, 0x66, 0x23, 0xdd, 0x09, 0xfc, 0x50, 0xdb, 0xd6, 0x2f, 0xe5, 0x18, 0x2c, 0x0c,
0x34, 0xe3, 0xe5, 0x06, 0x21, 0x14, 0x18, 0x09, 0xf1, 0xe3, 0x27, 0x34, 0xca, 0x26, 0x15, 0x36,
0x34, 0x45, 0x06, 0x24, 0xc7, 0x17, 0xd5, 0x3b, 0x90, 0xf2, 0x14, 0xd1, 0x0c, 0xea, 0xc8, 0xf2,
0xd2, 0xa7, 0x25, 0xbe, 0x5b, 0xcf, 0x06, 0xaa, 0x2d, 0xe1, 0xfb, 0xcc, 0xfe, 0x03, 0x26, 0x07,
0xe1, 0x09, 0x01, 0x10, 0x7d, 0xdc, 0xe7, 0xcd, 0x3e, 0xb9, 0xe2, 0x05, 0xcb, 0x1f, 0xf3, 0x20,
0xf2, 0x15, 0xfd, 0xfc, 0xdf, 0x4c, 0x22, 0x04, 0xc4, 0x0f, 0x21, 0xcb, 0x29, 0x19, 0xe4, 0x0f,
0xc1, 0x9f, 0x2a, 0xb7, 0x7f, 0xf9, 0x2f, 0xb1, 0x10, 0xd8, 0xb8, 0xe1, 0x05, 0xda, 0x0d, 0xd5,
0xf8, 0xf7, 0xf6, 0xd0, 0x7f, 0xc3, 0x14, 0xdf, 0x0d, 0x09, 0xed, 0xdb, 0x07, 0x23, 0xd7, 0xef,
0xb1, 0x33, 0xf0, 0x0f, 0xc4, 0x35, 0x18, 0x68, 0xcc, 0xc0, 0x09, 0xf5, 0x30, 0xf6, 0x16, 0x00,
0xfd, 0xb5, 0x10, 0xea, 0x6c, 0xb2, 0x26, 0xb2, 0x43, 0xbe, 0xb1, 0xf6, 0x02, 0x02, 0x1a, 0xed,
0xcd, 0xce, 0x1a, 0xce, 0x3f, 0xe8, 0x1c, 0xd2, 0x0a, 0xcf, 0xe3, 0xcb, 0x1f, 0x0a, 0x10, 0x08,
0xc0, 0xcc, 0x19, 0xdd, 0x64, 0xed, 0xf8, 0x07, 0x3c, 0x44, 0x27, 0x16, 0x06, 0x4b, 0x45, 0xed,
0x31, 0x03, 0xf5, 0x22, 0x22, 0x17, 0x13, 0x06, 0x1d, 0x02, 0x05, 0x22, 0x2e, 0x53, 0xf8, 0x0d,
0x11, 0xa6, 0xcc, 0x31, 0x90, 0xf9, 0x3f, 0x64, 0xd2, 0x02, 0xfd, 0x0c, 0xdb, 0xb6, 0xd6, 0x11,
0xa2, 0xe0, 0x46, 0xda, 0x32, 0xaf, 0x16, 0xf3, 0x68, 0x3b, 0x1c, 0x0b, 0x27, 0x1e, 0x0a, 0x1e,
0x08, 0xf1, 0xc9, 0x25, 0x5a, 0xfb, 0x09, 0xb5, 0xd6, 0x2a, 0xfb, 0xe0, 0xd2, 0x48, 0xf6, 0x2e,
0xd4, 0xd2, 0xf0, 0xe3, 0x86, 0xf2, 0x00, 0x47, 0xcc, 0xe3, 0x17, 0x13, 0x46, 0xb5, 0xa0, 0x23,
0xcb, 0xf5, 0x1b, 0xde, 0xe6, 0xe1, 0xcf, 0x38, 0x38, 0x38, 0x64, 0x30, 0xd9, 0xcd, 0x19, 0xe4,
0xdc, 0xe0, 0x56, 0x1e, 0x1c, 0xf6, 0xd9, 0x0a, 0xec, 0xf3, 0xfe, 0xb6, 0xb2, 0x3b, 0xcb, 0x02,
0xe2, 0xc3, 0x81, 0xdc, 0x88, 0xbb, 0xce, 0x45, 0xd2, 0xdc, 0x08, 0xc8, 0x09, 0x08, 0xb5, 0x24,
0xcb, 0xf3, 0x27, 0xe3, 0x48, 0x34, 0x1f, 0xf6, 0x3e, 0x10, 0xe4, 0x05, 0xe3, 0x0e, 0xc5, 0xef,
0x19, 0x05, 0xee, 0xc5, 0xc3, 0xe1, 0x0e, 0x18, 0xd4, 0x1a, 0x39, 0xc7, 0xcf, 0xb7, 0x08, 0xab,
0xe5, 0xf9, 0x29, 0x04, 0xa0, 0x1e, 0xd2, 0xca, 0xf7, 0x2e, 0x18, 0x08, 0x60, 0xb4, 0x0d, 0x04,
0xc5, 0xfe, 0x18, 0xc1, 0xcb, 0x2d, 0xeb, 0x31, 0x27, 0x1a, 0x19, 0x2d, 0x06, 0xf8, 0xee, 0xef,
0xf1, 0x07, 0xe9, 0xf0, 0xb3, 0x12, 0xf5, 0xe9, 0xa4, 0x30, 0x60, 0xbb, 0xc4, 0xd0, 0xfd, 0x81,
0xca, 0x1e, 0xe4, 0x2b, 0xb6, 0x01, 0xef, 0xdd, 0xab, 0x18, 0x17, 0xce, 0x4f, 0xf3, 0xc1, 0xee,
0xdd, 0xfd, 0x07, 0x11, 0xdf, 0xed, 0xfd, 0x09, 0x2b, 0x1b, 0x1c, 0x2e, 0xf1, 0xf6, 0xba, 0xb6,
0xf0, 0x37, 0x07, 0x14, 0xee, 0x21, 0x17, 0x13, 0xdd, 0x1d, 0x54, 0x40, 0x8f, 0xe2, 0xc2, 0xe6,
0xd5, 0xfd, 0xf8, 0x13, 0x9e, 0x48, 0xea, 0x13, 0x9f, 0x06, 0x39, 0x1d, 0xfd, 0x35, 0xdb, 0x08,
0xe5, 0xad, 0xcc, 0xb1, 0xdc, 0xea, 0x0c, 0x2a, 0xe4, 0xd7, 0x02, 0xef, 0xec, 0x15, 0x16, 0xfc,
0xed, 0x18, 0xe5, 0x28, 0x06, 0xe2, 0xcf, 0xb7, 0x05, 0xfb, 0xef, 0xeb, 0xff, 0x23, 0x0e, 0xfb,
0x1a, 0xfd, 0xfe, 0xe4, 0x31, 0x0d, 0x08, 0xff, 0x10, 0xe3, 0xe9, 0x2b, 0xfa, 0xf6, 0x22, 0x28,
0x06, 0x81, 0x9b, 0xa9, 0xbb, 0xc2, 0x31, 0x18, 0xdd, 0xe5, 0x03, 0xfb, 0x10, 0xef, 0x1b, 0xed,
0xcf, 0xfb, 0x11, 0xf3, 0x05, 0xcd, 0xbb, 0xbb, 0xf6, 0x28, 0xbd, 0x18, 0x2c, 0x40, 0x17, 0x0b,
0xea, 0xf5, 0x02, 0xfa, 0x38, 0xff, 0x23, 0x0b, 0x1a, 0xee, 0xf7, 0x0d, 0x12, 0x26, 0x3e, 0xf0,
0x19, 0x8a, 0xd4, 0xf5, 0xdb, 0xb8, 0xf1, 0xee, 0xd3, 0xbc, 0xe9, 0xe9, 0xe7, 0xf6, 0xfa, 0x01,
0x05, 0x0b, 0x14, 0xc8, 0x1b, 0xf8, 0xcc, 0xd4, 0x05, 0x01, 0xd0, 0xe4, 0x0d, 0x1d, 0xfa, 0x28,
0x0f, 0xca, 0x11, 0xce, 0x2b, 0x05, 0x19, 0x0c, 0x26, 0xd5, 0x17, 0x1b, 0xaa, 0xe8, 0x1e, 0x2a,
0x36, 0x53, 0xe0, 0x3b, 0x4a, 0x34, 0xfc, 0xe3, 0x03, 0x3c, 0x15, 0xff, 0x0f, 0x22, 0x4d, 0x0c,
0xf2, 0x36, 0x1a, 0x02, 0x1e, 0x36, 0xdf, 0x0e, 0xea, 0x1f, 0xf4, 0xdf, 0x40, 0x20, 0x1c, 0x3b,
0xfe, 0x1f, 0x02, 0x04, 0x14, 0x04, 0x24, 0x05, 0xcc, 0x0b, 0xee, 0xdc, 0xb4, 0xca, 0x0a, 0x08,
0x15, 0x7f, 0x0e, 0xf7, 0x31, 0x3e, 0xc5, 0x07, 0xdf, 0x34, 0x2f, 0xec, 0xd1, 0x22, 0x1e, 0x41,
0x23, 0x63, 0x4c, 0x11, 0x00, 0x62, 0xe2, 0x3b, 0xeb, 0x0b, 0x02, 0xdf, 0x27, 0x37, 0x26, 0x24,
0x1d, 0x19, 0x24, 0xf3, 0xec, 0x07, 0x0c, 0x3b, 0x16, 0xff, 0xef, 0x0c, 0xce, 0xe2, 0xe1, 0xf9,
0xf8, 0x67, 0x34, 0x40, 0x1d, 0x31, 0xe3, 0xd4, 0x0c, 0x40, 0xf6, 0xd7, 0xf1, 0xf7, 0x00, 0x16,
0x36, 0x5a, 0x5b, 0x1b, 0x0f, 0x5a, 0xd3, 0x45, 0xc5, 0x36, 0x2e, 0xbe, 0x39, 0x39, 0x2f, 0x5c,
0xf7, 0xdf, 0xf3, 0xcd, 0x36, 0xed, 0x45, 0x2f, 0x3f, 0x2d, 0xc3, 0xc3, 0x97, 0xf0, 0x21, 0xb9,
0xee, 0xff, 0xfb, 0x18, 0x5d, 0x23, 0xb9, 0xf6, 0x31, 0x17, 0xf1, 0x0a, 0xe3, 0x35, 0xfe, 0x14,
0xec, 0x27, 0x29, 0x11, 0x40, 0xf9, 0xf8, 0x0c, 0xd6, 0x24, 0xe2, 0xd0, 0x23, 0x6c, 0x03, 0x7f,
0xd6, 0xfa, 0x31, 0x1a, 0x13, 0xf1, 0x41, 0x11, 0x1a, 0x0b, 0xe9, 0xf0, 0xab, 0x10, 0x17, 0xe2,
0xd6, 0xff, 0x3e, 0x00, 0x60, 0x0e, 0xcf, 0xe9, 0x29, 0xe9, 0xf0, 0x18, 0xd1, 0xda, 0xcc, 0x0a,
0xe4, 0x12, 0x15, 0x0d, 0x4b, 0x0c, 0xef, 0x15, 0x02, 0x16, 0xec, 0xc9, 0x4e, 0x61, 0xfa, 0x5f,
0xff, 0x07, 0x13, 0x0c, 0x13, 0xf9, 0x72, 0x01, 0xd3, 0xf5, 0xfb, 0xfa, 0xb6, 0xdc, 0xe2, 0xdb,
0xdc, 0xfc, 0x16, 0x10, 0x57, 0x20, 0xce, 0xc8, 0xf4, 0xee, 0xf4, 0xcf, 0xfc, 0xff, 0xf7, 0xe2,
0xf2, 0xf6, 0x34, 0xf6, 0x23, 0x04, 0x0a, 0x0b, 0xeb, 0x1d, 0xe6, 0xc9, 0x36, 0x45, 0x26, 0x7b,
0xee, 0x07, 0xfa, 0xff, 0x0d, 0xdd, 0x76, 0x2e, 0xee, 0xf7, 0xdc, 0xd5, 0x1e, 0x29, 0x16, 0x15,
0x0a, 0xe1, 0x11, 0xfa, 0x44, 0xe9, 0xff, 0x0a, 0x21, 0x20, 0xee, 0x07, 0x28, 0x04, 0x06, 0x17,
0x1b, 0xf1, 0xe7, 0x1a, 0x41, 0x22, 0x06, 0x1d, 0xe1, 0xf9, 0xf9, 0xf0, 0x05, 0x33, 0x0e, 0x0a,
0x44, 0x02, 0xe9, 0x0b, 0xe4, 0x38, 0x15, 0x3b, 0xee, 0x02, 0x25, 0x52, 0x3e, 0xdb, 0x09, 0x16,
0xfa, 0xdc, 0x61, 0x09, 0x7f, 0xe8, 0xe3, 0xfb, 0x5f, 0x1f, 0x21, 0xf8, 0x1d, 0x08, 0x17, 0x35,
0x11, 0xf9, 0xdc, 0x25, 0x0f, 0x10, 0x30, 0x26, 0xf1, 0x0c, 0xff, 0xe5, 0x1f, 0x39, 0x13, 0x43,
0xfa, 0x17, 0xbe, 0x09, 0xf5, 0x24, 0x3e, 0x54, 0x28, 0x0f, 0xf6, 0x22, 0xe5, 0xd0, 0xfe, 0x39,
0xcf, 0xe2, 0x4d, 0xe4, 0x60, 0xe4, 0xac, 0xf7, 0x3e, 0x06, 0x32, 0x21, 0x40, 0x08, 0x0d, 0xfd,
0x14, 0xe2, 0xde, 0x21, 0xff, 0x0a, 0x0c, 0x08, 0xe6, 0x06, 0xf7, 0xdf, 0x14, 0x41, 0xf5, 0x2a,
0x06, 0x04, 0xa8, 0xfe, 0xed, 0x2f, 0x2a, 0x6d, 0x05, 0xfa, 0x31, 0xfc, 0x68, 0x23, 0xd5, 0xf8,
0xea, 0x69, 0xcc, 0xd6, 0x8e, 0x16, 0x5f, 0x49, 0x11, 0xd8, 0x33, 0x1e, 0x3d, 0x07, 0xbb, 0x89,
0x3b, 0x42, 0x08, 0xb8, 0xc2, 0xfd, 0xf7, 0x04, 0xf0, 0xfc, 0x92, 0xaa, 0xc9, 0xbe, 0xef, 0x90,
0xcf, 0x2b, 0xf1, 0x12, 0x24, 0x0a, 0x08, 0xec, 0x3e, 0x20, 0x03, 0x20, 0x18, 0x0a, 0x01, 0x5d,
0xc5, 0xf9, 0xd9, 0xfb, 0x0f, 0x40, 0x56, 0x7f, 0x15, 0xea, 0x2c, 0x46, 0x30, 0xa8, 0xc3, 0x12,
0x1a, 0x07, 0xee, 0xc7, 0x1f, 0x5c, 0xe8, 0xbc, 0xe7, 0xdd, 0xc3, 0x9a, 0xf8, 0xc3, 0x05, 0xe0,
0x2d, 0x1a, 0xb7, 0x1c, 0x36, 0xce, 0x25, 0x0c, 0x06, 0x1b, 0x05, 0x15, 0x64, 0x47, 0xcb, 0xc2,
0xdc, 0x2b, 0x09, 0x1d, 0xb4, 0x06, 0x08, 0x72, 0x03, 0x36, 0x58, 0x35, 0x16, 0xb4, 0xec, 0xd6,
0xf9, 0xe3, 0x30, 0xd6, 0x1d, 0x63, 0xd6, 0xc6, 0xc1, 0xb7, 0xdf, 0xa3, 0xda, 0xfe, 0x0b, 0xe0,
0x01, 0xcd, 0x0a, 0x22, 0x29, 0x15, 0xe0, 0x18, 0xd6, 0xca, 0xed, 0xf7, 0x03, 0xe4, 0x46, 0x08,
0x15, 0x0c, 0x45, 0x07, 0x42, 0x13, 0xa9, 0x95, 0xea, 0x00, 0x39, 0xf0, 0x0e, 0x19, 0x0b, 0x38,
0x0c, 0xf5, 0x1c, 0x11, 0xe8, 0x28, 0x36, 0x1a, 0xf8, 0xfe, 0xf4, 0xfe, 0x18, 0x42, 0xea, 0x0e,
0xde, 0xd3, 0xe5, 0x0b, 0xe6, 0x0e, 0xfa, 0x24, 0xdc, 0xde, 0xd6, 0x36, 0xe1, 0x00, 0x37, 0x12,
0xea, 0x2b, 0x57, 0x46, 0x3a, 0xef, 0xe9, 0x81, 0xde, 0x47, 0x28, 0xe5, 0xd3, 0x1d, 0x32, 0x4c,
0x1d, 0x49, 0x13, 0x51, 0xf3, 0x4f, 0x0a, 0x56, 0xdd, 0xe3, 0xf6, 0xd2, 0x30, 0x31, 0xa9, 0x30,
0xca, 0xf8, 0xeb, 0xfd, 0xf7, 0x47, 0xeb, 0x57, 0x15, 0xf2, 0x04, 0x2c, 0xcd, 0x03, 0x3f, 0xea,
0x41, 0x08, 0x4c, 0x34, 0x1d, 0xd9, 0xe2, 0x90, 0x16, 0x26, 0x14, 0xe6, 0xfc, 0x21, 0x28, 0x50,
0xea, 0xea, 0x05, 0x20, 0xe0, 0x01, 0xe2, 0x23, 0xdf, 0x16, 0x09, 0xf3, 0x0b, 0x13, 0xf9, 0x18,
0x22, 0xe3, 0x16, 0xec, 0xdf, 0xf3, 0x1c, 0x10, 0x36, 0x10, 0x1e, 0x13, 0xfd, 0x09, 0x53, 0x4e,
0x3f, 0x20, 0x1f, 0x4a, 0x56, 0xef, 0xfa, 0x81, 0xfc, 0x36, 0xfa, 0xda, 0x24, 0x1f, 0x10, 0x01,
0x11, 0xf9, 0xe7, 0x39, 0x02, 0x17, 0x14, 0x3b, 0xc1, 0xf2, 0x10, 0x09, 0xed, 0x02, 0xd6, 0x16,
0x02, 0xcd, 0x0d, 0xd0, 0xce, 0xf8, 0x0a, 0x1b, 0xd9, 0xd2, 0xdc, 0x16, 0xb9, 0xb2, 0x2e, 0x34,
0xe5, 0x07, 0x2a, 0xfb, 0x33, 0xe8, 0xab, 0xac, 0xf7, 0x12, 0x05, 0xfd, 0x21, 0x11, 0x3f, 0x2b,
0x55, 0xf3, 0xf5, 0x43, 0xe0, 0x0b, 0x30, 0xed, 0xb9, 0x1d, 0x0a, 0xed, 0x00, 0x34, 0xf2, 0x08,
0xed, 0xd5, 0xd7, 0xfc, 0xd9, 0x0f, 0xf9, 0x1f, 0x19, 0xef, 0xe2, 0x2e, 0xa6, 0xd9, 0xf3, 0x1a,
0xdc, 0x01, 0x0f, 0xcb, 0x17, 0x18, 0xbf, 0xc0, 0xf5, 0x10, 0x3b, 0xe7, 0x11, 0xe6, 0x4c, 0x2d,
0x42, 0x25, 0x0f, 0x40, 0xef, 0xf9, 0x02, 0xf2, 0xd4, 0x22, 0x27, 0xdd, 0x00, 0x13, 0xfb, 0x24,
0xc0, 0xde, 0xff, 0xc0, 0xc7, 0x21, 0x01, 0x27, 0xf8, 0x0a, 0xd0, 0x27, 0x04, 0x08, 0xdb, 0xfc,
0xe0, 0x9b, 0xe7, 0xcc, 0xf9, 0xe7, 0x1c, 0x1c, 0x04, 0xec, 0xf9, 0x21, 0x1d, 0xf4, 0xe9, 0xeb,
0xf7, 0xc6, 0x02, 0xc3, 0x24, 0xfb, 0xfc, 0x15, 0x36, 0xdc, 0xf5, 0xe0, 0x15, 0xf3, 0x09, 0x0c,
0xfa, 0x02, 0xfc, 0x0c, 0x49, 0xd7, 0x00, 0xee, 0x1e, 0xef, 0xd4, 0xe1, 0x46, 0x02, 0x06, 0xf1,
0xba, 0x91, 0xed, 0x94, 0x21, 0x09, 0x09, 0x1c, 0x00, 0xee, 0x09, 0x0a, 0xf8, 0xf5, 0xf1, 0xed,
0xe0, 0xd0, 0xf6, 0xd6, 0x4b, 0xd9, 0x27, 0xea, 0x0d, 0xf0, 0xe2, 0xf3, 0x0b, 0x1d, 0x17, 0x1f,
0xfe, 0x08, 0xed, 0xee, 0x12, 0xd8, 0xe7, 0xf9, 0xfe, 0xef, 0xee, 0xf8, 0x13, 0xfb, 0xeb, 0x0b,
0xdd, 0x81, 0x02, 0xba, 0x12, 0xe1, 0x36, 0xf0, 0xf5, 0xd2, 0xda, 0x15, 0x30, 0xdf, 0xf1, 0xff,
0xf3, 0xb5, 0xf6, 0xd1, 0x3a, 0xe2, 0x25, 0xef, 0x1c, 0xea, 0xeb, 0xf8, 0x1d, 0xe9, 0x28, 0x13,
0xf5, 0x06, 0x0a, 0xf6, 0x23, 0xd4, 0xfa, 0x04, 0x1b, 0xed, 0xd7, 0xfb, 0xe5, 0x2b, 0x1f, 0x4e,
0x35, 0xf5, 0x98, 0x09, 0x24, 0x9a, 0xf6, 0x0f, 0x26, 0xa5, 0xd3, 0x1a, 0x31, 0x08, 0x1c, 0x2a,
0x12, 0x1f, 0xed, 0x1a, 0xcd, 0x2a, 0xf5, 0x18, 0x22, 0xfb, 0x0c, 0x07, 0xfd, 0xd7, 0x2a, 0xd1,
0x1d, 0x01, 0xf9, 0xf4, 0x25, 0x03, 0xc5, 0xdb, 0x04, 0xd6, 0x04, 0x09, 0xec, 0x2a, 0x12, 0x25,
0xe2, 0xa8, 0x98, 0xd3, 0x0d, 0x97, 0xdf, 0x01, 0x0f, 0xb8, 0xa2, 0x0b, 0xf0, 0x0b, 0x13, 0x22,
0x25, 0x18, 0xc7, 0x2a, 0xbf, 0x22, 0x27, 0xff, 0xfc, 0x0f, 0xd8, 0xdc, 0xde, 0xde, 0x1a, 0xd3,
0xfb, 0xee, 0xfd, 0x0c, 0x27, 0xc7, 0xe9, 0xb9, 0x09, 0xee, 0x06, 0xd6, 0xd9, 0x31, 0xe3, 0x16,
0xd7, 0xa4, 0x81, 0xce, 0x19, 0x8b, 0x17, 0xfe, 0xfc, 0xae, 0xbb, 0xf4, 0x17, 0xfd, 0x27, 0xed,
0x2e, 0x09, 0xad, 0x04, 0xe1, 0x27, 0x20, 0x05, 0xfb, 0xe4, 0xfe, 0x31, 0xcf, 0xda, 0x00, 0xac,
0xfc, 0xf6, 0x10, 0x1d, 0x03, 0xf1, 0xb6, 0xc9, 0x06, 0xf6, 0x06, 0x08, 0xe9, 0xca, 0xee, 0xb8,
0xc5, 0xff, 0x28, 0xd6, 0x35, 0x1e, 0xbf, 0x22, 0xbc, 0xf8, 0xea, 0xb2, 0x0b, 0x05, 0xa9, 0xf4,
0xa8, 0xab, 0x14, 0xca, 0x7f, 0xcc, 0x39, 0xe6, 0x11, 0xf1, 0x2b, 0xe4, 0xee, 0xf3, 0x1f, 0x04,
0xf4, 0xd8, 0x01, 0x1a, 0x7c, 0xe4, 0x02, 0xd1, 0x21, 0xdf, 0xc5, 0xfc, 0xb7, 0x0c, 0xfe, 0xe9,
0xa6, 0xb9, 0xf7, 0xef, 0x06, 0x03, 0xf4, 0x40, 0xe8, 0xf2, 0xea, 0xa4, 0x55, 0x2f, 0xca, 0x0a,
0xde, 0x94, 0x27, 0xcb, 0x65, 0xff, 0x54, 0xf2, 0x30, 0xc7, 0xe0, 0x1d, 0xee, 0xca, 0x0c, 0xc5,
0xd9, 0xd8, 0xf6, 0xf3, 0x30, 0xea, 0xec, 0xb5, 0x2e, 0xf8, 0xd5, 0xf8, 0xe6, 0xef, 0xdf, 0xe5,
0xb3, 0x09, 0xfc, 0xbe, 0x10, 0x39, 0xe9, 0x1b, 0xc9, 0xf8, 0xba, 0xdb, 0x60, 0x08, 0xe7, 0x33,
0xf2, 0xb0, 0x03, 0xe7, 0x5a, 0xe6, 0x28, 0xdf, 0x37, 0xd6, 0xf1, 0xeb, 0xf7, 0xd2, 0xeb, 0xdd,
0xbe, 0xdd, 0x20, 0xd8, 0xfd, 0xc1, 0xf9, 0xe4, 0xfe, 0xef, 0xf6, 0xe0, 0x33, 0x00, 0xe1, 0xf3,
0xf2, 0xf1, 0x02, 0xf0, 0xda, 0xef, 0xe5, 0x5d, 0x2f, 0xf2, 0x0d, 0xf7, 0x28, 0xbf, 0xed, 0xf3,
0xe5, 0x14, 0x24, 0xf0, 0x9f, 0x34, 0x1d, 0x3f, 0xcf, 0xf6, 0xde, 0xc3, 0xec, 0xe8, 0xde, 0xb8,
0x4b, 0x4d, 0x29, 0x12, 0xe1, 0xc8, 0xe4, 0xd0, 0xd2, 0x2e, 0x1e, 0xff, 0x30, 0x2f, 0xa7, 0xea,
0xc6, 0x0b, 0xe8, 0x03, 0x08, 0x55, 0xfb, 0xef, 0x12, 0xda, 0x1d, 0x1e, 0x70, 0x1a, 0xd9, 0xb4,
0x4c, 0x18, 0x43, 0xf9, 0x8e, 0x5a, 0x0b, 0xb7, 0xc5, 0xf8, 0xc0, 0xba, 0xac, 0xc8, 0xe6, 0xe2,
0x16, 0x69, 0x16, 0x46, 0xf9, 0x5d, 0xb7, 0xea, 0xda, 0x1c, 0x21, 0xfe, 0x47, 0xca, 0xf2, 0xc8,
0xe7, 0x24, 0x03, 0xbd, 0xd1, 0x30, 0xed, 0x40, 0xe5, 0x0e, 0xb5, 0xd1, 0x48, 0xa9, 0xfb, 0xd0,
0x46, 0x30, 0x3a, 0x39, 0xe8, 0x28, 0xf3, 0xe9, 0xa8, 0x03, 0xf9, 0xbc, 0xd1, 0xee, 0xe5, 0x81,
0xd3, 0x46, 0x21, 0x24, 0xf0, 0xf7, 0xdb, 0x2f, 0xc5, 0x29, 0x5d, 0xcc, 0xbe, 0xd9, 0xfb, 0xbb,
0xb5, 0x1f, 0x22, 0x1c, 0x43, 0x0c, 0xf2, 0x12, 0xf0, 0x1b, 0x0e, 0xde, 0x03, 0xf1, 0xd4, 0xf6,
0xeb, 0x38, 0x2e, 0xe7, 0x2f, 0x15, 0xbe, 0xf0, 0xf6, 0x48, 0xef, 0xf3, 0x25, 0x4b, 0x15, 0x3f,
0x16, 0xc6, 0x14, 0x1c, 0x37, 0xd6, 0x3a, 0x0e, 0x1a, 0xce, 0xf1, 0x0b, 0x0b, 0xfe, 0xcb, 0xc4,
0xca, 0x08, 0x0b, 0xfc, 0x43, 0xf0, 0x07, 0x15, 0xf0, 0xe4, 0xe9, 0xc7, 0x1f, 0x24, 0xe2, 0xb5,
0xab, 0x00, 0x18, 0x08, 0x63, 0xf4, 0xec, 0xe9, 0xe3, 0x06, 0xf3, 0x07, 0x65, 0x3e, 0xfe, 0x7f,
0xf5, 0xd7, 0xfe, 0x20, 0x44, 0xee, 0x4b, 0x01, 0x1e, 0xec, 0xf9, 0xe5, 0xd2, 0xe6, 0xe2, 0xef,
0xdf, 0x9b, 0xf6, 0x98, 0x65, 0xd6, 0xdb, 0xd9, 0xf2, 0xd7, 0xc4, 0xed, 0xed, 0x06, 0xe7, 0xf9,
0xbd, 0xbd, 0xfe, 0xe1, 0x5c, 0x00, 0x06, 0xfa, 0x33, 0xf1, 0xe3, 0x10, 0x4d, 0x23, 0x16, 0x3b,
0xff, 0xe3, 0x29, 0xe0, 0x2b, 0xe8, 0x35, 0xf3, 0x36, 0x01, 0x12, 0xe6, 0xe9, 0x1c, 0x1c, 0x0f,
0x14, 0x3f, 0xc2, 0x0f, 0x0c, 0xdc, 0xf4, 0x16, 0x52, 0x12, 0x53, 0x55, 0x1d, 0xe7, 0x17, 0x0a,
0x01, 0x1c, 0x0c, 0xe4, 0x2d, 0x1c, 0x18, 0xf1, 0x43, 0xef, 0x2b, 0x35, 0x23, 0xfc, 0x35, 0xef,
0x26, 0x03, 0xf7, 0xfd, 0x3d, 0x15, 0x1e, 0xdc, 0x22, 0x1e, 0xfe, 0xf0, 0x02, 0x1c, 0xf2, 0xf7,
0x1e, 0x29, 0xf8, 0x35, 0xf2, 0xe6, 0x02, 0x17, 0x24, 0x30, 0x3f, 0x37, 0x06, 0xfe, 0x2c, 0xea,
0xfe, 0xeb, 0x0e, 0x1e, 0x35, 0x22, 0x1d, 0x14, 0x38, 0xfd, 0xf7, 0x38, 0x2e, 0xdf, 0x2f, 0x1e,
0x23, 0x00, 0xf9, 0x17, 0x7f, 0xfe, 0x2b, 0xce, 0x05, 0xf3, 0xe7, 0xe3, 0xf4, 0xff, 0x06, 0x13,
0x05, 0x22, 0xde, 0x19, 0x23, 0xe5, 0x0d, 0x1a, 0x59, 0x38, 0x09, 0x38, 0x18, 0xe8, 0x28, 0xfd,
0x1b, 0xfb, 0xee, 0x32, 0x0d, 0x18, 0x02, 0xeb, 0x68, 0x25, 0xf7, 0x56, 0x12, 0x01, 0x62, 0x1b,
0x45, 0x21, 0xf0, 0x02, 0x78, 0xe2, 0xe6, 0x20, 0x32, 0x04, 0xfa, 0xe7, 0x32, 0xfc, 0xd1, 0xe8,
0xd2, 0xf6, 0x28, 0xd5, 0xfe, 0xf8, 0x06, 0xf7, 0x58, 0xf2, 0x29, 0x02, 0x20, 0x12, 0x01, 0xcf,
0xf2, 0xe9, 0x07, 0xfa, 0x9f, 0xed, 0xdf, 0x02, 0xf4, 0x06, 0x25, 0xb9, 0x97, 0x8d, 0x10, 0xb5,
0x0f, 0x19, 0xe9, 0x36, 0xd3, 0x0a, 0xac, 0xf8, 0xc2, 0x45, 0x26, 0xd3, 0x25, 0xe2, 0xfa, 0xed,
0xdd, 0x03, 0x3b, 0xed, 0xa6, 0x0d, 0x0d, 0x1b, 0x17, 0xf5, 0x21, 0x25, 0x04, 0xc8, 0xe4, 0xe9,
0xf5, 0x2a, 0x23, 0xf0, 0xa7, 0xff, 0xe9, 0x05, 0xce, 0xfd, 0x3c, 0x05, 0xb7, 0xaa, 0x1e, 0xa7,
0x23, 0x48, 0x28, 0x09, 0x81, 0xfa, 0xf0, 0xc5, 0xc7, 0x5a, 0x43, 0x09, 0x31, 0xfe, 0xc1, 0x00,
0xe2, 0x11, 0x6e, 0xd6, 0xc6, 0x14, 0x28, 0x1a, 0x4a, 0x48, 0x26, 0x45, 0x3c, 0x03, 0xc9, 0xc5,
0xf7, 0x5a, 0x2e, 0xfd, 0x9e, 0x4c, 0xfb, 0xe9, 0xe7, 0x20, 0x2b, 0xc8, 0xf4, 0xba, 0xf2, 0xca,
0xf0, 0x3d, 0xf5, 0x3e, 0x97, 0x03, 0x98, 0xdb, 0xdf, 0x4c, 0x75, 0x23, 0x31, 0xff, 0x31, 0x09,
0x4a, 0x20, 0xd0, 0x5d, 0x26, 0x00, 0x14, 0xfb, 0x55, 0x68, 0x16, 0x4f, 0x12, 0xd8, 0xe4, 0xf8,
0x36, 0x02, 0xe0, 0x09, 0xc4, 0xe1, 0x03, 0xe4, 0xc0, 0x0b, 0xfa, 0x47, 0xf7, 0x9f, 0x1d, 0xbf,
0x07, 0x3f, 0xc4, 0x39, 0xca, 0xed, 0xdc, 0xd9, 0xe3, 0x11, 0x43, 0xfc, 0xf9, 0x24, 0xda, 0x30,
0xd6, 0xe7, 0xa1, 0xd7, 0x3d, 0xf5, 0xed, 0xfa, 0x1e, 0x01, 0xe7, 0x35, 0x59, 0xe5, 0xc8, 0x17,
0x00, 0x0f, 0xfa, 0xd4, 0xe2, 0x18, 0x2a, 0x2e, 0x12, 0x0a, 0x43, 0xf9, 0xc8, 0xb6, 0xe4, 0xae,
0xea, 0x43, 0xe4, 0x05, 0x94, 0x0b, 0xee, 0xd8, 0xdb, 0x12, 0x41, 0xe0, 0xa0, 0x10, 0xf4, 0xf4,
0x04, 0xac, 0x96, 0x0c, 0x7f, 0x8f, 0xff, 0x03, 0x1e, 0x17, 0xfa, 0x38, 0x1c, 0xc7, 0x16, 0xc9,
0x0d, 0x20, 0x13, 0x31, 0x83, 0x43, 0xd3, 0x16, 0x35, 0x02, 0x08, 0x19, 0x9d, 0xa5, 0xb7, 0x91,
0xce, 0x1d, 0xf0, 0x40, 0xb9, 0x39, 0xd1, 0xd7, 0xb5, 0x18, 0x1a, 0x19, 0x18, 0x1f, 0xf9, 0x1e,
0x1a, 0x21, 0xf4, 0x1d, 0xef, 0x18, 0xf7, 0x29, 0x2d, 0xe6, 0x0c, 0x22, 0xfc, 0xfa, 0x17, 0xf4,
0xf7, 0x0a, 0xe4, 0x05, 0x18, 0xe7, 0xe5, 0xc9, 0xf6, 0xf2, 0xd6, 0xf1, 0x23, 0x05, 0x50, 0x12,
0x15, 0xef, 0xe6, 0x02, 0x7f, 0xf4, 0x1a, 0x05, 0x43, 0xe2, 0xfc, 0x08, 0x0c, 0x1b, 0x18, 0xf5,
0x14, 0x0c, 0xff, 0x17, 0xcf, 0x3b, 0x20, 0x2f, 0x23, 0xf1, 0xf1, 0x15, 0x00, 0xee, 0xf8, 0xd5,
0xf1, 0xe1, 0xf6, 0x15, 0x1d, 0xdb, 0xe2, 0xc7, 0xf3, 0xe8, 0x01, 0xe7, 0x29, 0x11, 0x68, 0x2f,
0x34, 0xe8, 0xdc, 0xfa, 0x71, 0xfa, 0x17, 0x0d, 0x50, 0xd3, 0xf3, 0x1b, 0x02, 0x07, 0x12, 0x16,
0x04, 0x02, 0xf4, 0xea, 0xe2, 0xf7, 0x2f, 0x34, 0x10, 0xfc, 0x1d, 0x10, 0x09, 0xdf, 0xf9, 0xef,
0x03, 0xfa, 0xdf, 0x05, 0xf8, 0xf2, 0xeb, 0xe0, 0x1d, 0xfe, 0xfb, 0xee, 0x3e, 0x0c, 0x2e, 0x1c,
0x0a, 0xe0, 0xdd, 0xe4, 0x5a, 0x11, 0x09, 0x0d, 0x33, 0xf2, 0xd9, 0x20, 0x20, 0x1c, 0xf2, 0xf7,
0x03, 0xd7, 0xfc, 0x14, 0x52, 0x90, 0x0b, 0x21, 0x35, 0x3b, 0x0f, 0x3b, 0x49, 0xe2, 0xcb, 0xd0,
0xea, 0x15, 0x0d, 0x0f, 0x1b, 0x1f, 0x35, 0x05, 0x07, 0xf7, 0xe2, 0xbb, 0xc5, 0xde, 0xde, 0xe9,
0xe2, 0x2d, 0x0c, 0xf4, 0xf8, 0xd6, 0xbb, 0xf9, 0xbd, 0x17, 0x0e, 0x04, 0x23, 0x08, 0xe2, 0x17,
0xcc, 0xbe, 0xe0, 0x00, 0x7f, 0xa7, 0x22, 0x28, 0x3b, 0xf0, 0x44, 0x2b, 0x2e, 0xff, 0xc0, 0xed,
0xe1, 0xf6, 0x0a, 0x0e, 0xf7, 0x2f, 0x20, 0x1a, 0x28, 0xee, 0xff, 0xf7, 0x0c, 0xc7, 0x35, 0xb7,
0xf6, 0x06, 0x1c, 0x36, 0xf8, 0xdc, 0xde, 0xbd, 0x10, 0xee, 0xf5, 0xcf, 0x15, 0xf2, 0x05, 0x03,
0xd9, 0xc5, 0x04, 0xe8, 0x3b, 0xb9, 0x2b, 0x05, 0x3c, 0x12, 0xed, 0x19, 0x0b, 0xe9, 0xf1, 0xf0,
0xdb, 0x19, 0x29, 0x00, 0x55, 0xfa, 0x0f, 0x0c, 0xc2, 0x0e, 0x1f, 0x1e, 0xde, 0xbe, 0x1d, 0xa8,
0x21, 0xf7, 0xcf, 0x40, 0xbb, 0x04, 0xcf, 0x0a, 0xdf, 0xf2, 0xe5, 0xd3, 0xd5, 0xd5, 0x0f, 0x38,
0xba, 0xc2, 0x41, 0x84, 0x5b, 0xba, 0xf8, 0xbd, 0x5c, 0xfd, 0x2d, 0x13, 0x23, 0xdf, 0xe8, 0x1c,
0xee, 0xde, 0x2d, 0xcf, 0xb9, 0xf4, 0x25, 0x36, 0xd8, 0x2e, 0x75, 0x27, 0xdf, 0xf7, 0x21, 0xdd,
0x37, 0x38, 0x43, 0x3a, 0xbe, 0x2d, 0xf6, 0x28, 0xb3, 0x58, 0x5c, 0xd3, 0xe3, 0xd9, 0xd6, 0x1e,
0xd8, 0xf4, 0x5e, 0x89, 0xec, 0xcb, 0xd7, 0xdd, 0x1f, 0x12, 0x49, 0x23, 0x31, 0xce, 0xe9, 0xe3,
0xdb, 0x10, 0x54, 0xff, 0xa1, 0x03, 0x0f, 0x13, 0xfe, 0x33, 0x7f, 0x0a, 0xbb, 0xa1, 0x1a, 0xa7,
0x24, 0x19, 0x56, 0x3d, 0x87, 0x1c, 0xc4, 0xf6, 0xbc, 0x3b, 0x58, 0xfc, 0xeb, 0xfd, 0xef, 0xf3,
0xdb, 0x27, 0x5c, 0xbf, 0xd1, 0xdf, 0xd7, 0xe4, 0xf9, 0x36, 0x45, 0x25, 0x5e, 0xfc, 0x24, 0xf8,
0x18, 0x2b, 0x52, 0x66, 0x9a, 0x02, 0x07, 0x10, 0x00, 0x66, 0x4b, 0x0f, 0xbb, 0x04, 0x01, 0x94,
0xe3, 0x55, 0x25, 0x21, 0xc2, 0x19, 0xd1, 0x21, 0xe6, 0x38, 0x51, 0x1d, 0x05, 0x33, 0x2c, 0xe6,
0x43, 0x7f, 0x67, 0x39, 0x09, 0x3c, 0xe3, 0x62, 0xcc, 0x5d, 0x13, 0xf8, 0x01, 0x3e, 0x45, 0x1f,
0x33, 0x2b, 0xdd, 0x41, 0xb7, 0x14, 0x29, 0xef, 0xca, 0xeb, 0x13, 0x29, 0xd0, 0x15, 0xd2, 0x50,
0x98, 0x07, 0x06, 0x05, 0xfd, 0x00, 0xf7, 0xef, 0x07, 0xcd, 0xf8, 0x36, 0xb3, 0xd5, 0x23, 0x53,
0x0d, 0x79, 0x51, 0xfe, 0xf9, 0x59, 0xf5, 0x18, 0xf7, 0xfd, 0x5c, 0x1e, 0x09, 0x35, 0x50, 0x3c,
0x15, 0x27, 0xfb, 0x3d, 0xe4, 0x3f, 0x25, 0x1c, 0xb0, 0x0f, 0x2d, 0xf6, 0xf6, 0x16, 0xc3, 0x21,
0xdd, 0xea, 0xe9, 0xaa, 0xd2, 0x09, 0x3e, 0x34, 0x0e, 0xba, 0xec, 0x1f, 0xeb, 0x13, 0x26, 0x1e,
0x38, 0x79, 0x2d, 0x39, 0x0b, 0x70, 0xeb, 0xf0, 0xd5, 0x32, 0x4d, 0x07, 0x1c, 0x38, 0x79, 0x2d,
0x0f, 0x4d, 0xec, 0x04, 0xdb, 0x21, 0x1b, 0x4c, 0xb9, 0xee, 0xf9, 0x22, 0x2d, 0x02, 0xe9, 0x0f,
0xda, 0xf6, 0xf0, 0x99, 0x04, 0x29, 0xde, 0x08, 0x0f, 0xb5, 0xff, 0x19, 0xce, 0xeb, 0x6d, 0x0f,
0x5e, 0x31, 0x20, 0x44, 0x73, 0x0f, 0xae, 0x81, 0xf4, 0x28, 0xf1, 0xcb, 0x28, 0x0d, 0x34, 0x55,
0x56, 0x33, 0x19, 0x36, 0xfe, 0x00, 0x1c, 0x0f, 0xfc, 0x1a, 0xee, 0xc4, 0x19, 0x33, 0xb6, 0xfc,
0xfb, 0xd2, 0x0c, 0xf2, 0xd4, 0x16, 0x09, 0x53, 0xfa, 0xf3, 0xf6, 0x22, 0x8e, 0xd1, 0x48, 0x20,
0xfc, 0x20, 0x49, 0x02, 0x79, 0x25, 0xa5, 0x96, 0xee, 0x2b, 0xf2, 0xed, 0x00, 0x01, 0xf8, 0x0c,
0xec, 0x48, 0x4f, 0x1c, 0x04, 0x15, 0x0a, 0x20, 0xf6, 0x5d, 0x01, 0xfd, 0x33, 0x4a, 0xf8, 0x61,
0x01, 0xf4, 0xdb, 0xcd, 0xcf, 0x0c, 0x36, 0x34, 0x05, 0xe5, 0x05, 0x05, 0xc0, 0xd7, 0xfc, 0xed,
0x94, 0x18, 0x37, 0x07, 0x57, 0xe8, 0xa9, 0xd3, 0x13, 0x25, 0x06, 0x1e, 0xc0, 0xe9, 0xf4, 0x44,
0xe5, 0x13, 0x41, 0x12, 0x18, 0x3c, 0xd5, 0x01, 0xe0, 0x67, 0x37, 0xc4, 0xee, 0x68, 0x2e, 0x5b,
0x0d, 0x19, 0x00, 0x20, 0xdd, 0x15, 0x46, 0x28, 0xe4, 0x20, 0x19, 0x07, 0x43, 0x05, 0xe3, 0x04,
0x09, 0x9e, 0x2b, 0xce, 0x27, 0xec, 0x2b, 0xfa, 0x47, 0xf7, 0xfd, 0x19, 0x35, 0x17, 0xf5, 0xfe,
0x14, 0xfa, 0xfe, 0xf9, 0x18, 0xee, 0x16, 0xff, 0x1c, 0xf1, 0x16, 0x2e, 0xef, 0xf0, 0x12, 0xf3,
0x27, 0x1a, 0x0a, 0x2c, 0xeb, 0xde, 0xec, 0xd2, 0x15, 0xf9, 0x15, 0xf7, 0x39, 0xe8, 0xf0, 0xec,
0xfb, 0x81, 0x1c, 0xd1, 0x30, 0x06, 0x10, 0x17, 0x16, 0xe8, 0xe2, 0x0e, 0x22, 0x0d, 0x17, 0xf1,
0xf7, 0xf2, 0xfc, 0xfb, 0x5f, 0x16, 0xf2, 0x14, 0x3b, 0xda, 0x22, 0xf5, 0xd4, 0xdb, 0xf7, 0xdb,
0x0e, 0x20, 0x00, 0xea, 0x02, 0x01, 0xe1, 0xf8, 0xde, 0x18, 0x29, 0xf1, 0x43, 0xf6, 0xf7, 0xe8,
0xe5, 0xa1, 0x2d, 0xcf, 0x49, 0x30, 0x17, 0xff, 0x46, 0xe6, 0xf8, 0x3d, 0x21, 0xf5, 0xdf, 0x05,
0x0a, 0xd0, 0xde, 0xe2, 0x1f, 0xec, 0x0d, 0xfb, 0x34, 0x09, 0xfa, 0xf9, 0xde, 0xe7, 0x0e, 0xd6,
0x19, 0x07, 0x01, 0x1f, 0xef, 0x0a, 0xcf, 0xe4, 0x11, 0xef, 0x28, 0xcc, 0xef, 0xf2, 0xc6, 0xd3,
0xea, 0xf9, 0x15, 0x07, 0xb2, 0x43, 0xef, 0x03, 0x81, 0xf4, 0xc6, 0xc9, 0x35, 0xdf, 0x36, 0xf4,
0xe8, 0xde, 0x1b, 0x08, 0x30, 0xcb, 0x13, 0xf3, 0x2c, 0xdc, 0x07, 0x10, 0x2f, 0x42, 0xfe, 0x13,
0x32, 0x27, 0x18, 0x22, 0xdc, 0x15, 0x20, 0x35, 0xc0, 0x38, 0x21, 0xaf, 0xf5, 0xb6, 0xd5, 0xd7,
0xbb, 0xf6, 0x25, 0xef, 0xae, 0x36, 0xe7, 0x0e, 0x9c, 0xe1, 0xd3, 0xe2, 0x2d, 0xe4, 0x1e, 0xf8,
0x09, 0xf6, 0x17, 0xe3, 0x25, 0xea, 0x26, 0xe1, 0xfe, 0xe6, 0x08, 0xe2, 0x47, 0x02, 0x17, 0x21,
0x0b, 0x01, 0x1e, 0x2a, 0xd1, 0xde, 0x27, 0x12, 0xec, 0x1e, 0x47, 0xcf, 0xdf, 0xf4, 0xc3, 0xf5,
0xd0, 0xff, 0x44, 0x05, 0xa3, 0x44, 0xf2, 0x21, 0xc9, 0xf5, 0xe0, 0xc1, 0x2f, 0x27, 0x2d, 0xec,
0x37, 0xec, 0xe1, 0x37, 0x22, 0xf3, 0x2a, 0xf5, 0x21, 0x09, 0xd6, 0x0a, 0x54, 0x22, 0x27, 0x41,
0xfc, 0xf9, 0xf5, 0x16, 0xe2, 0xf1, 0x0e, 0x28, 0xf7, 0x14, 0x29, 0x00, 0x3a, 0xe6, 0xca, 0xb2,
0xcf, 0x01, 0x42, 0xf3, 0x81, 0x06, 0xd1, 0xf2, 0xef, 0x37, 0x49, 0x18, 0xf4, 0xcc, 0xf4, 0xef,
0xdd, 0xec, 0x25, 0xcb, 0xd1, 0xe7, 0xf8, 0xe2, 0x08, 0x29, 0x5f, 0x25, 0xee, 0xbb, 0x01, 0xbe,
0x00, 0x44, 0x04, 0x18, 0xa1, 0x12, 0xda, 0xf9, 0xe3, 0x5a, 0x3f, 0xe3, 0x5a, 0xef, 0x12, 0xf7,
0x26, 0x1f, 0x54, 0x0b, 0xe0, 0x06, 0x0d, 0x27, 0x07, 0x36, 0x25, 0x1e, 0x0a, 0xee, 0x24, 0x03,
0xe7, 0x10, 0x10, 0x12, 0xaa, 0x06, 0xeb, 0x00, 0x03, 0x19, 0x44, 0x2d, 0xd7, 0xe1, 0xfe, 0xcd,
0x16, 0x48, 0x15, 0x14, 0xd2, 0x06, 0xd8, 0xf2, 0xba, 0x1e, 0x37, 0x04, 0x7f, 0xf9, 0x2f, 0x1e,
0x3a, 0x14, 0x1f, 0x38, 0x00, 0x0b, 0x38, 0xfb, 0x0e, 0x2f, 0x28, 0x11, 0x23, 0xfa, 0x06, 0x08,
0x4c, 0x32, 0x0d, 0x47, 0xd5, 0x0e, 0x0e, 0x22, 0x25, 0x1f, 0x1f, 0x38, 0xcc, 0x1a, 0xf6, 0xd8,
0x18, 0x2c, 0x25, 0x21, 0xb7, 0x09, 0xec, 0x1d, 0xd3, 0x2e, 0x28, 0xee, 0xf5, 0xfd, 0xeb, 0xf0,
0x1f, 0x19, 0xd9, 0x48, 0xe6, 0x0a, 0x16, 0x15, 0x7f, 0x59, 0x3f, 0x69, 0x11, 0x18, 0xf0, 0x0f,
0x4c, 0xf2, 0x1a, 0x30, 0x5f, 0xf3, 0x22, 0x31, 0x4e, 0xf9, 0x20, 0x21, 0x14, 0x03, 0x35, 0xdf,
0x43, 0xfc, 0xfe, 0x28, 0x2e, 0xe4, 0x05, 0x01, 0x29, 0x1b, 0x02, 0x04, 0xef, 0x04, 0xf9, 0x11,
0x34, 0x1a, 0xd6, 0xff, 0xfa, 0x1b, 0x11, 0x47, 0x4f, 0x31, 0x1b, 0x4e, 0x06, 0xed, 0x2f, 0xea,
0x49, 0xec, 0xd7, 0x03, 0x26, 0x0b, 0xfa, 0x26, 0x50, 0x2e, 0x48, 0x5f, 0x24, 0xf6, 0x53, 0x03,
0x2f, 0x0d, 0x05, 0xd8, 0x6c, 0xf7, 0xc8, 0xcd, 0x18, 0x1b, 0x03, 0x14, 0xfc, 0x0c, 0x28, 0x0f,
0x1c, 0x1d, 0xa9, 0x3c, 0x35, 0x09, 0x23, 0x65, 0x37, 0x34, 0x4d, 0x78, 0x02, 0x00, 0x38, 0xc4,
0x49, 0x09, 0xf9, 0xe8, 0x2b, 0xf9, 0x28, 0x0c, 0x5c, 0xed, 0xf1, 0x5f, 0x3f, 0xb8, 0x51, 0xf3,
0x14, 0x0b, 0xfb, 0x23, 0x44, 0x08, 0x06, 0x1a, 0x1c, 0x06, 0xe7, 0x3a, 0x2e, 0xfe, 0xff, 0xff,
0x04, 0x00, 0x00, 0x00, 0x10, 0x00, 0x00, 0x00, 0xb9, 0x80, 0x18, 0x0e, 0xb9, 0x3f, 0x92, 0xe5,
0xdc, 0xda, 0xb5, 0x2b, 0x35, 0x25, 0x23, 0x33, 0x4a, 0xfe, 0xff, 0xff, 0x04, 0x00, 0x00, 0x00,
0x10, 0x00, 0x00, 0x00, 0x6b, 0x49, 0x3e, 0x4e, 0x3a, 0x48, 0x38, 0x36, 0x4b, 0x3a, 0x6e, 0x57,
0x6a, 0x32, 0x6e, 0x7f, 0x66, 0xfe, 0xff, 0xff, 0x04, 0x00, 0x00, 0x00, 0x40, 0x00, 0x00, 0x00,
0x63, 0x0d, 0x00, 0x00, 0x4f, 0x1a, 0x00, 0x00, 0x0c, 0x06, 0x00, 0x00, 0x45, 0x06, 0x00, 0x00,
0x6b, 0x0d, 0x00, 0x00, 0x33, 0xe1, 0xff, 0xff, 0x63, 0x0c, 0x00, 0x00, 0xff, 0x05, 0x00, 0x00,
0x85, 0x06, 0x00, 0x00, 0x71, 0x06, 0x00, 0x00, 0xec, 0x0f, 0x00, 0x00, 0x0e, 0x00, 0x00, 0x00,
0x03, 0x00, 0x00, 0x00, 0x54, 0xf7, 0xff, 0xff, 0x02, 0xfd, 0xff, 0xff, 0x0f, 0x00, 0x00, 0x00,
0xb2, 0xfe, 0xff, 0xff, 0x04, 0x00, 0x00, 0x00, 0x90, 0x00, 0x00, 0x00, 0x2e, 0xeb, 0x94, 0x2b,
0x7f, 0xc4, 0x1c, 0x0e, 0xce, 0xf8, 0xec, 0x0f, 0x68, 0x4e, 0x2a, 0x7b, 0x7f, 0xf1, 0x22, 0x7c,
0x7c, 0xaa, 0xd8, 0x7f, 0x0d, 0x2e, 0x51, 0x03, 0x4c, 0x0a, 0x44, 0x44, 0x30, 0x49, 0x1e, 0x7f,
0x01, 0x2b, 0x48, 0xc8, 0x18, 0x48, 0xc9, 0x3b, 0x7f, 0x8b, 0xe6, 0x1d, 0x8d, 0x10, 0x09, 0x81,
0x9d, 0xf3, 0xba, 0x2b, 0xac, 0x28, 0xc7, 0xfe, 0xe5, 0xd9, 0x81, 0xb6, 0x30, 0x7f, 0xcc, 0x11,
0xc1, 0xe0, 0x1f, 0x65, 0x08, 0xff, 0x7f, 0x1b, 0x05, 0x50, 0xfb, 0xf9, 0x43, 0x7f, 0xce, 0x93,
0x6e, 0xb4, 0x85, 0x13, 0x0d, 0xd1, 0x4e, 0x33, 0x81, 0x08, 0x47, 0x19, 0x4a, 0x18, 0x99, 0x7f,
0x12, 0xc7, 0x76, 0x25, 0xfa, 0x28, 0xad, 0x07, 0x0b, 0xed, 0x78, 0xf6, 0x1c, 0x20, 0x22, 0xb2,
0x7f, 0xc2, 0x36, 0xed, 0x81, 0x20, 0x85, 0xc4, 0x27, 0x2f, 0xb6, 0x7f, 0xb5, 0x22, 0x48, 0xd7,
0xac, 0x25, 0xc9, 0x84, 0xef, 0x5e, 0x7f, 0xeb, 0x5a, 0x75, 0xcb, 0x58, 0x4e, 0xff, 0xff, 0xff,
0x04, 0x00, 0x00, 0x00, 0x08, 0x00, 0x00, 0x00, 0x01, 0x00, 0x00, 0x00, 0x02, 0x00, 0x00, 0x00,
0x5c, 0xee, 0xff, 0xff, 0x60, 0xee, 0xff, 0xff, 0x0f, 0x00, 0x00, 0x00, 0x4d, 0x4c, 0x49, 0x52,
0x20, 0x43, 0x6f, 0x6e, 0x76, 0x65, 0x72, 0x74, 0x65, 0x64, 0x2e, 0x00, 0x01, 0x00, 0x00, 0x00,
0x14, 0x00, 0x00, 0x00, 0x00, 0x00, 0x0e, 0x00, 0x18, 0x00, 0x14, 0x00, 0x10, 0x00, 0x0c, 0x00,
0x08, 0x00, 0x04, 0x00, 0x0e, 0x00, 0x00, 0x00, 0x14, 0x00, 0x00, 0x00, 0x1c, 0x00, 0x00, 0x00,
0xb4, 0x02, 0x00, 0x00, 0xb8, 0x02, 0x00, 0x00, 0xbc, 0x02, 0x00, 0x00, 0x04, 0x00, 0x00, 0x00,
0x6d, 0x61, 0x69, 0x6e, 0x00, 0x00, 0x00, 0x00, 0x0a, 0x00, 0x00, 0x00, 0x50, 0x02, 0x00, 0x00,
0xec, 0x01, 0x00, 0x00, 0xa8, 0x01, 0x00, 0x00, 0x74, 0x01, 0x00, 0x00, 0x34, 0x01, 0x00, 0x00,
0xf0, 0x00, 0x00, 0x00, 0xbc, 0x00, 0x00, 0x00, 0x78, 0x00, 0x00, 0x00, 0x40, 0x00, 0x00, 0x00,
0x04, 0x00, 0x00, 0x00, 0x46, 0xfe, 0xff, 0xff, 0x1c, 0x00, 0x00, 0x00, 0x00, 0x00, 0x00, 0x09,
0x1c, 0x00, 0x00, 0x00, 0x20, 0x00, 0x00, 0x00, 0x06, 0x00, 0x00, 0x00, 0x00, 0x00, 0x06, 0x00,
0x08, 0x00, 0x04, 0x00, 0x06, 0x00, 0x00, 0x00, 0x00, 0x00, 0x80, 0x3f, 0x01, 0x00, 0x00, 0x00,
0x15, 0x00, 0x00, 0x00, 0x01, 0x00, 0x00, 0x00, 0x14, 0x00, 0x00, 0x00, 0x7e, 0xfe, 0xff, 0xff,
0x14, 0x00, 0x00, 0x00, 0x00, 0x00, 0x00, 0x08, 0x10, 0x00, 0x00, 0x00, 0x14, 0x00, 0x00, 0x00,
0x05, 0x00, 0x00, 0x00, 0x30, 0xef, 0xff, 0xff, 0x01, 0x00, 0x00, 0x00, 0x14, 0x00, 0x00, 0x00,
0x03, 0x00, 0x00, 0x00, 0x13, 0x00, 0x00, 0x00, 0x0a, 0x00, 0x00, 0x00, 0x0b, 0x00, 0x00, 0x00,
0xb2, 0xfe, 0xff, 0xff, 0x1c, 0x00, 0x00, 0x00, 0x00, 0x00, 0x00, 0x08, 0x1c, 0x00, 0x00, 0x00,
0x20, 0x00, 0x00, 0x00, 0x05, 0x00, 0x00, 0x00, 0x00, 0x00, 0x06, 0x00, 0x08, 0x00, 0x07, 0x00,
0x06, 0x00, 0x00, 0x00, 0x00, 0x00, 0x00, 0x01, 0x01, 0x00, 0x00, 0x00, 0x13, 0x00, 0x00, 0x00,
0x03, 0x00, 0x00, 0x00, 0x12, 0x00, 0x00, 0x00, 0x08, 0x00, 0x00, 0x00, 0x09, 0x00, 0x00, 0x00,
0xf2, 0xfe, 0xff, 0xff, 0x14, 0x00, 0x00, 0x00, 0x00, 0x00, 0x00, 0x1b, 0x10, 0x00, 0x00, 0x00,
0x14, 0x00, 0x00, 0x00, 0x04, 0x00, 0x00, 0x00, 0xa4, 0xef, 0xff, 0xff, 0x01, 0x00, 0x00, 0x00,
0x12, 0x00, 0x00, 0x00, 0x02, 0x00, 0x00, 0x00, 0x11, 0x00, 0x00, 0x00, 0x01, 0x00, 0x00, 0x00,
0x22, 0xff, 0xff, 0xff, 0x14, 0x00, 0x00, 0x00, 0x00, 0x00, 0x00, 0x05, 0x24, 0x00, 0x00, 0x00,
0x28, 0x00, 0x00, 0x00, 0x01, 0x00, 0x00, 0x00, 0x12, 0xff, 0xff, 0xff, 0x03, 0x00, 0x00, 0x00,
0x01, 0x00, 0x00, 0x00, 0x03, 0x00, 0x00, 0x00, 0x01, 0x00, 0x00, 0x00, 0x00, 0x00, 0x00, 0x01,
0x01, 0x00, 0x00, 0x00, 0x11, 0x00, 0x00, 0x00, 0x01, 0x00, 0x00, 0x00, 0x10, 0x00, 0x00, 0x00,
0x02, 0xff, 0xff, 0xff, 0x10, 0x00, 0x00, 0x00, 0x00, 0x00, 0x00, 0x01, 0x18, 0x00, 0x00, 0x00,
0x1c, 0x00, 0x00, 0x00, 0xf4, 0xfe, 0xff, 0xff, 0x00, 0x00, 0x00, 0x01, 0x01, 0x00, 0x00, 0x00,
0x01, 0x00, 0x00, 0x00, 0x01, 0x00, 0x00, 0x00, 0x10, 0x00, 0x00, 0x00, 0x03, 0x00, 0x00, 0x00,
0x0f, 0x00, 0x00, 0x00, 0x06, 0x00, 0x00, 0x00, 0x07, 0x00, 0x00, 0x00, 0x9e, 0xff, 0xff, 0xff,
0x14, 0x00, 0x00, 0x00, 0x00, 0x00, 0x00, 0x0b, 0x10, 0x00, 0x00, 0x00, 0x14, 0x00, 0x00, 0x00,
0x03, 0x00, 0x00, 0x00, 0x50, 0xf0, 0xff, 0xff, 0x01, 0x00, 0x00, 0x00, 0x0f, 0x00, 0x00, 0x00,
0x02, 0x00, 0x00, 0x00, 0x0e, 0x00, 0x00, 0x00, 0x05, 0x00, 0x00, 0x00, 0xce, 0xff, 0xff, 0xff,
0x14, 0x00, 0x00, 0x00, 0x00, 0x00, 0x00, 0x15, 0x10, 0x00, 0x00, 0x00, 0x14, 0x00, 0x00, 0x00,
0x02, 0x00, 0x00, 0x00, 0x80, 0xf0, 0xff, 0xff, 0x01, 0x00, 0x00, 0x00, 0x0e, 0x00, 0x00, 0x00,
0x02, 0x00, 0x00, 0x00, 0x0d, 0x00, 0x00, 0x00, 0x04, 0x00, 0x00, 0x00, 0x00, 0x00, 0x0e, 0x00,
0x1a, 0x00, 0x14, 0x00, 0x10, 0x00, 0x0c, 0x00, 0x0b, 0x00, 0x04, 0x00, 0x0e, 0x00, 0x00, 0x00,
0x24, 0x00, 0x00, 0x00, 0x00, 0x00, 0x00, 0x05, 0x34, 0x00, 0x00, 0x00, 0x38, 0x00, 0x00, 0x00,
0x01, 0x00, 0x00, 0x00, 0x00, 0x00, 0x0e, 0x00, 0x18, 0x00, 0x17, 0x00, 0x10, 0x00, 0x0c, 0x00,
0x08, 0x00, 0x04, 0x00, 0x0e, 0x00, 0x00, 0x00, 0x03, 0x00, 0x00, 0x00, 0x03, 0x00, 0x00, 0x00,
0x03, 0x00, 0x00, 0x00, 0x03, 0x00, 0x00, 0x00, 0x00, 0x00, 0x00, 0x01, 0x01, 0x00, 0x00, 0x00,
0x0d, 0x00, 0x00, 0x00, 0x01, 0x00, 0x00, 0x00, 0x0c, 0x00, 0x00, 0x00, 0x00, 0x00, 0x0e, 0x00,
0x14, 0x00, 0x00, 0x00, 0x10, 0x00, 0x0c, 0x00, 0x0b, 0x00, 0x04, 0x00, 0x0e, 0x00, 0x00, 0x00,
0x1c, 0x00, 0x00, 0x00, 0x00, 0x00, 0x00, 0x01, 0x24, 0x00, 0x00, 0x00, 0x28, 0x00, 0x00, 0x00,
0x0c, 0x00, 0x10, 0x00, 0x00, 0x00, 0x0c, 0x00, 0x08, 0x00, 0x07, 0x00, 0x0c, 0x00, 0x00, 0x00,
0x00, 0x00, 0x00, 0x01, 0x01, 0x00, 0x00, 0x00, 0x01, 0x00, 0x00, 0x00, 0x01, 0x00, 0x00, 0x00,
0x0c, 0x00, 0x00, 0x00, 0x03, 0x00, 0x00, 0x00, 0x00, 0x00, 0x00, 0x00, 0x02, 0x00, 0x00, 0x00,
0x03, 0x00, 0x00, 0x00, 0x01, 0x00, 0x00, 0x00, 0x15, 0x00, 0x00, 0x00, 0x01, 0x00, 0x00, 0x00,
0x00, 0x00, 0x00, 0x00, 0x16, 0x00, 0x00, 0x00, 0x04, 0x0f, 0x00, 0x00, 0x80, 0x0e, 0x00, 0x00,
0x50, 0x0d, 0x00, 0x00, 0x44, 0x0c, 0x00, 0x00, 0xc0, 0x0b, 0x00, 0x00, 0x3c, 0x0b, 0x00, 0x00,
0x50, 0x09, 0x00, 0x00, 0x84, 0x07, 0x00, 0x00, 0x18, 0x07, 0x00, 0x00, 0xc4, 0x06, 0x00, 0x00,
0x50, 0x06, 0x00, 0x00, 0xf4, 0x05, 0x00, 0x00, 0x30, 0x05, 0x00, 0x00, 0xac, 0x04, 0x00, 0x00,
0x18, 0x04, 0x00, 0x00, 0x84, 0x03, 0x00, 0x00, 0xb8, 0x02, 0x00, 0x00, 0x34, 0x02, 0x00, 0x00,
0xb0, 0x01, 0x00, 0x00, 0x04, 0x01, 0x00, 0x00, 0x70, 0x00, 0x00, 0x00, 0x04, 0x00, 0x00, 0x00,
0x62, 0xf1, 0xff, 0xff, 0x14, 0x00, 0x00, 0x00, 0x34, 0x00, 0x00, 0x00, 0x16, 0x00, 0x00, 0x00,
0x00, 0x00, 0x00, 0x09, 0x48, 0x00, 0x00, 0x00, 0x54, 0xf1, 0xff, 0xff, 0x08, 0x00, 0x00, 0x00,
0x14, 0x00, 0x00, 0x00, 0x01, 0x00, 0x00, 0x00, 0x80, 0xff, 0xff, 0xff, 0xff, 0xff, 0xff, 0xff,
0x00, 0x00, 0x00, 0x00, 0x01, 0x00, 0x00, 0x00, 0x00, 0x00, 0x80, 0x3b, 0x19, 0x00, 0x00, 0x00,
0x53, 0x74, 0x61, 0x74, 0x65, 0x66, 0x75, 0x6c, 0x50, 0x61, 0x72, 0x74, 0x69, 0x74, 0x69, 0x6f,
0x6e, 0x65, 0x64, 0x43, 0x61, 0x6c, 0x6c, 0x3a, 0x30, 0x00, 0x00, 0x00, 0x02, 0x00, 0x00, 0x00,
0x01, 0x00, 0x00, 0x00, 0x04, 0x00, 0x00, 0x00, 0xca, 0xf1, 0xff, 0xff, 0x14, 0x00, 0x00, 0x00,
0x30, 0x00, 0x00, 0x00, 0x15, 0x00, 0x00, 0x00, 0x00, 0x00, 0x00, 0x09, 0x70, 0x00, 0x00, 0x00,
0xbc, 0xf1, 0xff, 0xff, 0x08, 0x00, 0x00, 0x00, 0x10, 0x00, 0x00, 0x00, 0x01, 0x00, 0x00, 0x00,
0xe9, 0xff, 0xff, 0xff, 0xff, 0xff, 0xff, 0xff, 0x01, 0x00, 0x00, 0x00, 0x1e, 0x08, 0x3b, 0x3f,
0x44, 0x00, 0x00, 0x00, 0x6d, 0x6f, 0x64, 0x65, 0x6c, 0x5f, 0x31, 0x2f, 0x73, 0x65, 0x71, 0x75,
0x65, 0x6e, 0x74, 0x69, 0x61, 0x6c, 0x2f, 0x64, 0x65, 0x6e, 0x73, 0x65, 0x5f, 0x31, 0x2f, 0x4d,
0x61, 0x74, 0x4d, 0x75, 0x6c, 0x3b, 0x6d, 0x6f, 0x64, 0x65, 0x6c, 0x5f, 0x31, 0x2f, 0x73, 0x65,
0x71, 0x75, 0x65, 0x6e, 0x74, 0x69, 0x61, 0x6c, 0x2f, 0x64, 0x65, 0x6e, 0x73, 0x65, 0x5f, 0x31,
0x2f, 0x42, 0x69, 0x61, 0x73, 0x41, 0x64, 0x64, 0x00, 0x00, 0x00, 0x00, 0x02, 0x00, 0x00, 0x00,
0x01, 0x00, 0x00, 0x00, 0x04, 0x00, 0x00, 0x00, 0x5a, 0xf2, 0xff, 0xff, 0x14, 0x00, 0x00, 0x00,
0x30, 0x00, 0x00, 0x00, 0x14, 0x00, 0x00, 0x00, 0x00, 0x00, 0x00, 0x09, 0x88, 0x00, 0x00, 0x00,
0x4c, 0xf2, 0xff, 0xff, 0x08, 0x00, 0x00, 0x00, 0x10, 0x00, 0x00, 0x00, 0x01, 0x00, 0x00, 0x00,
0x80, 0xff, 0xff, 0xff, 0xff, 0xff, 0xff, 0xff, 0x01, 0x00, 0x00, 0x00, 0x4c, 0xd7, 0x48, 0x3e,
0x5e, 0x00, 0x00, 0x00, 0x6d, 0x6f, 0x64, 0x65, 0x6c, 0x5f, 0x31, 0x2f, 0x73, 0x65, 0x71, 0x75,
0x65, 0x6e, 0x74, 0x69, 0x61, 0x6c, 0x2f, 0x64, 0x65, 0x6e, 0x73, 0x65, 0x2f, 0x4d, 0x61, 0x74,
0x4d, 0x75, 0x6c, 0x3b, 0x6d, 0x6f, 0x64, 0x65, 0x6c, 0x5f, 0x31, 0x2f, 0x73, 0x65, 0x71, 0x75,
0x65, 0x6e, 0x74, 0x69, 0x61, 0x6c, 0x2f, 0x64, 0x65, 0x6e, 0x73, 0x65, 0x2f, 0x52, 0x65, 0x6c,
0x75, 0x3b, 0x6d, 0x6f, 0x64, 0x65, 0x6c, 0x5f, 0x31, 0x2f, 0x73, 0x65, 0x71, 0x75, 0x65, 0x6e,
0x74, 0x69, 0x61, 0x6c, 0x2f, 0x64, 0x65, 0x6e, 0x73, 0x65, 0x2f, 0x42, 0x69, 0x61, 0x73, 0x41,
0x64, 0x64, 0x00, 0x00, 0x02, 0x00, 0x00, 0x00, 0x01, 0x00, 0x00, 0x00, 0x10, 0x00, 0x00, 0x00,
0x02, 0xf3, 0xff, 0xff, 0x14, 0x00, 0x00, 0x00, 0x34, 0x00, 0x00, 0x00, 0x13, 0x00, 0x00, 0x00,
0x00, 0x00, 0x00, 0x09, 0x60, 0x00, 0x00, 0x00, 0xf4, 0xf2, 0xff, 0xff, 0x08, 0x00, 0x00, 0x00,
0x14, 0x00, 0x00, 0x00, 0x01, 0x00, 0x00, 0x00, 0x80, 0xff, 0xff, 0xff, 0xff, 0xff, 0xff, 0xff,
0x00, 0x00, 0x00, 0x00, 0x01, 0x00, 0x00, 0x00, 0x64, 0x88, 0x90, 0x3e, 0x30, 0x00, 0x00, 0x00,
0x6d, 0x6f, 0x64, 0x65, 0x6c, 0x5f, 0x31, 0x2f, 0x73, 0x65, 0x71, 0x75, 0x65, 0x6e, 0x74, 0x69,
0x61, 0x6c, 0x2f, 0x67, 0x6c, 0x6f, 0x62, 0x61, 0x6c, 0x5f, 0x61, 0x76, 0x65, 0x72, 0x61, 0x67,
0x65, 0x5f, 0x70, 0x6f, 0x6f, 0x6c, 0x69, 0x6e, 0x67, 0x32, 0x64, 0x2f, 0x4d, 0x65, 0x61, 0x6e,
0x00, 0x00, 0x00, 0x00, 0x02, 0x00, 0x00, 0x00, 0x01, 0x00, 0x00, 0x00, 0x20, 0x00, 0x00, 0x00,
0x82, 0xf3, 0xff, 0xff, 0x14, 0x00, 0x00, 0x00, 0x34, 0x00, 0x00, 0x00, 0x12, 0x00, 0x00, 0x00,
0x00, 0x00, 0x00, 0x09, 0x58, 0x00, 0x00, 0x00, 0x74, 0xf3, 0xff, 0xff, 0x08, 0x00, 0x00, 0x00,
0x14, 0x00, 0x00, 0x00, 0x01, 0x00, 0x00, 0x00, 0x80, 0xff, 0xff, 0xff, 0xff, 0xff, 0xff, 0xff,
0x00, 0x00, 0x00, 0x00, 0x01, 0x00, 0x00, 0x00, 0x82, 0x7a, 0xba, 0x3e, 0x2a, 0x00, 0x00, 0x00,
0x6d, 0x6f, 0x64, 0x65, 0x6c, 0x5f, 0x31, 0x2f, 0x73, 0x65, 0x71, 0x75, 0x65, 0x6e, 0x74, 0x69,
0x61, 0x6c, 0x2f, 0x6d, 0x61, 0x78, 0x5f, 0x70, 0x6f, 0x6f, 0x6c, 0x69, 0x6e, 0x67, 0x32, 0x64,
0x5f, 0x31, 0x2f, 0x4d, 0x61, 0x78, 0x50, 0x6f, 0x6f, 0x6c, 0x00, 0x00, 0x04, 0x00, 0x00, 0x00,
0x01, 0x00, 0x00, 0x00, 0x0e, 0x00, 0x00, 0x00, 0x02, 0x00, 0x00, 0x00, 0x20, 0x00, 0x00, 0x00,
0x02, 0xf4, 0xff, 0xff, 0x14, 0x00, 0x00, 0x00, 0x30, 0x00, 0x00, 0x00, 0x11, 0x00, 0x00, 0x00,
0x00, 0x00, 0x00, 0x09, 0xa0, 0x00, 0x00, 0x00, 0xf4, 0xf3, 0xff, 0xff, 0x08, 0x00, 0x00, 0x00,
0x10, 0x00, 0x00, 0x00, 0x01, 0x00, 0x00, 0x00, 0x80, 0xff, 0xff, 0xff, 0xff, 0xff, 0xff, 0xff,
0x01, 0x00, 0x00, 0x00, 0x82, 0x7a, 0xba, 0x3e, 0x75, 0x00, 0x00, 0x00, 0x6d, 0x6f, 0x64, 0x65,
0x6c, 0x5f, 0x31, 0x2f, 0x73, 0x65, 0x71, 0x75, 0x65, 0x6e, 0x74, 0x69, 0x61, 0x6c, 0x2f, 0x63,
0x6f, 0x6e, 0x76, 0x32, 0x64, 0x5f, 0x31, 0x2f, 0x52, 0x65, 0x6c, 0x75, 0x3b, 0x6d, 0x6f, 0x64,
0x65, 0x6c, 0x5f, 0x31, 0x2f, 0x73, 0x65, 0x71, 0x75, 0x65, 0x6e, 0x74, 0x69, 0x61, 0x6c, 0x2f,
0x63, 0x6f, 0x6e, 0x76, 0x32, 0x64, 0x5f, 0x31, 0x2f, 0x42, 0x69, 0x61, 0x73, 0x41, 0x64, 0x64,
0x3b, 0x6d, 0x6f, 0x64, 0x65, 0x6c, 0x5f, 0x31, 0x2f, 0x73, 0x65, 0x71, 0x75, 0x65, 0x6e, 0x74,
0x69, 0x61, 0x6c, 0x2f, 0x63, 0x6f, 0x6e, 0x76, 0x32, 0x64, 0x5f, 0x31, 0x2f, 0x43, 0x6f, 0x6e,
0x76, 0x32, 0x44, 0x3b, 0x63, 0x6f, 0x6e, 0x76, 0x32, 0x64, 0x5f, 0x31, 0x2f, 0x62, 0x69, 0x61,
0x73, 0x00, 0x00, 0x00, 0x04, 0x00, 0x00, 0x00, 0x01, 0x00, 0x00, 0x00, 0x2a, 0x00, 0x00, 0x00,
0x02, 0x00, 0x00, 0x00, 0x20, 0x00, 0x00, 0x00, 0xca, 0xf4, 0xff, 0xff, 0x14, 0x00, 0x00, 0x00,
0x34, 0x00, 0x00, 0x00, 0x10, 0x00, 0x00, 0x00, 0x00, 0x00, 0x00, 0x09, 0x68, 0x00, 0x00, 0x00,
0xbc, 0xf4, 0xff, 0xff, 0x08, 0x00, 0x00, 0x00, 0x14, 0x00, 0x00, 0x00, 0x01, 0x00, 0x00, 0x00,
0x99, 0xff, 0xff, 0xff, 0xff, 0xff, 0xff, 0xff, 0x00, 0x00, 0x00, 0x00, 0x01, 0x00, 0x00, 0x00,
0x95, 0xdc, 0xf3, 0x3d, 0x38, 0x00, 0x00, 0x00, 0x6d, 0x6f, 0x64, 0x65, 0x6c, 0x5f, 0x31, 0x2f,
0x73, 0x65, 0x71, 0x75, 0x65, 0x6e, 0x74, 0x69, 0x61, 0x6c, 0x2f, 0x62, 0x61, 0x74, 0x63, 0x68,
0x5f, 0x6e, 0x6f, 0x72, 0x6d, 0x61, 0x6c, 0x69, 0x7a, 0x61, 0x74, 0x69, 0x6f, 0x6e, 0x2f, 0x46,
0x75, 0x73, 0x65, 0x64, 0x42, 0x61, 0x74, 0x63, 0x68, 0x4e, 0x6f, 0x72, 0x6d, 0x56, 0x33, 0x33,
0x00, 0x00, 0x00, 0x00, 0x04, 0x00, 0x00, 0x00, 0x01, 0x00, 0x00, 0x00, 0x2a, 0x00, 0x00, 0x00,
0x02, 0x00, 0x00, 0x00, 0x10, 0x00, 0x00, 0x00, 0x5a, 0xf5, 0xff, 0xff, 0x14, 0x00, 0x00, 0x00,
0x34, 0x00, 0x00, 0x00, 0x0f, 0x00, 0x00, 0x00, 0x00, 0x00, 0x00, 0x09, 0x68, 0x00, 0x00, 0x00,
0x4c, 0xf5, 0xff, 0xff, 0x08, 0x00, 0x00, 0x00, 0x14, 0x00, 0x00, 0x00, 0x01, 0x00, 0x00, 0x00,
0x80, 0xff, 0xff, 0xff, 0xff, 0xff, 0xff, 0xff, 0x00, 0x00, 0x00, 0x00, 0x01, 0x00, 0x00, 0x00,
0x2d, 0xfe, 0xe2, 0x3d, 0x38, 0x00, 0x00, 0x00, 0x6d, 0x6f, 0x64, 0x65, 0x6c, 0x5f, 0x31, 0x2f,
0x73, 0x65, 0x71, 0x75, 0x65, 0x6e, 0x74, 0x69, 0x61, 0x6c, 0x2f, 0x62, 0x61, 0x74, 0x63, 0x68,
0x5f, 0x6e, 0x6f, 0x72, 0x6d, 0x61, 0x6c, 0x69, 0x7a, 0x61, 0x74, 0x69, 0x6f, 0x6e, 0x2f, 0x46,
0x75, 0x73, 0x65, 0x64, 0x42, 0x61, 0x74, 0x63, 0x68, 0x4e, 0x6f, 0x72, 0x6d, 0x56, 0x33, 0x32,
0x00, 0x00, 0x00, 0x00, 0x04, 0x00, 0x00, 0x00, 0x01, 0x00, 0x00, 0x00, 0x2a, 0x00, 0x00, 0x00,
0x02, 0x00, 0x00, 0x00, 0x10, 0x00, 0x00, 0x00, 0xea, 0xf5, 0xff, 0xff, 0x14, 0x00, 0x00, 0x00,
0x34, 0x00, 0x00, 0x00, 0x0e, 0x00, 0x00, 0x00, 0x00, 0x00, 0x00, 0x09, 0x58, 0x00, 0x00, 0x00,
0xdc, 0xf5, 0xff, 0xff, 0x08, 0x00, 0x00, 0x00, 0x14, 0x00, 0x00, 0x00, 0x01, 0x00, 0x00, 0x00,
0x80, 0xff, 0xff, 0xff, 0xff, 0xff, 0xff, 0xff, 0x00, 0x00, 0x00, 0x00, 0x01, 0x00, 0x00, 0x00,
0x93, 0xbc, 0x99, 0x3b, 0x28, 0x00, 0x00, 0x00, 0x6d, 0x6f, 0x64, 0x65, 0x6c, 0x5f, 0x31, 0x2f,
0x73, 0x65, 0x71, 0x75, 0x65, 0x6e, 0x74, 0x69, 0x61, 0x6c, 0x2f, 0x6d, 0x61, 0x78, 0x5f, 0x70,
0x6f, 0x6f, 0x6c, 0x69, 0x6e, 0x67, 0x32, 0x64, 0x2f, 0x4d, 0x61, 0x78, 0x50, 0x6f, 0x6f, 0x6c,
0x00, 0x00, 0x00, 0x00, 0x04, 0x00, 0x00, 0x00, 0x01, 0x00, 0x00, 0x00, 0x2a, 0x00, 0x00, 0x00,
0x02, 0x00, 0x00, 0x00, 0x10, 0x00, 0x00, 0x00, 0x6a, 0xf6, 0xff, 0xff, 0x14, 0x00, 0x00, 0x00,
0x30, 0x00, 0x00, 0x00, 0x0d, 0x00, 0x00, 0x00, 0x00, 0x00, 0x00, 0x09, 0x98, 0x00, 0x00, 0x00,
0x5c, 0xf6, 0xff, 0xff, 0x08, 0x00, 0x00, 0x00, 0x10, 0x00, 0x00, 0x00, 0x01, 0x00, 0x00, 0x00,
0x80, 0xff, 0xff, 0xff, 0xff, 0xff, 0xff, 0xff, 0x01, 0x00, 0x00, 0x00, 0x93, 0xbc, 0x99, 0x3b,
0x6d, 0x00, 0x00, 0x00, 0x6d, 0x6f, 0x64, 0x65, 0x6c, 0x5f, 0x31, 0x2f, 0x73, 0x65, 0x71, 0x75,
0x65, 0x6e, 0x74, 0x69, 0x61, 0x6c, 0x2f, 0x63, 0x6f, 0x6e, 0x76, 0x32, 0x64, 0x2f, 0x52, 0x65,
0x6c, 0x75, 0x3b, 0x6d, 0x6f, 0x64, 0x65, 0x6c, 0x5f, 0x31, 0x2f, 0x73, 0x65, 0x71, 0x75, 0x65,
0x6e, 0x74, 0x69, 0x61, 0x6c, 0x2f, 0x63, 0x6f, 0x6e, 0x76, 0x32, 0x64, 0x2f, 0x42, 0x69, 0x61,
0x73, 0x41, 0x64, 0x64, 0x3b, 0x6d, 0x6f, 0x64, 0x65, 0x6c, 0x5f, 0x31, 0x2f, 0x73, 0x65, 0x71,
0x75, 0x65, 0x6e, 0x74, 0x69, 0x61, 0x6c, 0x2f, 0x63, 0x6f, 0x6e, 0x76, 0x32, 0x64, 0x2f, 0x43,
0x6f, 0x6e, 0x76, 0x32, 0x44, 0x3b, 0x63, 0x6f, 0x6e, 0x76, 0x32, 0x64, 0x2f, 0x62, 0x69, 0x61,
0x73, 0x00, 0x00, 0x00, 0x04, 0x00, 0x00, 0x00, 0x01, 0x00, 0x00, 0x00, 0x80, 0x00, 0x00, 0x00,
0x06, 0x00, 0x00, 0x00, 0x10, 0x00, 0x00, 0x00, 0x2a, 0xf7, 0xff, 0xff, 0x14, 0x00, 0x00, 0x00,
0x34, 0x00, 0x00, 0x00, 0x0c, 0x00, 0x00, 0x00, 0x00, 0x00, 0x00, 0x02, 0x3c, 0x00, 0x00, 0x00,
0x1c, 0xf7, 0xff, 0xff, 0x08, 0x00, 0x00, 0x00, 0x14, 0x00, 0x00, 0x00, 0x01, 0x00, 0x00, 0x00,
0x00, 0x00, 0x00, 0x00, 0x00, 0x00, 0x00, 0x00, 0x00, 0x00, 0x00, 0x00, 0x01, 0x00, 0x00, 0x00,
0xd5, 0x04, 0xcf, 0x3a, 0x0c, 0x00, 0x00, 0x00, 0x64, 0x65, 0x6e, 0x73, 0x65, 0x5f, 0x31, 0x2f,
0x62, 0x69, 0x61, 0x73, 0x00, 0x00, 0x00, 0x00, 0x01, 0x00, 0x00, 0x00, 0x04, 0x00, 0x00, 0x00,
0x82, 0xf7, 0xff, 0xff, 0x14, 0x00, 0x00, 0x00, 0x34, 0x00, 0x00, 0x00, 0x0b, 0x00, 0x00, 0x00,
0x00, 0x00, 0x00, 0x09, 0x50, 0x00, 0x00, 0x00, 0x74, 0xf7, 0xff, 0xff, 0x08, 0x00, 0x00, 0x00,
0x14, 0x00, 0x00, 0x00, 0x01, 0x00, 0x00, 0x00, 0x00, 0x00, 0x00, 0x00, 0x00, 0x00, 0x00, 0x00,
0x00, 0x00, 0x00, 0x00, 0x01, 0x00, 0x00, 0x00, 0xf2, 0xef, 0x03, 0x3c, 0x21, 0x00, 0x00, 0x00,
0x6d, 0x6f, 0x64, 0x65, 0x6c, 0x5f, 0x31, 0x2f, 0x73, 0x65, 0x71, 0x75, 0x65, 0x6e, 0x74, 0x69,
0x61, 0x6c, 0x2f, 0x64, 0x65, 0x6e, 0x73, 0x65, 0x5f, 0x31, 0x2f, 0x4d, 0x61, 0x74, 0x4d, 0x75,
0x6c, 0x00, 0x00, 0x00, 0x02, 0x00, 0x00, 0x00, 0x04, 0x00, 0x00, 0x00, 0x10, 0x00, 0x00, 0x00,
0xf2, 0xf7, 0xff, 0xff, 0x14, 0x00, 0x00, 0x00, 0x30, 0x00, 0x00, 0x00, 0x0a, 0x00, 0x00, 0x00,
0x00, 0x00, 0x00, 0x02, 0x34, 0x00, 0x00, 0x00, 0xe4, 0xf7, 0xff, 0xff, 0x08, 0x00, 0x00, 0x00,
0x10, 0x00, 0x00, 0x00, 0x01, 0x00, 0x00, 0x00, 0x00, 0x00, 0x00, 0x00, 0x00, 0x00, 0x00, 0x00,
0x01, 0x00, 0x00, 0x00, 0x55, 0x64, 0xc5, 0x3a, 0x0a, 0x00, 0x00, 0x00, 0x64, 0x65, 0x6e, 0x73,
0x65, 0x2f, 0x62, 0x69, 0x61, 0x73, 0x00, 0x00, 0x01, 0x00, 0x00, 0x00, 0x10, 0x00, 0x00, 0x00,
0x42, 0xf8, 0xff, 0xff, 0x14, 0x00, 0x00, 0x00, 0x30, 0x00, 0x00, 0x00, 0x09, 0x00, 0x00, 0x00,
0x00, 0x00, 0x00, 0x09, 0x48, 0x00, 0x00, 0x00, 0x34, 0xf8, 0xff, 0xff, 0x08, 0x00, 0x00, 0x00,
0x10, 0x00, 0x00, 0x00, 0x01, 0x00, 0x00, 0x00, 0x00, 0x00, 0x00, 0x00, 0x00, 0x00, 0x00, 0x00,
0x01, 0x00, 0x00, 0x00, 0x0e, 0xd0, 0xae, 0x3b, 0x1f, 0x00, 0x00, 0x00, 0x6d, 0x6f, 0x64, 0x65,
0x6c, 0x5f, 0x31, 0x2f, 0x73, 0x65, 0x71, 0x75, 0x65, 0x6e, 0x74, 0x69, 0x61, 0x6c, 0x2f, 0x64,
0x65, 0x6e, 0x73, 0x65, 0x2f, 0x4d, 0x61, 0x74, 0x4d, 0x75, 0x6c, 0x00, 0x02, 0x00, 0x00, 0x00,
0x10, 0x00, 0x00, 0x00, 0x20, 0x00, 0x00, 0x00, 0xaa, 0xf8, 0xff, 0xff, 0x14, 0x00, 0x00, 0x00,
0xa4, 0x01, 0x00, 0x00, 0x08, 0x00, 0x00, 0x00, 0x00, 0x00, 0x00, 0x02, 0xac, 0x01, 0x00, 0x00,
0x9c, 0xf8, 0xff, 0xff, 0x08, 0x00, 0x00, 0x00, 0x08, 0x01, 0x00, 0x00, 0x20, 0x00, 0x00, 0x00,
0x00, 0x00, 0x00, 0x00, 0x00, 0x00, 0x00, 0x00, 0x00, 0x00, 0x00, 0x00, 0x00, 0x00, 0x00, 0x00,
0x00, 0x00, 0x00, 0x00, 0x00, 0x00, 0x00, 0x00, 0x00, 0x00, 0x00, 0x00, 0x00, 0x00, 0x00, 0x00,
0x00, 0x00, 0x00, 0x00, 0x00, 0x00, 0x00, 0x00, 0x00, 0x00, 0x00, 0x00, 0x00, 0x00, 0x00, 0x00,
0x00, 0x00, 0x00, 0x00, 0x00, 0x00, 0x00, 0x00, 0x00, 0x00, 0x00, 0x00, 0x00, 0x00, 0x00, 0x00,
0x00, 0x00, 0x00, 0x00, 0x00, 0x00, 0x00, 0x00, 0x00, 0x00, 0x00, 0x00, 0x00, 0x00, 0x00, 0x00,
0x00, 0x00, 0x00, 0x00, 0x00, 0x00, 0x00, 0x00, 0x00, 0x00, 0x00, 0x00, 0x00, 0x00, 0x00, 0x00,
0x00, 0x00, 0x00, 0x00, 0x00, 0x00, 0x00, 0x00, 0x00, 0x00, 0x00, 0x00, 0x00, 0x00, 0x00, 0x00,
0x00, 0x00, 0x00, 0x00, 0x00, 0x00, 0x00, 0x00, 0x00, 0x00, 0x00, 0x00, 0x00, 0x00, 0x00, 0x00,
0x00, 0x00, 0x00, 0x00, 0x00, 0x00, 0x00, 0x00, 0x00, 0x00, 0x00, 0x00, 0x00, 0x00, 0x00, 0x00,
0x00, 0x00, 0x00, 0x00, 0x00, 0x00, 0x00, 0x00, 0x00, 0x00, 0x00, 0x00, 0x00, 0x00, 0x00, 0x00,
0x00, 0x00, 0x00, 0x00, 0x00, 0x00, 0x00, 0x00, 0x00, 0x00, 0x00, 0x00, 0x00, 0x00, 0x00, 0x00,
0x00, 0x00, 0x00, 0x00, 0x00, 0x00, 0x00, 0x00, 0x00, 0x00, 0x00, 0x00, 0x00, 0x00, 0x00, 0x00,
0x00, 0x00, 0x00, 0x00, 0x00, 0x00, 0x00, 0x00, 0x00, 0x00, 0x00, 0x00, 0x00, 0x00, 0x00, 0x00,
0x00, 0x00, 0x00, 0x00, 0x00, 0x00, 0x00, 0x00, 0x00, 0x00, 0x00, 0x00, 0x00, 0x00, 0x00, 0x00,
0x00, 0x00, 0x00, 0x00, 0x00, 0x00, 0x00, 0x00, 0x00, 0x00, 0x00, 0x00, 0x00, 0x00, 0x00, 0x00,
0x00, 0x00, 0x00, 0x00, 0x00, 0x00, 0x00, 0x00, 0x00, 0x00, 0x00, 0x00, 0x00, 0x00, 0x00, 0x00,
0x20, 0x00, 0x00, 0x00, 0xf7, 0xf3, 0x75, 0x39, 0x36, 0x1d, 0xb8, 0x39, 0x3d, 0x0c, 0xef, 0x39,
0x40, 0x06, 0xa9, 0x39, 0x0d, 0x65, 0x8c, 0x39, 0x4f, 0x94, 0x9b, 0x39, 0xeb, 0x01, 0x83, 0x39,
0x53, 0x98, 0x91, 0x39, 0xec, 0x1b, 0xcb, 0x39, 0x8d, 0x01, 0x8f, 0x39, 0x70, 0xd3, 0xb9, 0x39,
0xc4, 0xc1, 0xbb, 0x39, 0x1d, 0x91, 0x62, 0x39, 0xdd, 0xa3, 0x9f, 0x39, 0x53, 0x57, 0xac, 0x39,
0xef, 0x44, 0xfc, 0x39, 0xe4, 0x29, 0xe8, 0x39, 0x24, 0x9e, 0xa4, 0x39, 0x37, 0x1d, 0x81, 0x39,
0x79, 0x02, 0x95, 0x39, 0xa8, 0x01, 0xcc, 0x39, 0xa4, 0xa4, 0x93, 0x39, 0xdb, 0x84, 0x88, 0x39,
0xdc, 0x15, 0x0e, 0x3a, 0x8c, 0xf3, 0xb7, 0x39, 0xbe, 0xa7, 0xab, 0x39, 0x8a, 0xab, 0x6c, 0x39,
0x31, 0x12, 0x8f, 0x39, 0x10, 0x38, 0xe3, 0x39, 0xc9, 0xc5, 0xc1, 0x39, 0xb0, 0xf9, 0xd5, 0x39,
0x44, 0x90, 0x9d, 0x39, 0x0d, 0x00, 0x00, 0x00, 0x63, 0x6f, 0x6e, 0x76, 0x32, 0x64, 0x5f, 0x31,
0x2f, 0x62, 0x69, 0x61, 0x73, 0x00, 0x00, 0x00, 0x01, 0x00, 0x00, 0x00, 0x20, 0x00, 0x00, 0x00,
0x72, 0xfa, 0xff, 0xff, 0x14, 0x00, 0x00, 0x00, 0xa4, 0x01, 0x00, 0x00, 0x07, 0x00, 0x00, 0x00,
0x00, 0x00, 0x00, 0x09, 0xc0, 0x01, 0x00, 0x00, 0x64, 0xfa, 0xff, 0xff, 0x08, 0x00, 0x00, 0x00,
0x08, 0x01, 0x00, 0x00, 0x20, 0x00, 0x00, 0x00, 0x00, 0x00, 0x00, 0x00, 0x00, 0x00, 0x00, 0x00,
0x00, 0x00, 0x00, 0x00, 0x00, 0x00, 0x00, 0x00, 0x00, 0x00, 0x00, 0x00, 0x00, 0x00, 0x00, 0x00,
0x00, 0x00, 0x00, 0x00, 0x00, 0x00, 0x00, 0x00, 0x00, 0x00, 0x00, 0x00, 0x00, 0x00, 0x00, 0x00,
0x00, 0x00, 0x00, 0x00, 0x00, 0x00, 0x00, 0x00, 0x00, 0x00, 0x00, 0x00, 0x00, 0x00, 0x00, 0x00,
0x00, 0x00, 0x00, 0x00, 0x00, 0x00, 0x00, 0x00, 0x00, 0x00, 0x00, 0x00, 0x00, 0x00, 0x00, 0x00,
0x00, 0x00, 0x00, 0x00, 0x00, 0x00, 0x00, 0x00, 0x00, 0x00, 0x00, 0x00, 0x00, 0x00, 0x00, 0x00,
0x00, 0x00, 0x00, 0x00, 0x00, 0x00, 0x00, 0x00, 0x00, 0x00, 0x00, 0x00, 0x00, 0x00, 0x00, 0x00,
0x00, 0x00, 0x00, 0x00, 0x00, 0x00, 0x00, 0x00, 0x00, 0x00, 0x00, 0x00, 0x00, 0x00, 0x00, 0x00,
0x00, 0x00, 0x00, 0x00, 0x00, 0x00, 0x00, 0x00, 0x00, 0x00, 0x00, 0x00, 0x00, 0x00, 0x00, 0x00,
0x00, 0x00, 0x00, 0x00, 0x00, 0x00, 0x00, 0x00, 0x00, 0x00, 0x00, 0x00, 0x00, 0x00, 0x00, 0x00,
0x00, 0x00, 0x00, 0x00, 0x00, 0x00, 0x00, 0x00, 0x00, 0x00, 0x00, 0x00, 0x00, 0x00, 0x00, 0x00,
0x00, 0x00, 0x00, 0x00, 0x00, 0x00, 0x00, 0x00, 0x00, 0x00, 0x00, 0x00, 0x00, 0x00, 0x00, 0x00,
0x00, 0x00, 0x00, 0x00, 0x00, 0x00, 0x00, 0x00, 0x00, 0x00, 0x00, 0x00, 0x00, 0x00, 0x00, 0x00,
0x00, 0x00, 0x00, 0x00, 0x00, 0x00, 0x00, 0x00, 0x00, 0x00, 0x00, 0x00, 0x00, 0x00, 0x00, 0x00,
0x00, 0x00, 0x00, 0x00, 0x00, 0x00, 0x00, 0x00, 0x00, 0x00, 0x00, 0x00, 0x00, 0x00, 0x00, 0x00,
0x00, 0x00, 0x00, 0x00, 0x00, 0x00, 0x00, 0x00, 0x00, 0x00, 0x00, 0x00, 0x00, 0x00, 0x00, 0x00,
0x00, 0x00, 0x00, 0x00, 0x00, 0x00, 0x00, 0x00, 0x20, 0x00, 0x00, 0x00, 0x04, 0x19, 0x01, 0x3b,
0x4b, 0x47, 0x41, 0x3b, 0x51, 0xf2, 0x7a, 0x3b, 0x0d, 0x70, 0x31, 0x3b, 0x09, 0x62, 0x13, 0x3b,
0xc9, 0x52, 0x23, 0x3b, 0x49, 0x87, 0x09, 0x3b, 0x93, 0xd7, 0x18, 0x3b, 0x0c, 0x38, 0x55, 0x3b,
0xd0, 0x1f, 0x16, 0x3b, 0x55, 0x13, 0x43, 0x3b, 0x44, 0x1a, 0x45, 0x3b, 0x27, 0xd8, 0xed, 0x3a,
0x16, 0x96, 0x27, 0x3b, 0x63, 0xeb, 0x34, 0x3b, 0xbe, 0x69, 0x84, 0x3b, 0x3f, 0xb8, 0x73, 0x3b,
0xca, 0xcf, 0x2c, 0x3b, 0x75, 0x8a, 0x07, 0x3b, 0x3c, 0x6d, 0x1c, 0x3b, 0x38, 0x29, 0x56, 0x3b,
0xfd, 0xfd, 0x1a, 0x3b, 0x74, 0x50, 0x0f, 0x3b, 0x64, 0x28, 0x95, 0x3b, 0x8e, 0x1b, 0x41, 0x3b,
0x11, 0x33, 0x34, 0x3b, 0x51, 0x73, 0xf8, 0x3a, 0x48, 0x31, 0x16, 0x3b, 0x69, 0x87, 0x6e, 0x3b,
0xf1, 0x6a, 0x4b, 0x3b, 0x47, 0xa0, 0x60, 0x3b, 0x07, 0x68, 0x25, 0x3b, 0x22, 0x00, 0x00, 0x00,
0x6d, 0x6f, 0x64, 0x65, 0x6c, 0x5f, 0x31, 0x2f, 0x73, 0x65, 0x71, 0x75, 0x65, 0x6e, 0x74, 0x69,
0x61, 0x6c, 0x2f, 0x63, 0x6f, 0x6e, 0x76, 0x32, 0x64, 0x5f, 0x31, 0x2f, 0x43, 0x6f, 0x6e, 0x76,
0x32, 0x44, 0x00, 0x00, 0x04, 0x00, 0x00, 0x00, 0x20, 0x00, 0x00, 0x00, 0x03, 0x00, 0x00, 0x00,
0x03, 0x00, 0x00, 0x00, 0x10, 0x00, 0x00, 0x00, 0x5a, 0xfc, 0xff, 0xff, 0x14, 0x00, 0x00, 0x00,
0x30, 0x00, 0x00, 0x00, 0x06, 0x00, 0x00, 0x00, 0x00, 0x00, 0x00, 0x09, 0x64, 0x00, 0x00, 0x00,
0x4c, 0xfc, 0xff, 0xff, 0x08, 0x00, 0x00, 0x00, 0x10, 0x00, 0x00, 0x00, 0x01, 0x00, 0x00, 0x00,
0x7f, 0x00, 0x00, 0x00, 0x00, 0x00, 0x00, 0x00, 0x01, 0x00, 0x00, 0x00, 0xe6, 0x52, 0x40, 0x3c,
0x38, 0x00, 0x00, 0x00, 0x6d, 0x6f, 0x64, 0x65, 0x6c, 0x5f, 0x31, 0x2f, 0x73, 0x65, 0x71, 0x75,
0x65, 0x6e, 0x74, 0x69, 0x61, 0x6c, 0x2f, 0x62, 0x61, 0x74, 0x63, 0x68, 0x5f, 0x6e, 0x6f, 0x72,
0x6d, 0x61, 0x6c, 0x69, 0x7a, 0x61, 0x74, 0x69, 0x6f, 0x6e, 0x2f, 0x46, 0x75, 0x73, 0x65, 0x64,
0x42, 0x61, 0x74, 0x63, 0x68, 0x4e, 0x6f, 0x72, 0x6d, 0x56, 0x33, 0x31, 0x00, 0x00, 0x00, 0x00,
0x01, 0x00, 0x00, 0x00, 0x10, 0x00, 0x00, 0x00, 0xda, 0xfc, 0xff, 0xff, 0x14, 0x00, 0x00, 0x00,
0x34, 0x00, 0x00, 0x00, 0x05, 0x00, 0x00, 0x00, 0x00, 0x00, 0x00, 0x09, 0x64, 0x00, 0x00, 0x00,
0xcc, 0xfc, 0xff, 0xff, 0x08, 0x00, 0x00, 0x00, 0x14, 0x00, 0x00, 0x00, 0x01, 0x00, 0x00, 0x00,
0x80, 0xff, 0xff, 0xff, 0xff, 0xff, 0xff, 0xff, 0x00, 0x00, 0x00, 0x00, 0x01, 0x00, 0x00, 0x00,
0xf8, 0x3e, 0xe3, 0x3d, 0x37, 0x00, 0x00, 0x00, 0x6d, 0x6f, 0x64, 0x65, 0x6c, 0x5f, 0x31, 0x2f,
0x73, 0x65, 0x71, 0x75, 0x65, 0x6e, 0x74, 0x69, 0x61, 0x6c, 0x2f, 0x62, 0x61, 0x74, 0x63, 0x68,
0x5f, 0x6e, 0x6f, 0x72, 0x6d, 0x61, 0x6c, 0x69, 0x7a, 0x61, 0x74, 0x69, 0x6f, 0x6e, 0x2f, 0x46,
0x75, 0x73, 0x65, 0x64, 0x42, 0x61, 0x74, 0x63, 0x68, 0x4e, 0x6f, 0x72, 0x6d, 0x56, 0x33, 0x00,
0x01, 0x00, 0x00, 0x00, 0x10, 0x00, 0x00, 0x00, 0x5a, 0xfd, 0xff, 0xff, 0x14, 0x00, 0x00, 0x00,
0xe8, 0x00, 0x00, 0x00, 0x04, 0x00, 0x00, 0x00, 0x00, 0x00, 0x00, 0x02, 0xec, 0x00, 0x00, 0x00,
0x4c, 0xfd, 0xff, 0xff, 0x08, 0x00, 0x00, 0x00, 0x8c, 0x00, 0x00, 0x00, 0x10, 0x00, 0x00, 0x00,
0x00, 0x00, 0x00, 0x00, 0x00, 0x00, 0x00, 0x00, 0x00, 0x00, 0x00, 0x00, 0x00, 0x00, 0x00, 0x00,
0x00, 0x00, 0x00, 0x00, 0x00, 0x00, 0x00, 0x00, 0x00, 0x00, 0x00, 0x00, 0x00, 0x00, 0x00, 0x00,
0x00, 0x00, 0x00, 0x00, 0x00, 0x00, 0x00, 0x00, 0x00, 0x00, 0x00, 0x00, 0x00, 0x00, 0x00, 0x00,
0x00, 0x00, 0x00, 0x00, 0x00, 0x00, 0x00, 0x00, 0x00, 0x00, 0x00, 0x00, 0x00, 0x00, 0x00, 0x00,
0x00, 0x00, 0x00, 0x00, 0x00, 0x00, 0x00, 0x00, 0x00, 0x00, 0x00, 0x00, 0x00, 0x00, 0x00, 0x00,
0x00, 0x00, 0x00, 0x00, 0x00, 0x00, 0x00, 0x00, 0x00, 0x00, 0x00, 0x00, 0x00, 0x00, 0x00, 0x00,
0x00, 0x00, 0x00, 0x00, 0x00, 0x00, 0x00, 0x00, 0x00, 0x00, 0x00, 0x00, 0x00, 0x00, 0x00, 0x00,
0x00, 0x00, 0x00, 0x00, 0x00, 0x00, 0x00, 0x00, 0x00, 0x00, 0x00, 0x00, 0x00, 0x00, 0x00, 0x00,
0x00, 0x00, 0x00, 0x00, 0x10, 0x00, 0x00, 0x00, 0x8a, 0x4d, 0xaa, 0x37, 0xc0, 0x2a, 0x93, 0x37,
0x3f, 0x27, 0xa3, 0x37, 0xec, 0x17, 0xcb, 0x37, 0x14, 0xcc, 0xa5, 0x37, 0xe2, 0xbf, 0x8f, 0x37,
0x2b, 0x7c, 0xe1, 0x37, 0x91, 0x15, 0xa5, 0x37, 0x4c, 0x1e, 0x05, 0x38, 0x41, 0x99, 0xa0, 0x37,
0x18, 0x46, 0x91, 0x37, 0x76, 0xd9, 0xc1, 0x37, 0x90, 0x9a, 0xaa, 0x37, 0x75, 0xc2, 0x91, 0x37,
0x11, 0x82, 0x8a, 0x37, 0x9a, 0xd0, 0x7d, 0x37, 0x0b, 0x00, 0x00, 0x00, 0x63, 0x6f, 0x6e, 0x76,
0x32, 0x64, 0x2f, 0x62, 0x69, 0x61, 0x73, 0x00, 0x01, 0x00, 0x00, 0x00, 0x10, 0x00, 0x00, 0x00,
0x62, 0xfe, 0xff, 0xff, 0x14, 0x00, 0x00, 0x00, 0xe8, 0x00, 0x00, 0x00, 0x03, 0x00, 0x00, 0x00,
0x00, 0x00, 0x00, 0x09, 0x04, 0x01, 0x00, 0x00, 0x54, 0xfe, 0xff, 0xff, 0x08, 0x00, 0x00, 0x00,
0x8c, 0x00, 0x00, 0x00, 0x10, 0x00, 0x00, 0x00, 0x00, 0x00, 0x00, 0x00, 0x00, 0x00, 0x00, 0x00,
0x00, 0x00, 0x00, 0x00, 0x00, 0x00, 0x00, 0x00, 0x00, 0x00, 0x00, 0x00, 0x00, 0x00, 0x00, 0x00,
0x00, 0x00, 0x00, 0x00, 0x00, 0x00, 0x00, 0x00, 0x00, 0x00, 0x00, 0x00, 0x00, 0x00, 0x00, 0x00,
0x00, 0x00, 0x00, 0x00, 0x00, 0x00, 0x00, 0x00, 0x00, 0x00, 0x00, 0x00, 0x00, 0x00, 0x00, 0x00,
0x00, 0x00, 0x00, 0x00, 0x00, 0x00, 0x00, 0x00, 0x00, 0x00, 0x00, 0x00, 0x00, 0x00, 0x00, 0x00,
0x00, 0x00, 0x00, 0x00, 0x00, 0x00, 0x00, 0x00, 0x00, 0x00, 0x00, 0x00, 0x00, 0x00, 0x00, 0x00,
0x00, 0x00, 0x00, 0x00, 0x00, 0x00, 0x00, 0x00, 0x00, 0x00, 0x00, 0x00, 0x00, 0x00, 0x00, 0x00,
0x00, 0x00, 0x00, 0x00, 0x00, 0x00, 0x00, 0x00, 0x00, 0x00, 0x00, 0x00, 0x00, 0x00, 0x00, 0x00,
0x00, 0x00, 0x00, 0x00, 0x00, 0x00, 0x00, 0x00, 0x00, 0x00, 0x00, 0x00, 0x10, 0x00, 0x00, 0x00,
0x56, 0x00, 0x2a, 0x3b, 0x09, 0xe8, 0x12, 0x3b, 0x49, 0xdd, 0x22, 0x3b, 0xdb, 0xbb, 0x4a, 0x3b,
0xeb, 0x80, 0x25, 0x3b, 0xb8, 0x7e, 0x0f, 0x3b, 0xf3, 0x15, 0x61, 0x3b, 0xbb, 0xca, 0x24, 0x3b,
0xf3, 0xe1, 0x84, 0x3b, 0x73, 0x50, 0x20, 0x3b, 0x3d, 0x04, 0x11, 0x3b, 0x95, 0x81, 0x41, 0x3b,
0x39, 0x4d, 0x2a, 0x3b, 0x61, 0x80, 0x11, 0x3b, 0x47, 0x43, 0x0a, 0x3b, 0x8a, 0x5d, 0xfd, 0x3a,
0x20, 0x00, 0x00, 0x00, 0x6d, 0x6f, 0x64, 0x65, 0x6c, 0x5f, 0x31, 0x2f, 0x73, 0x65, 0x71, 0x75,
0x65, 0x6e, 0x74, 0x69, 0x61, 0x6c, 0x2f, 0x63, 0x6f, 0x6e, 0x76, 0x32, 0x64, 0x2f, 0x43, 0x6f,
0x6e, 0x76, 0x32, 0x44, 0x00, 0x00, 0x00, 0x00, 0x04, 0x00, 0x00, 0x00, 0x10, 0x00, 0x00, 0x00,
0x03, 0x00, 0x00, 0x00, 0x03, 0x00, 0x00, 0x00, 0x01, 0x00, 0x00, 0x00, 0x8e, 0xff, 0xff, 0xff,
0x18, 0x00, 0x00, 0x00, 0x18, 0x00, 0x00, 0x00, 0x02, 0x00, 0x00, 0x00, 0x00, 0x00, 0x00, 0x02,
0x54, 0x00, 0x00, 0x00, 0x04, 0x00, 0x04, 0x00, 0x04, 0x00, 0x00, 0x00, 0x42, 0x00, 0x00, 0x00,
0x6d, 0x6f, 0x64, 0x65, 0x6c, 0x5f, 0x31, 0x2f, 0x73, 0x65, 0x71, 0x75, 0x65, 0x6e, 0x74, 0x69,
0x61, 0x6c, 0x2f, 0x67, 0x6c, 0x6f, 0x62, 0x61, 0x6c, 0x5f, 0x61, 0x76, 0x65, 0x72, 0x61, 0x67,
0x65, 0x5f, 0x70, 0x6f, 0x6f, 0x6c, 0x69, 0x6e, 0x67, 0x32, 0x64, 0x2f, 0x4d, 0x65, 0x61, 0x6e,
0x2f, 0x72, 0x65, 0x64, 0x75, 0x63, 0x74, 0x69, 0x6f, 0x6e, 0x5f, 0x69, 0x6e, 0x64, 0x69, 0x63,
0x65, 0x73, 0x00, 0x00, 0x01, 0x00, 0x00, 0x00, 0x02, 0x00, 0x00, 0x00, 0x00, 0x00, 0x0e, 0x00,
0x18, 0x00, 0x14, 0x00, 0x13, 0x00, 0x0c, 0x00, 0x08, 0x00, 0x04, 0x00, 0x0e, 0x00, 0x00, 0x00,
0x20, 0x00, 0x00, 0x00, 0x40, 0x00, 0x00, 0x00, 0x01, 0x00, 0x00, 0x00, 0x00, 0x00, 0x00, 0x09,
0x54, 0x00, 0x00, 0x00, 0x0c, 0x00, 0x0c, 0x00, 0x00, 0x00, 0x00, 0x00, 0x08, 0x00, 0x04, 0x00,
0x0c, 0x00, 0x00, 0x00, 0x08, 0x00, 0x00, 0x00, 0x14, 0x00, 0x00, 0x00, 0x01, 0x00, 0x00, 0x00,
0x00, 0x00, 0x00, 0x00, 0x00, 0x00, 0x00, 0x00, 0x00, 0x00, 0x00, 0x00, 0x01, 0x00, 0x00, 0x00,
0x21, 0x3a, 0x00, 0x3c, 0x19, 0x00, 0x00, 0x00, 0x73, 0x65, 0x72, 0x76, 0x69, 0x6e, 0x67, 0x5f,
0x64, 0x65, 0x66, 0x61, 0x75, 0x6c, 0x74, 0x5f, 0x69, 0x6e, 0x70, 0x75, 0x74, 0x5f, 0x32, 0x3a,
0x30, 0x00, 0x00, 0x00, 0x04, 0x00, 0x00, 0x00, 0x01, 0x00, 0x00, 0x00, 0x80, 0x00, 0x00, 0x00,
0x06, 0x00, 0x00, 0x00, 0x01, 0x00, 0x00, 0x00, 0x07, 0x00, 0x00, 0x00, 0x94, 0x00, 0x00, 0x00,
0x74, 0x00, 0x00, 0x00, 0x60, 0x00, 0x00, 0x00, 0x54, 0x00, 0x00, 0x00, 0x38, 0x00, 0x00, 0x00,
0x18, 0x00, 0x00, 0x00, 0x04, 0x00, 0x00, 0x00, 0x94, 0xff, 0xff, 0xff, 0x19, 0x00, 0x00, 0x00,
0x02, 0x00, 0x00, 0x00, 0x00, 0x00, 0x00, 0x19, 0xa4, 0xff, 0xff, 0xff, 0x09, 0x00, 0x00, 0x00,
0x04, 0x00, 0x00, 0x00, 0x00, 0x00, 0x00, 0x09, 0x0c, 0x00, 0x0e, 0x00, 0x0d, 0x00, 0x00, 0x00,
0x08, 0x00, 0x04, 0x00, 0x0c, 0x00, 0x00, 0x00, 0x28, 0x00, 0x00, 0x00, 0x02, 0x00, 0x00, 0x00,
0x00, 0x28, 0x0a, 0x00, 0x08, 0x00, 0x00, 0x00, 0x00, 0x00, 0x04, 0x00, 0x0a, 0x00, 0x00, 0x00,
0x02, 0x00, 0x00, 0x00, 0xe0, 0xff, 0xff, 0xff, 0x12, 0x00, 0x00, 0x00, 0x02, 0x00, 0x00, 0x00,
0x00, 0x00, 0x00, 0x12, 0xf0, 0xff, 0xff, 0xff, 0x11, 0x00, 0x00, 0x00, 0x02, 0x00, 0x00, 0x00,
0x00, 0x00, 0x00, 0x11, 0x0c, 0x00, 0x10, 0x00, 0x0f, 0x00, 0x00, 0x00, 0x08, 0x00, 0x04, 0x00,
0x0c, 0x00, 0x00, 0x00, 0x03, 0x00, 0x00, 0x00, 0x03, 0x00, 0x00, 0x00, 0x00, 0x00, 0x00, 0x03
};

