/***************************************************************************//**
* \file MAGIC_WAND_tflm_model_int8x8.c
*
* \brief
* Autogenerated with ml-coretools, this file contains MAGIC_WAND model data.
* Date: 2022-10-27 15:22:49.610298
*******************************************************************************
* \copyright
* Copyright 2022, Cypress Semiconductor Corporation (an Infineon company).
* All rights reserved.
* You may use this file only in accordance with the license, terms, conditions,
* disclaimers, and limitations in the end user license agreement accompanying
* the software package with which this file was provided.
******************************************************************************/


#include "MAGIC_WAND_tflm_model_int8x8.h"


#ifdef CY_ML_MODEL_MEM
#include "cy_utils.h"
#define Q(x) #x
#define QUOTE(x) Q(x)
CY_SECTION(QUOTE(CY_ML_MODEL_MEM))
const
#endif

uint8_t MAGIC_WAND_model_bin[MAGIC_WAND_MODEL_BIN_LEN] __attribute__((aligned(4))) = {
0x20, 0x00, 0x00, 0x00, 0x54, 0x46, 0x4c, 0x33, 0x00, 0x00, 0x00, 0x00, 0x14, 0x00, 0x20, 0x00,
0x1c, 0x00, 0x18, 0x00, 0x14, 0x00, 0x10, 0x00, 0x0c, 0x00, 0x00, 0x00, 0x08, 0x00, 0x04, 0x00,
0x14, 0x00, 0x00, 0x00, 0x1c, 0x00, 0x00, 0x00, 0x90, 0x00, 0x00, 0x00, 0xc0, 0x00, 0x00, 0x00,
0xf8, 0x17, 0x00, 0x00, 0x08, 0x18, 0x00, 0x00, 0x70, 0x2a, 0x00, 0x00, 0x03, 0x00, 0x00, 0x00,
0x01, 0x00, 0x00, 0x00, 0x10, 0x00, 0x00, 0x00, 0x00, 0x00, 0x0a, 0x00, 0x10, 0x00, 0x0c, 0x00,
0x08, 0x00, 0x04, 0x00, 0x0a, 0x00, 0x00, 0x00, 0x0c, 0x00, 0x00, 0x00, 0x1c, 0x00, 0x00, 0x00,
0x3c, 0x00, 0x00, 0x00, 0x0f, 0x00, 0x00, 0x00, 0x73, 0x65, 0x72, 0x76, 0x69, 0x6e, 0x67, 0x5f,
0x64, 0x65, 0x66, 0x61, 0x75, 0x6c, 0x74, 0x00, 0x01, 0x00, 0x00, 0x00, 0x04, 0x00, 0x00, 0x00,
0xc0, 0xff, 0xff, 0xff, 0x15, 0x00, 0x00, 0x00, 0x04, 0x00, 0x00, 0x00, 0x0a, 0x00, 0x00, 0x00,
0x73, 0x65, 0x71, 0x75, 0x65, 0x6e, 0x74, 0x69, 0x61, 0x6c, 0x00, 0x00, 0x01, 0x00, 0x00, 0x00,
0x04, 0x00, 0x00, 0x00, 0xe6, 0xe7, 0xff, 0xff, 0x04, 0x00, 0x00, 0x00, 0x07, 0x00, 0x00, 0x00,
0x69, 0x6e, 0x70, 0x75, 0x74, 0x5f, 0x32, 0x00, 0x01, 0x00, 0x00, 0x00, 0x0c, 0x00, 0x00, 0x00,
0x08, 0x00, 0x0c, 0x00, 0x08, 0x00, 0x04, 0x00, 0x08, 0x00, 0x00, 0x00, 0x17, 0x00, 0x00, 0x00,
0x04, 0x00, 0x00, 0x00, 0x13, 0x00, 0x00, 0x00, 0x6d, 0x69, 0x6e, 0x5f, 0x72, 0x75, 0x6e, 0x74,
0x69, 0x6d, 0x65, 0x5f, 0x76, 0x65, 0x72, 0x73, 0x69, 0x6f, 0x6e, 0x00, 0x18, 0x00, 0x00, 0x00,
0x34, 0x17, 0x00, 0x00, 0x2c, 0x17, 0x00, 0x00, 0x14, 0x17, 0x00, 0x00, 0x74, 0x16, 0x00, 0x00,
0x24, 0x16, 0x00, 0x00, 0x04, 0x16, 0x00, 0x00, 0xe4, 0x15, 0x00, 0x00, 0xd4, 0x03, 0x00, 0x00,
0x44, 0x03, 0x00, 0x00, 0x34, 0x01, 0x00, 0x00, 0xe4, 0x00, 0x00, 0x00, 0x94, 0x00, 0x00, 0x00,
0x74, 0x00, 0x00, 0x00, 0x6c, 0x00, 0x00, 0x00, 0x64, 0x00, 0x00, 0x00, 0x5c, 0x00, 0x00, 0x00,
0x54, 0x00, 0x00, 0x00, 0x4c, 0x00, 0x00, 0x00, 0x44, 0x00, 0x00, 0x00, 0x3c, 0x00, 0x00, 0x00,
0x34, 0x00, 0x00, 0x00, 0x2c, 0x00, 0x00, 0x00, 0x24, 0x00, 0x00, 0x00, 0x04, 0x00, 0x00, 0x00,
0x92, 0xe8, 0xff, 0xff, 0x04, 0x00, 0x00, 0x00, 0x10, 0x00, 0x00, 0x00, 0x31, 0x2e, 0x31, 0x34,
0x2e, 0x30, 0x00, 0x00, 0x00, 0x00, 0x00, 0x00, 0x00, 0x00, 0x00, 0x00, 0xa8, 0xd7, 0xff, 0xff,
0xac, 0xd7, 0xff, 0xff, 0xb0, 0xd7, 0xff, 0xff, 0xb4, 0xd7, 0xff, 0xff, 0xb8, 0xd7, 0xff, 0xff,
0xbc, 0xd7, 0xff, 0xff, 0xc0, 0xd7, 0xff, 0xff, 0xc4, 0xd7, 0xff, 0xff, 0xc8, 0xd7, 0xff, 0xff,
0xcc, 0xd7, 0xff, 0xff, 0xd6, 0xe8, 0xff, 0xff, 0x04, 0x00, 0x00, 0x00, 0x10, 0x00, 0x00, 0x00,
0x18, 0x00, 0x00, 0x00, 0xce, 0xff, 0xff, 0xff, 0xe8, 0xff, 0xff, 0xff, 0x1f, 0x00, 0x00, 0x00,
0xf2, 0xe8, 0xff, 0xff, 0x04, 0x00, 0x00, 0x00, 0x40, 0x00, 0x00, 0x00, 0x54, 0xc9, 0x99, 0x2d,
0x81, 0xc6, 0xc2, 0xd9, 0x0d, 0x74, 0x53, 0x0b, 0x3d, 0xa4, 0xc9, 0x4e, 0xac, 0x21, 0x88, 0xee,
0x39, 0x6b, 0x3e, 0xda, 0x15, 0xae, 0xf9, 0x91, 0x46, 0x4a, 0xd3, 0x31, 0xa3, 0x87, 0x14, 0x1d,
0x37, 0x0f, 0xab, 0xff, 0x88, 0xb3, 0x2e, 0x1a, 0xb7, 0x43, 0x7c, 0x8a, 0x31, 0x3c, 0xf4, 0x65,
0x08, 0xf9, 0x3a, 0x0e, 0x35, 0xcc, 0x88, 0x0b, 0xb9, 0xd5, 0xea, 0xc0, 0x3e, 0xe9, 0xff, 0xff,
0x04, 0x00, 0x00, 0x00, 0x40, 0x00, 0x00, 0x00, 0x1a, 0x00, 0x00, 0x00, 0x37, 0x00, 0x00, 0x00,
0x02, 0x00, 0x00, 0x00, 0xfa, 0xff, 0xff, 0xff, 0x00, 0x00, 0x00, 0x00, 0x0a, 0x00, 0x00, 0x00,
0xe6, 0xff, 0xff, 0xff, 0xee, 0xff, 0xff, 0xff, 0x1f, 0x00, 0x00, 0x00, 0xf1, 0xff, 0xff, 0xff,
0x0a, 0x00, 0x00, 0x00, 0x05, 0x00, 0x00, 0x00, 0x0d, 0x00, 0x00, 0x00, 0xfe, 0xff, 0xff, 0xff,
0x14, 0x00, 0x00, 0x00, 0x0c, 0x00, 0x00, 0x00, 0x8a, 0xe9, 0xff, 0xff, 0x04, 0x00, 0x00, 0x00,
0x00, 0x02, 0x00, 0x00, 0xd7, 0xc6, 0xe8, 0x30, 0x19, 0xdf, 0x22, 0x00, 0x1d, 0x0c, 0x10, 0x4a,
0xb8, 0xf6, 0x30, 0xfa, 0x27, 0xf8, 0xcc, 0x42, 0x32, 0x11, 0x0e, 0x11, 0xdb, 0xde, 0x30, 0x40,
0xee, 0xc7, 0x16, 0xa7, 0xc8, 0x0f, 0x40, 0x04, 0xed, 0x04, 0x23, 0x4d, 0x0a, 0xb6, 0x43, 0xe4,
0xe8, 0x1e, 0xf4, 0x11, 0xc1, 0x1d, 0x2e, 0xba, 0xaf, 0x1d, 0x2b, 0x0f, 0xe6, 0xdf, 0x1b, 0x4a,
0x26, 0xec, 0x05, 0x35, 0x45, 0xe5, 0x0a, 0xbe, 0x11, 0x02, 0xfa, 0x30, 0xf0, 0xed, 0x55, 0xf0,
0x0a, 0xcc, 0xd9, 0xea, 0x19, 0xd2, 0x62, 0x27, 0x16, 0x0c, 0xf7, 0xc6, 0xc9, 0xf8, 0x32, 0x0b,
0x0d, 0x42, 0x0d, 0x4c, 0xf7, 0xcc, 0x3d, 0xe5, 0x25, 0x18, 0xc6, 0x2d, 0x03, 0xb1, 0x4d, 0x44,
0xe0, 0xed, 0xe9, 0xf2, 0xfc, 0x3f, 0xe3, 0x39, 0x08, 0xf2, 0x4e, 0x26, 0xa9, 0xda, 0x36, 0x41,
0xad, 0x38, 0xef, 0x01, 0x41, 0x22, 0x00, 0xd0, 0xd0, 0x4c, 0xee, 0xf8, 0xf5, 0xe0, 0x35, 0xd4,
0x44, 0x20, 0x07, 0x39, 0x01, 0x2f, 0x30, 0xc5, 0xcc, 0x1f, 0xe8, 0xee, 0xf8, 0xfc, 0xba, 0x18,
0x18, 0x1e, 0x34, 0x31, 0x0a, 0x36, 0x07, 0x28, 0xcf, 0xfd, 0x0b, 0xb3, 0xb9, 0xe0, 0xbc, 0xe8,
0x1e, 0x3c, 0xd3, 0x4a, 0xf1, 0x3f, 0x09, 0xca, 0x97, 0x1a, 0x11, 0x0b, 0x1b, 0xf8, 0x91, 0xce,
0x03, 0x35, 0x06, 0x29, 0xf4, 0x0c, 0x1b, 0xf0, 0xf4, 0x2a, 0x1d, 0xdb, 0xf1, 0xca, 0x01, 0xec,
0xfc, 0x22, 0xaa, 0x2a, 0xa0, 0x42, 0x25, 0xdb, 0xa6, 0xf8, 0x3d, 0x34, 0xf6, 0x19, 0x2c, 0x1c,
0x41, 0x14, 0x3c, 0x19, 0x2d, 0x0b, 0xc6, 0xd3, 0xd7, 0xbd, 0xf7, 0xd1, 0x0b, 0xc0, 0xd4, 0xfe,
0xd2, 0x17, 0x0a, 0x12, 0x30, 0xfa, 0xda, 0x16, 0x06, 0xf8, 0xf7, 0xb2, 0x20, 0x1e, 0xfe, 0x2e,
0xe6, 0x03, 0xf4, 0xd4, 0xd7, 0xf8, 0x00, 0xdc, 0x0a, 0x1c, 0x37, 0xf2, 0x1c, 0xbe, 0x1f, 0x0e,
0x08, 0x38, 0xbb, 0x0c, 0xe3, 0x48, 0x08, 0x31, 0xef, 0x08, 0xfe, 0x43, 0xb0, 0xd7, 0xe7, 0x63,
0x11, 0x19, 0x28, 0xe3, 0xcc, 0x0d, 0xc9, 0xf0, 0x4d, 0xa0, 0x05, 0xe8, 0x35, 0x3e, 0x02, 0xfc,
0xf4, 0x2d, 0xfb, 0xc3, 0x16, 0xf8, 0xd9, 0x42, 0x2d, 0x27, 0xfb, 0x03, 0x18, 0xca, 0xe5, 0x0f,
0x33, 0xc4, 0xc4, 0x9b, 0x2c, 0xfc, 0xed, 0x40, 0x3a, 0x04, 0xeb, 0xfe, 0xe1, 0x33, 0xc1, 0x0a,
0x02, 0xf2, 0x22, 0xe4, 0x33, 0xd1, 0x1f, 0xf5, 0x2f, 0x22, 0xe4, 0x09, 0x1a, 0xdb, 0xeb, 0xef,
0x01, 0xbf, 0xe8, 0xe5, 0x11, 0x0e, 0x27, 0xe6, 0x44, 0xac, 0xce, 0x2c, 0x56, 0x07, 0x40, 0x07,
0x3f, 0xb7, 0x17, 0xde, 0x1f, 0xf2, 0x07, 0x0a, 0x71, 0xd4, 0x07, 0x15, 0xd9, 0xc1, 0x4a, 0x3d,
0x25, 0xfd, 0xde, 0x00, 0xf7, 0x18, 0xe0, 0x3e, 0x43, 0xe1, 0x0a, 0xd4, 0xcc, 0x39, 0xca, 0xf7,
0xfd, 0x31, 0x2f, 0xd9, 0xea, 0x03, 0xcc, 0x0d, 0xcc, 0x19, 0xc9, 0xfe, 0x33, 0x42, 0xee, 0x05,
0x4d, 0xd2, 0x14, 0xdc, 0xf7, 0x48, 0xe9, 0x39, 0xf7, 0x42, 0xf4, 0xf7, 0xe7, 0xfe, 0xed, 0xe1,
0x33, 0xcf, 0xb4, 0x31, 0xe6, 0x30, 0x33, 0xc3, 0xfc, 0x31, 0xe4, 0xf0, 0x03, 0x19, 0xbf, 0xb7,
0xff, 0x38, 0x5a, 0x05, 0x05, 0x2f, 0x18, 0x1b, 0xfe, 0xb3, 0xbf, 0x37, 0xec, 0xea, 0x2f, 0xbc,
0x10, 0x81, 0xc5, 0x19, 0x31, 0xa1, 0x2d, 0x1f, 0x35, 0xb8, 0xcd, 0xca, 0x04, 0x2e, 0xda, 0x07,
0x32, 0x20, 0x21, 0x3a, 0x20, 0x36, 0xb8, 0x3b, 0x08, 0x34, 0x41, 0xc4, 0x29, 0xe5, 0xe1, 0x3e,
0xf6, 0x10, 0x38, 0xe9, 0x0a, 0x20, 0xc3, 0xd2, 0x15, 0x2c, 0xb4, 0xe6, 0x1a, 0x0b, 0x15, 0xcf,
0x1a, 0xae, 0x0d, 0xd4, 0x96, 0xeb, 0xff, 0xff, 0x04, 0x00, 0x00, 0x00, 0x80, 0x00, 0x00, 0x00,
0xb9, 0xff, 0xff, 0xff, 0x1a, 0x00, 0x00, 0x00, 0xc0, 0xff, 0xff, 0xff, 0x74, 0x00, 0x00, 0x00,
0xad, 0xff, 0xff, 0xff, 0x82, 0x00, 0x00, 0x00, 0x62, 0x00, 0x00, 0x00, 0xc5, 0xff, 0xff, 0xff,
0x6d, 0xff, 0xff, 0xff, 0x77, 0xff, 0xff, 0xff, 0xfb, 0xff, 0xff, 0xff, 0x16, 0x00, 0x00, 0x00,
0xf4, 0xff, 0xff, 0xff, 0xe0, 0x00, 0x00, 0x00, 0x61, 0xff, 0xff, 0xff, 0x09, 0x00, 0x00, 0x00,
0x00, 0xff, 0xff, 0xff, 0x28, 0x00, 0x00, 0x00, 0xeb, 0xff, 0xff, 0xff, 0xe9, 0xff, 0xff, 0xff,
0x59, 0x00, 0x00, 0x00, 0x26, 0x00, 0x00, 0x00, 0xb9, 0x00, 0x00, 0x00, 0x24, 0x00, 0x00, 0x00,
0x0f, 0x00, 0x00, 0x00, 0xbc, 0xff, 0xff, 0xff, 0x49, 0x00, 0x00, 0x00, 0x12, 0x00, 0x00, 0x00,
0x3f, 0x00, 0x00, 0x00, 0xd7, 0xff, 0xff, 0xff, 0x10, 0x00, 0x00, 0x00, 0xc1, 0xff, 0xff, 0xff,
0x22, 0xec, 0xff, 0xff, 0x04, 0x00, 0x00, 0x00, 0x00, 0x12, 0x00, 0x00, 0xf2, 0xf1, 0xdc, 0x0b,
0xf5, 0x51, 0x04, 0xc3, 0xfe, 0xcc, 0xd8, 0x16, 0x11, 0x2e, 0x0b, 0x25, 0xbc, 0x1f, 0xf0, 0x17,
0xdf, 0xf1, 0xf4, 0xe4, 0x0a, 0xde, 0xe0, 0xdf, 0xeb, 0x0d, 0x0b, 0xe3, 0xe7, 0x01, 0x11, 0xf9,
0xf8, 0x0f, 0xe6, 0x01, 0x28, 0x19, 0xf4, 0x03, 0xe6, 0x16, 0xbb, 0x25, 0xe4, 0xd8, 0xf6, 0xfe,
0xc9, 0x75, 0xd0, 0x9f, 0x29, 0xbf, 0x25, 0x16, 0xfd, 0x4b, 0x38, 0x00, 0xf6, 0x17, 0xf9, 0x1d,
0xde, 0xef, 0xef, 0xd0, 0x28, 0xf5, 0xe4, 0xcc, 0xbc, 0x08, 0xe1, 0xf0, 0xe8, 0xf6, 0x03, 0xf4,
0x04, 0x02, 0xdc, 0xf0, 0x1b, 0x1e, 0xfe, 0xf7, 0xee, 0xfd, 0x12, 0x2a, 0xc7, 0xf0, 0xae, 0xf1,
0x12, 0x7f, 0x16, 0x98, 0x33, 0xb1, 0xdf, 0x01, 0xee, 0x30, 0x21, 0x0a, 0xdb, 0x05, 0x13, 0xfc,
0xfc, 0x01, 0xfb, 0xd8, 0x2e, 0x0a, 0xf6, 0xdd, 0xd9, 0x01, 0xf0, 0xfa, 0xdb, 0xba, 0x01, 0xd4,
0x0b, 0xff, 0xc7, 0x39, 0x03, 0x02, 0xf3, 0x0c, 0xf4, 0x06, 0x09, 0xff, 0x19, 0xad, 0xfa, 0xdb,
0x16, 0x0e, 0x29, 0x7f, 0xe1, 0xec, 0x03, 0x4c, 0xfc, 0x1f, 0x03, 0x1b, 0x14, 0xf4, 0x1e, 0xf4,
0xf4, 0x38, 0x04, 0xb2, 0x07, 0xfb, 0x0d, 0x31, 0x37, 0x08, 0x39, 0xdc, 0xf1, 0x5a, 0x07, 0xfb,
0xdc, 0xed, 0xf0, 0xe9, 0x43, 0x16, 0x02, 0xea, 0xf9, 0xed, 0xb1, 0xe6, 0xf9, 0xd0, 0xdc, 0x02,
0x19, 0x50, 0xfa, 0x2d, 0xe3, 0xc0, 0x2b, 0x3e, 0x09, 0x57, 0x16, 0xfa, 0xfc, 0x23, 0xf5, 0xf4,
0xdc, 0x2e, 0xfc, 0xb5, 0xf6, 0xf1, 0x0b, 0x1c, 0x0e, 0x24, 0x58, 0xe7, 0xbc, 0x39, 0x0b, 0x11,
0x07, 0xe2, 0xc2, 0xde, 0x3a, 0x18, 0xea, 0xe5, 0x13, 0x12, 0xb6, 0xb7, 0x0d, 0xb7, 0xd8, 0xf8,
0xfc, 0x45, 0x04, 0x18, 0xe3, 0xc1, 0x0e, 0x3c, 0x08, 0x34, 0x4e, 0xed, 0xe5, 0x22, 0xfa, 0x05,
0xd2, 0x09, 0xc2, 0xf4, 0x37, 0x02, 0x0c, 0xc5, 0xd5, 0xe3, 0xf6, 0xd8, 0xeb, 0x2a, 0x28, 0xfb,
0xdd, 0x03, 0xf6, 0x17, 0x14, 0x28, 0xe2, 0x0c, 0xe5, 0xd3, 0xf3, 0xe5, 0x07, 0xe3, 0x35, 0x14,
0xeb, 0xfb, 0xaa, 0x2b, 0x24, 0x18, 0x0b, 0xe8, 0x85, 0xcf, 0xc0, 0x09, 0x0a, 0x49, 0xde, 0x3f,
0x20, 0x20, 0x1a, 0xb2, 0xfe, 0x04, 0xfa, 0x7d, 0x35, 0x0f, 0x0c, 0x29, 0xfa, 0x81, 0x0a, 0xdc,
0x1b, 0xb0, 0x18, 0xfb, 0xf4, 0xf3, 0x02, 0x03, 0x2b, 0xe2, 0x2f, 0x16, 0x19, 0xdc, 0x02, 0xf0,
0xdc, 0x00, 0xc6, 0x72, 0xdb, 0x1e, 0x3c, 0xc2, 0xb3, 0x09, 0xd2, 0x12, 0xfb, 0x72, 0xef, 0x58,
0x17, 0x13, 0xf2, 0xf0, 0xf9, 0x50, 0x22, 0x44, 0xfb, 0x12, 0xff, 0x0a, 0x1f, 0xae, 0xf7, 0xbc,
0x22, 0xcc, 0x09, 0x07, 0xe0, 0x19, 0xcd, 0xef, 0x09, 0xbb, 0x02, 0xd3, 0x20, 0xcb, 0x1a, 0x0a,
0x01, 0x04, 0xc6, 0x1f, 0xf2, 0x33, 0x2d, 0xa9, 0x84, 0xd4, 0xae, 0x07, 0x27, 0x56, 0xea, 0x1a,
0x0c, 0x2b, 0xfa, 0x11, 0x34, 0x14, 0xeb, 0x54, 0xff, 0x0a, 0x2d, 0x12, 0x02, 0xb6, 0xc9, 0xea,
0x03, 0x97, 0xfa, 0x13, 0x07, 0xf9, 0xfc, 0x3d, 0x1a, 0x03, 0xe7, 0xef, 0x1c, 0xdb, 0xeb, 0x45,
0xf7, 0xed, 0x27, 0xf0, 0xce, 0xec, 0x0b, 0x32, 0xfe, 0x2a, 0x67, 0x19, 0x09, 0xfc, 0x0b, 0x02,
0x32, 0x0d, 0x1c, 0x0f, 0xdd, 0x21, 0xf7, 0xf9, 0x04, 0x0c, 0x01, 0xb3, 0xea, 0x27, 0xe4, 0x27,
0x03, 0x22, 0x05, 0xd8, 0x13, 0x0c, 0x2f, 0xaf, 0xf9, 0x47, 0xe0, 0xef, 0xe3, 0xe3, 0xcb, 0x34,
0x1c, 0x92, 0x32, 0x51, 0xe4, 0xfa, 0x0d, 0x33, 0xfb, 0x21, 0x2b, 0xda, 0x22, 0x16, 0x02, 0xf9,
0x2f, 0x01, 0x01, 0xf4, 0xde, 0x44, 0x20, 0xf1, 0x14, 0x4d, 0x26, 0xc6, 0xe7, 0x69, 0x1a, 0x2a,
0xe6, 0x4e, 0xf8, 0xa8, 0x23, 0xeb, 0xf9, 0xce, 0xf5, 0x4d, 0xd5, 0xde, 0x26, 0xeb, 0x2e, 0x35,
0x28, 0xaf, 0x4c, 0x7f, 0xcd, 0xf4, 0x21, 0x05, 0xe3, 0x0f, 0x37, 0x03, 0x26, 0x27, 0x1b, 0x0e,
0x50, 0x26, 0x35, 0x17, 0x1f, 0x1a, 0x21, 0xc2, 0x21, 0x0a, 0xfc, 0xd3, 0x22, 0x43, 0x33, 0xfd,
0x00, 0x26, 0xf3, 0xb4, 0x2d, 0xdf, 0x10, 0xd8, 0x05, 0x45, 0xf2, 0xfc, 0xf3, 0x22, 0xe5, 0xd1,
0x00, 0xea, 0xeb, 0x06, 0xcf, 0x62, 0xf7, 0xc6, 0x01, 0xb2, 0xe6, 0xb9, 0xf6, 0x0b, 0x14, 0xf9,
0x08, 0x43, 0xb1, 0x3e, 0x7c, 0x24, 0xd8, 0xb4, 0x00, 0x10, 0xb0, 0x1b, 0x08, 0xb9, 0xda, 0xd5,
0xdf, 0xe0, 0x1a, 0xe7, 0xe2, 0x9f, 0x1b, 0xe1, 0x00, 0xf7, 0x30, 0x12, 0xf5, 0x08, 0xe9, 0x9d,
0x04, 0xeb, 0xec, 0x14, 0xed, 0x6a, 0x02, 0xca, 0x0e, 0xd4, 0x86, 0xfa, 0xf3, 0x04, 0x3f, 0x21,
0xdf, 0x64, 0xed, 0x20, 0x39, 0x36, 0xee, 0xa9, 0xe6, 0x0b, 0xcf, 0x10, 0xf7, 0xce, 0x0b, 0xf8,
0xee, 0xf1, 0x0c, 0x0a, 0xde, 0xce, 0x11, 0xcd, 0xd0, 0xb1, 0xd7, 0x07, 0xe3, 0x08, 0xd5, 0xe8,
0xe8, 0xda, 0x95, 0x0a, 0xd4, 0x3f, 0xf1, 0x85, 0xdb, 0xdc, 0xa9, 0xc2, 0xe6, 0x0b, 0x3c, 0x22,
0xe2, 0x7f, 0xb6, 0x10, 0x45, 0x21, 0x01, 0xba, 0xef, 0x52, 0x04, 0x0c, 0xfe, 0xd1, 0xf2, 0xc5,
0xd2, 0x04, 0xfb, 0x06, 0xf4, 0xaf, 0xfd, 0xde, 0xcd, 0xe1, 0xc4, 0xf6, 0xf2, 0xf6, 0xd5, 0x1c,
0xfe, 0xff, 0xdd, 0x21, 0x26, 0xa7, 0xf4, 0xfc, 0xfe, 0x17, 0x1a, 0xdc, 0xd4, 0x53, 0x40, 0x0f,
0xff, 0xe1, 0xec, 0x6a, 0x56, 0xd1, 0xc6, 0xe2, 0x18, 0x19, 0xc5, 0xb3, 0x06, 0x3a, 0x34, 0x16,
0x1d, 0x50, 0x1d, 0x2e, 0xe2, 0x6a, 0xb5, 0x23, 0x2d, 0x1a, 0x10, 0xba, 0xe6, 0xd6, 0x30, 0x23,
0xfb, 0xd2, 0xfc, 0x72, 0x08, 0xc8, 0xfc, 0x08, 0x03, 0xec, 0x28, 0xe3, 0xfd, 0x2f, 0x4a, 0x0b,
0x0c, 0xca, 0x04, 0x32, 0xf4, 0x2d, 0xe1, 0xc9, 0x31, 0xe5, 0xc4, 0xcd, 0x27, 0x09, 0x40, 0xec,
0x49, 0xf9, 0x2b, 0x3a, 0xc2, 0x4c, 0xeb, 0x03, 0x5b, 0xc4, 0x34, 0xba, 0xf5, 0xde, 0x3a, 0x42,
0xeb, 0xaf, 0xe0, 0x2d, 0xe2, 0xb2, 0x12, 0xd6, 0xda, 0x0d, 0x0c, 0xd5, 0x47, 0x3b, 0x4b, 0xe4,
0x3f, 0xaa, 0x1d, 0x66, 0xc3, 0x1b, 0x0a, 0xf3, 0x2e, 0xdb, 0xfc, 0xaf, 0x4a, 0x13, 0x4c, 0x8b,
0x44, 0xcb, 0x11, 0x27, 0xbb, 0x13, 0xd4, 0x17, 0x7f, 0xb9, 0x0f, 0xfb, 0xd0, 0xfc, 0xc2, 0x64,
0xf4, 0x51, 0x1a, 0x3a, 0xb1, 0x35, 0xfb, 0x30, 0xfe, 0x5f, 0x36, 0xe4, 0x1b, 0x12, 0xf4, 0xe0,
0x1a, 0xd0, 0x0a, 0x59, 0xec, 0x32, 0x23, 0xcb, 0xfa, 0xaa, 0xe6, 0x1e, 0x05, 0x1f, 0xe2, 0x4c,
0xf1, 0x14, 0xfd, 0xec, 0xc4, 0xdd, 0xf7, 0xeb, 0x1e, 0x10, 0x04, 0xd5, 0xf1, 0xe6, 0xd4, 0x59,
0xe9, 0x30, 0x1c, 0x17, 0x97, 0x2e, 0xf8, 0x37, 0x0f, 0x7f, 0x27, 0x07, 0x0a, 0x62, 0x12, 0x19,
0x0f, 0x21, 0x0c, 0x69, 0x0b, 0x7b, 0xf7, 0xce, 0x13, 0xf4, 0xd6, 0x13, 0xf8, 0x15, 0xe0, 0x1e,
0x14, 0x23, 0xe3, 0xec, 0x10, 0xe4, 0xd4, 0xf4, 0x04, 0x27, 0xe8, 0x06, 0xf2, 0xd1, 0xd8, 0x72,
0x02, 0xf7, 0x13, 0x2c, 0xb9, 0x35, 0x07, 0x49, 0xf5, 0x6d, 0x3d, 0x01, 0x11, 0x68, 0x1a, 0xe4,
0x10, 0xfc, 0xec, 0x69, 0x01, 0x5a, 0x17, 0xdc, 0x19, 0x32, 0xf9, 0xfb, 0x08, 0x30, 0xcd, 0x39,
0x20, 0x3a, 0xf1, 0xea, 0xda, 0xe5, 0xf5, 0xe8, 0x09, 0x2e, 0xda, 0xd3, 0xd9, 0x4e, 0xcc, 0x6c,
0xd3, 0xe4, 0xd1, 0xd7, 0xd7, 0x1a, 0xe6, 0xf0, 0xf8, 0xeb, 0xfb, 0x0a, 0x03, 0xc9, 0xde, 0xfe,
0xe3, 0xca, 0xf0, 0xc5, 0xbb, 0xf3, 0xb9, 0x19, 0xc6, 0x19, 0xf3, 0xca, 0xf4, 0xb7, 0xeb, 0xbc,
0xe2, 0xe1, 0xf3, 0xf8, 0x0d, 0x1c, 0xea, 0x0c, 0xef, 0xc0, 0x0c, 0xcf, 0xc5, 0x3b, 0xdb, 0x7f,
0xb8, 0x1c, 0x05, 0xe5, 0xa8, 0xda, 0xe3, 0x06, 0xc0, 0x3a, 0xc3, 0xd7, 0xfd, 0xf0, 0xcc, 0x25,
0x0b, 0xb1, 0xf8, 0x1e, 0xd5, 0xf6, 0xa2, 0xf1, 0xce, 0xfc, 0x0b, 0xd7, 0x11, 0x93, 0x2a, 0xf0,
0x20, 0xd5, 0x23, 0x1b, 0xfb, 0x04, 0xf9, 0xf7, 0x1b, 0xe1, 0xe5, 0x33, 0xe6, 0x65, 0xf3, 0x5d,
0xd9, 0x0b, 0xa7, 0x44, 0xc0, 0x14, 0xf1, 0xf0, 0xb5, 0x1c, 0x8b, 0xfb, 0xf4, 0xc5, 0xa6, 0x17,
0x07, 0xd6, 0xfc, 0xd3, 0xab, 0xbd, 0xc8, 0xfc, 0xdd, 0xfa, 0xf1, 0xb0, 0xf6, 0x94, 0xcf, 0xda,
0xdd, 0xb5, 0xfb, 0x0e, 0xe8, 0x11, 0xcc, 0x1d, 0xff, 0xd7, 0x0b, 0x06, 0x04, 0xfa, 0xea, 0xdc,
0x1e, 0xc7, 0x14, 0xbe, 0xba, 0x2d, 0x0b, 0x31, 0x08, 0xc0, 0x25, 0xde, 0x46, 0xf6, 0xf9, 0x06,
0x20, 0xf7, 0x31, 0xd4, 0xf6, 0x1a, 0x27, 0x28, 0x13, 0xe0, 0xf8, 0x1d, 0x00, 0xcd, 0x09, 0x26,
0xef, 0x49, 0x24, 0xf3, 0x05, 0xe0, 0x18, 0x1f, 0x24, 0x3f, 0x23, 0x09, 0x29, 0xe8, 0xcc, 0x01,
0xe7, 0xe1, 0xf9, 0xbe, 0x98, 0x26, 0x2d, 0x27, 0x09, 0xe1, 0xfb, 0xee, 0x26, 0x30, 0x18, 0xf4,
0x40, 0xf3, 0x3c, 0xe9, 0xf5, 0x1a, 0x18, 0xf4, 0x06, 0xdf, 0x0a, 0x0a, 0x01, 0xd0, 0xf7, 0x67,
0x24, 0x47, 0x2d, 0x39, 0x1c, 0x03, 0x2b, 0xf7, 0xe6, 0x7f, 0x1a, 0x23, 0x1f, 0x01, 0xeb, 0xf8,
0x10, 0x93, 0xdb, 0xc7, 0xb2, 0x3d, 0x20, 0xe7, 0xe5, 0xdc, 0xc9, 0xec, 0xff, 0x00, 0x1b, 0x14,
0x30, 0xbf, 0xfd, 0xf7, 0xba, 0x20, 0x19, 0xd2, 0xf7, 0xf4, 0xec, 0x00, 0xef, 0xfb, 0xfc, 0x43,
0x27, 0x4c, 0x0d, 0xe5, 0x0f, 0xed, 0x1b, 0x04, 0xff, 0x32, 0x42, 0x26, 0x19, 0xff, 0xd1, 0x20,
0x1b, 0xcc, 0x0d, 0xe3, 0xef, 0xdb, 0x3b, 0x34, 0x38, 0x3a, 0x55, 0x0a, 0x0c, 0x20, 0x18, 0x23,
0x2e, 0xf7, 0x5c, 0xc9, 0xf7, 0x18, 0x11, 0x30, 0x07, 0x19, 0x0b, 0xd3, 0x17, 0x1d, 0x33, 0x16,
0x09, 0x2f, 0x16, 0xf9, 0x11, 0xf5, 0xf8, 0x05, 0x36, 0x3e, 0x25, 0x2a, 0x30, 0x04, 0x06, 0xf0,
0x28, 0xe0, 0x4b, 0x08, 0xee, 0xe9, 0x3b, 0x6b, 0x26, 0x0c, 0x3d, 0x00, 0x39, 0xf2, 0x09, 0x1f,
0x60, 0xe1, 0x58, 0x0c, 0xd7, 0x25, 0x23, 0x37, 0x24, 0xff, 0xf6, 0xdd, 0x31, 0x2d, 0x45, 0x0d,
0x07, 0x11, 0x0d, 0x03, 0x33, 0x07, 0x38, 0x2c, 0x20, 0x47, 0xfc, 0xf3, 0x41, 0xd4, 0x17, 0xf5,
0x38, 0x81, 0x2c, 0x56, 0xfb, 0x10, 0x21, 0x34, 0x2b, 0xfd, 0x17, 0x2c, 0x6f, 0xd4, 0x31, 0x1e,
0x6d, 0xbf, 0x3a, 0x0b, 0xf0, 0x0b, 0x35, 0x29, 0x45, 0x06, 0x1f, 0xf3, 0x20, 0x0b, 0x32, 0x26,
0x0c, 0x0b, 0x1c, 0xf3, 0x26, 0x07, 0x1e, 0x13, 0x0f, 0x29, 0x17, 0x11, 0xd6, 0x37, 0x13, 0x2a,
0xd3, 0x23, 0x99, 0x44, 0x03, 0x0b, 0xcd, 0xd3, 0xc9, 0x04, 0xca, 0xed, 0xff, 0x3f, 0xed, 0x2c,
0xfb, 0x0d, 0x23, 0xbf, 0xfc, 0x1c, 0xe6, 0x4d, 0x22, 0xf8, 0x26, 0x15, 0xf3, 0xa9, 0x02, 0xc9,
0x11, 0xcf, 0xf8, 0xfe, 0xf2, 0xf6, 0xeb, 0x2d, 0x07, 0xe0, 0xfe, 0xfd, 0xf7, 0x0f, 0x20, 0xd9,
0xc7, 0x1a, 0xa7, 0x42, 0x0d, 0x0b, 0xf1, 0xc4, 0x9d, 0xfe, 0xd1, 0xfa, 0x08, 0x64, 0x08, 0x26,
0xf0, 0x07, 0x0a, 0xd3, 0x24, 0x28, 0x12, 0x43, 0xf3, 0xf4, 0x1f, 0x25, 0x12, 0xc6, 0xed, 0xfa,
0xfa, 0xdc, 0x02, 0x34, 0xf0, 0x00, 0xfc, 0x21, 0xf4, 0xe5, 0x10, 0xfe, 0x03, 0x09, 0x08, 0xe4,
0xba, 0x44, 0x81, 0x2d, 0xf1, 0x35, 0xf3, 0xb2, 0x99, 0xd6, 0xc0, 0xeb, 0xee, 0x4b, 0xf0, 0x1f,
0x1e, 0x14, 0x22, 0xf9, 0x27, 0x11, 0xeb, 0x36, 0x24, 0xf4, 0x33, 0x07, 0xf4, 0xa3, 0xd0, 0xe7,
0x22, 0xce, 0xfe, 0x0a, 0xc9, 0xdb, 0x14, 0x0e, 0x0d, 0xd0, 0x1b, 0x15, 0xde, 0x18, 0x1e, 0xc3,
0xda, 0x43, 0x81, 0x23, 0x28, 0x27, 0xde, 0xb8, 0xeb, 0x06, 0xae, 0xe7, 0x0d, 0xdd, 0xf1, 0xe4,
0x13, 0xc7, 0x17, 0xf0, 0xd5, 0x18, 0x18, 0xee, 0xef, 0xcb, 0xe5, 0x04, 0xed, 0xd1, 0xc7, 0x2e,
0x07, 0x03, 0xf8, 0x04, 0xf7, 0xd7, 0xeb, 0xf9, 0x0c, 0x1a, 0xff, 0x1d, 0xda, 0x26, 0x06, 0xe7,
0xe7, 0x35, 0xa2, 0x09, 0x2c, 0x13, 0xe6, 0xc3, 0xfe, 0x05, 0xe7, 0xeb, 0x07, 0x0a, 0xe6, 0xc0,
0x19, 0xdd, 0x0c, 0xec, 0xf6, 0xfe, 0xe8, 0xe2, 0xee, 0xc2, 0xe1, 0xf9, 0x02, 0xcc, 0xc2, 0x2d,
0x15, 0x1d, 0xfc, 0xf2, 0x00, 0xc7, 0xe2, 0x11, 0xfc, 0x28, 0x24, 0x02, 0xfe, 0x18, 0x06, 0x03,
0xf5, 0x33, 0xce, 0x0b, 0x54, 0x39, 0xef, 0xc9, 0xe6, 0x37, 0xdb, 0xf9, 0xf1, 0x04, 0xf3, 0xcd,
0xf1, 0x18, 0xe1, 0xe3, 0xf5, 0x29, 0xd4, 0xe7, 0xe3, 0xcc, 0xbd, 0xe9, 0xeb, 0xb2, 0xfc, 0x18,
0x04, 0xe5, 0x00, 0xdf, 0xe3, 0xda, 0xfe, 0x02, 0x17, 0x18, 0x0a, 0x01, 0x12, 0xfc, 0xd7, 0x04,
0x23, 0x56, 0x58, 0xc6, 0xd7, 0x1b, 0xe3, 0x51, 0x38, 0x3c, 0x06, 0xe1, 0xd9, 0x01, 0xff, 0x14,
0xf0, 0xf2, 0x25, 0x99, 0x2e, 0xc2, 0xe6, 0x7f, 0xd1, 0x2c, 0x1d, 0x07, 0xb8, 0x01, 0x40, 0xf0,
0xea, 0xba, 0xf5, 0xfa, 0x46, 0x2d, 0xb9, 0xfc, 0xf7, 0xfb, 0xff, 0xee, 0xe7, 0x03, 0xf6, 0xfd,
0xc7, 0x66, 0xf0, 0x95, 0x14, 0xc1, 0x00, 0x32, 0x0c, 0x4e, 0x39, 0x13, 0xfa, 0x0d, 0x1a, 0x22,
0xb0, 0xdb, 0xdf, 0xe7, 0x2f, 0xa9, 0xd2, 0x1b, 0xca, 0xf8, 0x1c, 0xc9, 0xda, 0xfe, 0x17, 0xed,
0xc9, 0xdc, 0xe1, 0x49, 0x4a, 0x18, 0x14, 0xe4, 0xc5, 0x04, 0xfe, 0x0e, 0xbf, 0xf8, 0xa4, 0x09,
0xe9, 0x3c, 0x2b, 0x98, 0x12, 0xc0, 0xd8, 0x0e, 0xbd, 0x5d, 0xfb, 0xcd, 0x97, 0x14, 0xf8, 0xc9,
0xa2, 0xf5, 0xef, 0xdd, 0x1c, 0xe4, 0x14, 0x07, 0xd2, 0x09, 0x09, 0xd4, 0xb1, 0x23, 0x52, 0xf6,
0xbc, 0xcc, 0x0d, 0x08, 0x14, 0x27, 0x05, 0xec, 0xdd, 0xc9, 0xe2, 0x09, 0x12, 0xc9, 0x44, 0xdd,
0x2b, 0xd1, 0x04, 0x3b, 0x36, 0xb2, 0xf1, 0xb4, 0xf2, 0xc3, 0x01, 0x08, 0x1d, 0x2a, 0x4b, 0xfd,
0x0f, 0xd5, 0xfc, 0x36, 0xcb, 0x01, 0xf3, 0xcb, 0x09, 0x01, 0xcc, 0xdb, 0x23, 0x2f, 0x03, 0xf7,
0x15, 0x23, 0xf7, 0xbc, 0xf4, 0x0d, 0xf3, 0xde, 0x2e, 0xcc, 0x02, 0xeb, 0x17, 0xd5, 0x3a, 0xad,
0x18, 0xbf, 0xce, 0x44, 0x51, 0xe0, 0x23, 0x96, 0xff, 0xeb, 0xcf, 0x12, 0x08, 0x10, 0x4e, 0xfa,
0x08, 0xe5, 0x05, 0x54, 0xb8, 0xf6, 0x00, 0xe9, 0x0c, 0x0a, 0xe2, 0xe7, 0x32, 0x4a, 0x14, 0x2f,
0x0c, 0x5c, 0x34, 0xd6, 0x2b, 0xe4, 0xfe, 0xcf, 0x27, 0xe1, 0xfc, 0xe4, 0x1c, 0x15, 0x30, 0x93,
0xfa, 0xe5, 0xc9, 0x3a, 0x1f, 0xf1, 0xf2, 0xad, 0x2a, 0xc8, 0xf0, 0xf0, 0xf7, 0xe2, 0x25, 0xe8,
0xfb, 0xed, 0x12, 0x37, 0xb6, 0x00, 0xf2, 0x01, 0x06, 0xe1, 0x01, 0xcf, 0xe9, 0x7f, 0xe1, 0x2b,
0x13, 0x3e, 0xd4, 0xa2, 0x09, 0x19, 0x02, 0xff, 0xe4, 0xf3, 0xc1, 0xf6, 0x0c, 0x08, 0xcd, 0x3c,
0x38, 0xb6, 0x48, 0xb6, 0xb4, 0x03, 0x3c, 0x2f, 0x43, 0xfe, 0x59, 0x17, 0x1f, 0x3d, 0xd9, 0x43,
0x2a, 0xf7, 0x21, 0xd6, 0xe7, 0x45, 0x44, 0x2d, 0x11, 0x12, 0x10, 0xc3, 0x10, 0x07, 0x17, 0x28,
0x16, 0x35, 0xe0, 0x02, 0xff, 0x34, 0x02, 0x1b, 0x21, 0x4b, 0x24, 0x1e, 0x31, 0xd5, 0xe8, 0x22,
0x25, 0x95, 0x15, 0xe7, 0xe0, 0xf9, 0xfe, 0x4a, 0xf7, 0xec, 0x43, 0x04, 0x3b, 0x30, 0xef, 0x2d,
0x63, 0xc2, 0x44, 0xfc, 0xce, 0x38, 0x4e, 0x19, 0x21, 0x18, 0x1c, 0xd3, 0xf4, 0x26, 0x4a, 0x3b,
0x24, 0x2c, 0x14, 0xf4, 0x04, 0x02, 0x27, 0x03, 0x3e, 0x3c, 0x09, 0xed, 0x11, 0x11, 0xf9, 0xf7,
0x06, 0xa1, 0xfe, 0xf9, 0xcf, 0x12, 0x04, 0x2d, 0xf6, 0xeb, 0xce, 0x0e, 0x3f, 0x13, 0x19, 0x48,
0x7f, 0x96, 0x4b, 0xdc, 0xf7, 0x27, 0x3d, 0xff, 0x15, 0xe0, 0xf8, 0xf7, 0x03, 0x0d, 0x2e, 0x49,
0x31, 0x4d, 0x05, 0xf5, 0x0b, 0xf8, 0x10, 0x32, 0x19, 0x40, 0x2a, 0x21, 0x1b, 0xee, 0x24, 0xcd,
0x2c, 0xdb, 0xe6, 0x55, 0x11, 0x9e, 0x20, 0xb3, 0xf4, 0x02, 0xa2, 0x0e, 0x01, 0xe2, 0x2f, 0xb0,
0x15, 0x04, 0x11, 0x70, 0xc7, 0x0a, 0x15, 0xd4, 0x25, 0xfa, 0xfa, 0x07, 0x35, 0xef, 0x14, 0xda,
0x25, 0xa5, 0x14, 0x19, 0xb3, 0x32, 0xfe, 0x18, 0x27, 0xa2, 0x1c, 0x28, 0x24, 0xd0, 0x23, 0xe1,
0x2f, 0xe3, 0x06, 0x3c, 0x1d, 0xe4, 0x0e, 0xe2, 0x00, 0x13, 0xc2, 0xf8, 0x15, 0xf4, 0xfc, 0xf3,
0x34, 0x2d, 0x25, 0x6b, 0xb7, 0xfb, 0x0a, 0x21, 0x16, 0xd3, 0x0c, 0xf2, 0x13, 0x08, 0x15, 0xce,
0x40, 0xca, 0xf6, 0x12, 0xca, 0xe9, 0x03, 0x3c, 0x2b, 0xa4, 0x01, 0xf8, 0x36, 0xe4, 0x0f, 0x21,
0x1a, 0x17, 0x43, 0x50, 0xe9, 0x32, 0x19, 0x63, 0x18, 0x25, 0x0e, 0x3c, 0x0e, 0xe8, 0x15, 0xe1,
0x12, 0x30, 0x3f, 0x2a, 0xde, 0x1d, 0x1b, 0x7f, 0x5e, 0x00, 0x4c, 0x15, 0x12, 0x3f, 0xfa, 0xbf,
0x1b, 0xc5, 0x27, 0x02, 0xda, 0x31, 0x0f, 0x29, 0xf1, 0xb7, 0x29, 0x1a, 0x2b, 0xf7, 0xf8, 0x03,
0x0a, 0xcc, 0x5a, 0xa0, 0x0c, 0xd5, 0x01, 0x26, 0x32, 0x33, 0x61, 0x3e, 0x23, 0xff, 0x08, 0x0e,
0x46, 0xd8, 0x2b, 0xd4, 0x30, 0xee, 0x45, 0x3f, 0x0a, 0x19, 0x31, 0x2b, 0xe8, 0xd4, 0x44, 0x27,
0xea, 0x3c, 0xf1, 0x30, 0x28, 0xf8, 0x2a, 0x2a, 0x24, 0x2a, 0x14, 0x4b, 0x21, 0x17, 0x13, 0x0d,
0x5a, 0xc5, 0x43, 0x9f, 0x29, 0x02, 0x40, 0x50, 0x17, 0x31, 0x57, 0x1b, 0x3b, 0xf2, 0x17, 0x19,
0x35, 0x09, 0x7f, 0xe8, 0xfd, 0x0e, 0x15, 0x34, 0x1d, 0x04, 0x32, 0x1b, 0x1b, 0xd5, 0x0c, 0x33,
0x41, 0x13, 0x0a, 0x1c, 0x45, 0xd0, 0x32, 0x09, 0xf4, 0x32, 0xfe, 0x2f, 0x2c, 0xd5, 0xf5, 0xdf,
0x72, 0x8f, 0x59, 0xc9, 0xef, 0xf0, 0x42, 0x45, 0x33, 0xfe, 0x2e, 0x52, 0x34, 0xed, 0x15, 0x10,
0x48, 0xdb, 0x52, 0xe5, 0x0a, 0x17, 0x2e, 0x2e, 0x1e, 0xef, 0x2d, 0x08, 0x11, 0xcd, 0x35, 0x03,
0x2d, 0x1c, 0x0b, 0xfd, 0x35, 0xea, 0x0d, 0x0a, 0x11, 0x28, 0x46, 0x2d, 0x35, 0x18, 0xf8, 0x19,
0xf8, 0x55, 0x5e, 0x5c, 0xe0, 0x66, 0x18, 0x3c, 0xff, 0xf3, 0x40, 0x44, 0x29, 0x5a, 0xe8, 0xdd,
0x09, 0x0c, 0xf2, 0xf1, 0x13, 0x38, 0x29, 0xdf, 0x06, 0x03, 0xf2, 0xde, 0x05, 0xf7, 0x03, 0x83,
0x3f, 0xaf, 0x10, 0xe7, 0xa3, 0xcf, 0xfc, 0xd7, 0x07, 0xc4, 0x10, 0x09, 0xf0, 0x13, 0x1a, 0x28,
0xca, 0x48, 0x08, 0x51, 0xcd, 0x2e, 0x31, 0x58, 0xed, 0x46, 0xfb, 0x03, 0x23, 0x2f, 0xda, 0x33,
0x32, 0xf6, 0x15, 0x12, 0x2d, 0x63, 0xfd, 0x0b, 0xec, 0xca, 0xc7, 0xce, 0x44, 0x26, 0x0d, 0xa4,
0x10, 0x81, 0xf5, 0xe4, 0x98, 0xfd, 0xcd, 0xf4, 0x56, 0xa1, 0xe7, 0x09, 0xe2, 0x29, 0x8e, 0xfd,
0xc2, 0x26, 0xcd, 0xd5, 0x06, 0x42, 0xd4, 0x1b, 0x0a, 0x45, 0x3e, 0xf7, 0x3b, 0x39, 0x2b, 0x46,
0x00, 0x11, 0x59, 0x5e, 0xdc, 0x31, 0x19, 0x49, 0x08, 0x5d, 0x13, 0x06, 0xf8, 0xf4, 0x2f, 0x9c,
0x15, 0xe9, 0x37, 0xf0, 0x0a, 0xe9, 0x38, 0x0c, 0x19, 0xa3, 0x1e, 0xeb, 0x1d, 0x01, 0x30, 0x8e,
0x5e, 0x1f, 0x3e, 0x0c, 0x26, 0xda, 0x24, 0x2a, 0x0d, 0xba, 0xe5, 0x34, 0x0b, 0xd1, 0x4c, 0xba,
0x31, 0xf6, 0x0f, 0x4a, 0xdf, 0xd6, 0x26, 0x27, 0x01, 0xda, 0xe3, 0x3a, 0xfe, 0xa7, 0x08, 0xb1,
0x30, 0xb4, 0x40, 0x23, 0xb7, 0x00, 0x1c, 0x03, 0x19, 0xc9, 0x2e, 0x24, 0x17, 0x24, 0x42, 0xc3,
0x3e, 0x72, 0x47, 0x39, 0x46, 0xc5, 0x1e, 0x06, 0x3d, 0xf2, 0xfd, 0x0d, 0x06, 0xce, 0x42, 0xc6,
0xf2, 0x29, 0x16, 0x25, 0xfb, 0xfd, 0x1e, 0x33, 0x14, 0xed, 0x37, 0x3a, 0x0a, 0xe7, 0x2a, 0xde,
0x22, 0xd4, 0x2e, 0x27, 0x04, 0x21, 0x16, 0x09, 0x15, 0x96, 0x1f, 0x22, 0x20, 0x3e, 0x3b, 0x18,
0x14, 0x7f, 0x0f, 0xe3, 0x56, 0xd9, 0x19, 0x37, 0x41, 0x23, 0x44, 0x22, 0xf8, 0xe8, 0x27, 0x19,
0xf6, 0x2d, 0x4c, 0x11, 0x2d, 0xed, 0x0b, 0x49, 0x2d, 0xdf, 0x31, 0x47, 0xf8, 0xfa, 0x02, 0xd1,
0xfd, 0xce, 0x32, 0x22, 0x33, 0x37, 0x1e, 0x42, 0x16, 0xb7, 0x27, 0x47, 0xd7, 0x00, 0xfa, 0x05,
0xc9, 0x1c, 0x81, 0x06, 0x18, 0x27, 0xfc, 0xb7, 0xdb, 0xe6, 0xb1, 0x12, 0xf8, 0x05, 0xdc, 0xeb,
0x05, 0x06, 0xd6, 0x18, 0xf6, 0x2c, 0xf0, 0xf2, 0xc6, 0xf4, 0xf8, 0x03, 0x05, 0xc0, 0xfd, 0xe0,
0x13, 0xf3, 0xeb, 0x0b, 0xee, 0xc8, 0xfa, 0x03, 0x00, 0x1a, 0x00, 0xe3, 0xdf, 0x01, 0x0d, 0xe3,
0xf1, 0x19, 0xb5, 0x0d, 0xfd, 0x1f, 0xf9, 0xb1, 0xdd, 0xf6, 0xc9, 0x07, 0x07, 0x0f, 0xd0, 0xf1,
0xef, 0xea, 0xe4, 0x09, 0xe0, 0x30, 0x00, 0xee, 0xe5, 0x03, 0x01, 0xf3, 0x08, 0xd2, 0x1a, 0x0b,
0x0a, 0xe4, 0x08, 0xfd, 0xf8, 0x05, 0xd3, 0xe6, 0xdd, 0x15, 0xfe, 0xe0, 0xe4, 0x1f, 0xfe, 0x05,
0xfc, 0x15, 0xb3, 0x18, 0x2a, 0x2a, 0xe9, 0xc6, 0xdc, 0x06, 0xce, 0xf7, 0x04, 0xe8, 0xdc, 0xf2,
0xea, 0xfc, 0xc5, 0x1c, 0x20, 0x08, 0xe5, 0xd7, 0xd8, 0x17, 0xfd, 0xfd, 0x00, 0xaf, 0xe6, 0xee,
0xfb, 0xf9, 0x01, 0xef, 0x09, 0xc1, 0x09, 0x0f, 0x04, 0x02, 0x1c, 0x04, 0xc6, 0xf7, 0xf4, 0x00,
0xd4, 0x11, 0x89, 0x12, 0x07, 0x1a, 0xda, 0x81, 0xc5, 0xf4, 0x8d, 0xcb, 0xe4, 0xfd, 0x0c, 0xfe,
0xe5, 0x15, 0xcf, 0x06, 0xfa, 0xe4, 0xda, 0xc3, 0xd4, 0x06, 0xd0, 0xed, 0xf6, 0xdf, 0xe4, 0x07,
0xff, 0xed, 0x01, 0xe5, 0xff, 0xeb, 0xe2, 0xf6, 0xfa, 0x0a, 0xf2, 0xef, 0xcf, 0x02, 0xf8, 0x0d,
0xe6, 0x3a, 0xa4, 0x15, 0xff, 0x25, 0xcb, 0xb0, 0xce, 0xf7, 0xae, 0xcc, 0xe6, 0xf1, 0x0c, 0x01,
0xe4, 0x26, 0xdf, 0x0e, 0x17, 0x00, 0xd0, 0xca, 0xea, 0xef, 0xde, 0xfc, 0x05, 0x16, 0xee, 0x00,
0xfc, 0x1a, 0xf0, 0x01, 0x05, 0xeb, 0xdd, 0xde, 0xfb, 0xed, 0xe9, 0xfc, 0xbb, 0x0a, 0x07, 0x08,
0xc1, 0x2f, 0xa7, 0xfc, 0xf3, 0x21, 0xcb, 0xa1, 0xd8, 0x08, 0xce, 0xe3, 0xee, 0xf3, 0xfa, 0x0c,
0xdc, 0x13, 0xc8, 0x02, 0x11, 0x00, 0xdb, 0xe4, 0xe6, 0x1d, 0xf5, 0xf4, 0xf6, 0x06, 0xf5, 0xfc,
0xfd, 0x0f, 0xfc, 0xef, 0x0b, 0xfa, 0xfd, 0xf6, 0xf3, 0xe8, 0xe8, 0x07, 0xf4, 0xce, 0x0a, 0xa9,
0x42, 0xf9, 0x05, 0x1b, 0x50, 0xea, 0x1a, 0x95, 0x03, 0xef, 0xd2, 0xe1, 0xe1, 0x34, 0x15, 0x1c,
0x02, 0x27, 0x32, 0xf9, 0xf6, 0x0d, 0xe9, 0x0e, 0x1b, 0x3f, 0x1f, 0xb2, 0x04, 0x4f, 0xec, 0x45,
0x2e, 0x06, 0xf2, 0xea, 0x17, 0x6b, 0xee, 0x02, 0x1a, 0x13, 0xcc, 0xd8, 0xf2, 0x0d, 0x4e, 0xc0,
0x32, 0xea, 0xe0, 0x34, 0x44, 0xdd, 0x06, 0x81, 0x1d, 0xdf, 0xb5, 0xf5, 0x20, 0x19, 0x0f, 0xd8,
0x22, 0xc3, 0x20, 0x18, 0xb4, 0xf0, 0x1b, 0xe2, 0x22, 0xdc, 0xda, 0xd3, 0xf0, 0x45, 0x22, 0x69,
0x0a, 0x2b, 0x10, 0xbc, 0x2e, 0x28, 0x17, 0xc0, 0x15, 0x39, 0x08, 0xaf, 0xf1, 0xf5, 0x19, 0xd6,
0x23, 0x29, 0xef, 0x66, 0x57, 0x16, 0x10, 0x9a, 0x1a, 0x0f, 0xde, 0xfb, 0x09, 0xf6, 0x1b, 0xb1,
0x1c, 0x9f, 0x1f, 0xf2, 0xb7, 0xb9, 0x19, 0xe4, 0xf4, 0xad, 0x09, 0xb8, 0x21, 0x49, 0x58, 0x34,
0x31, 0x26, 0x37, 0x0a, 0x14, 0x34, 0xd7, 0xc4, 0xf1, 0xc7, 0x2c, 0xf0, 0x1b, 0x50, 0x54, 0x1d,
0x14, 0x2f, 0x07, 0x0e, 0x7f, 0x29, 0x20, 0xfd, 0x24, 0x18, 0x15, 0x42, 0xeb, 0x1f, 0x0f, 0x3d,
0xdb, 0x27, 0xfb, 0x02, 0x5d, 0x04, 0xcb, 0x04, 0x20, 0x4e, 0x3f, 0x2b, 0xd9, 0xfd, 0xfd, 0x10,
0xf1, 0xfb, 0xfd, 0x2a, 0xc2, 0x22, 0xf0, 0xf8, 0xf5, 0x5f, 0x30, 0xf7, 0xf7, 0x53, 0x10, 0x17,
0xe0, 0xf8, 0x01, 0x31, 0x50, 0x0e, 0x08, 0xed, 0x1e, 0xe3, 0x05, 0x32, 0xe2, 0x07, 0xfd, 0x30,
0x01, 0x48, 0xd3, 0x45, 0x51, 0x2e, 0xdf, 0x13, 0xff, 0x3a, 0x33, 0x16, 0xcb, 0xde, 0xef, 0x16,
0x20, 0x4e, 0x2e, 0x1d, 0xee, 0x18, 0xbd, 0x20, 0x15, 0x2c, 0xee, 0xe4, 0xe5, 0x12, 0x37, 0x24,
0x2c, 0x27, 0xd5, 0x12, 0x4f, 0x05, 0x03, 0xec, 0xf7, 0xe6, 0xdb, 0x16, 0xc2, 0x71, 0x59, 0x14,
0xe6, 0x46, 0xc5, 0x1b, 0x5a, 0x0d, 0xc3, 0xeb, 0x30, 0x1f, 0x0e, 0x3a, 0x0e, 0x05, 0xe5, 0x2a,
0xe2, 0x38, 0x1d, 0xf1, 0x0c, 0x09, 0xe3, 0x0d, 0x0d, 0x41, 0x15, 0xc7, 0x1c, 0x43, 0xef, 0xfe,
0x0c, 0xf2, 0x03, 0x14, 0xab, 0x3c, 0x05, 0x42, 0xe8, 0x9d, 0xd9, 0xfd, 0xf4, 0xf1, 0x92, 0xb1,
0xf9, 0x07, 0x0f, 0x22, 0xcc, 0xdd, 0x1f, 0x10, 0xe4, 0xca, 0x00, 0xd7, 0x36, 0x86, 0xd3, 0xbf,
0x07, 0xd9, 0x00, 0xee, 0xbf, 0xb3, 0xda, 0xe9, 0x0e, 0xfd, 0x17, 0xfd, 0xfe, 0xfc, 0x0d, 0x06,
0xf1, 0xfd, 0x0e, 0xf2, 0xad, 0x3c, 0xfc, 0xfa, 0xe3, 0xc8, 0xc6, 0x17, 0x17, 0xeb, 0xfc, 0xc8,
0x0d, 0xde, 0xea, 0x03, 0xad, 0x00, 0xe4, 0x0e, 0xdc, 0xdb, 0x00, 0xf3, 0x2a, 0xb9, 0xce, 0xca,
0x0f, 0xbe, 0x01, 0xf1, 0xbb, 0xdd, 0xff, 0xe6, 0xd7, 0xbf, 0x17, 0x0c, 0x0f, 0x3e, 0x12, 0xe1,
0x25, 0xf6, 0x0a, 0x0e, 0xbe, 0x23, 0x19, 0xe5, 0xbd, 0xa3, 0xa8, 0xdc, 0xe8, 0xf1, 0xf8, 0xca,
0xf7, 0xc2, 0x07, 0x36, 0xab, 0xfe, 0xc8, 0xe3, 0xed, 0xa5, 0x17, 0x12, 0xf5, 0x81, 0xd9, 0xd6,
0xf0, 0xec, 0x23, 0x21, 0xd5, 0xbc, 0xe5, 0x1b, 0x1c, 0xbf, 0x0f, 0x07, 0x41, 0x03, 0xf9, 0xfd,
0x2e, 0x9d, 0x42, 0x10, 0x2d, 0xd4, 0x25, 0x15, 0xf7, 0xfa, 0x2e, 0x2e, 0x19, 0xdd, 0x30, 0x12,
0x3e, 0x0b, 0x54, 0x2d, 0xc3, 0xfa, 0x22, 0x5a, 0x3b, 0x37, 0x58, 0xdd, 0xf5, 0x6c, 0x21, 0x2a,
0xec, 0x25, 0xe7, 0xe8, 0x22, 0x27, 0xfa, 0xeb, 0x00, 0x26, 0xec, 0xe6, 0x1f, 0x0d, 0x3c, 0x02,
0x27, 0xbb, 0x25, 0x2e, 0x0d, 0xe5, 0x19, 0xf9, 0xef, 0xf2, 0xe8, 0xf4, 0x50, 0xcd, 0x31, 0x17,
0x4d, 0xd0, 0x38, 0x6a, 0xc9, 0xf5, 0x2e, 0x28, 0x41, 0x1a, 0x5c, 0xf2, 0x1f, 0x63, 0x4a, 0x5a,
0x0f, 0x3e, 0x24, 0xeb, 0x51, 0x28, 0x0a, 0xd3, 0x0f, 0x3f, 0xe1, 0xfa, 0x06, 0x03, 0x2c, 0xf7,
0x2d, 0xd0, 0x24, 0x2b, 0x0e, 0x14, 0xec, 0xb0, 0xe4, 0xf0, 0x9a, 0xd2, 0x28, 0xcf, 0x16, 0xd1,
0x47, 0xac, 0x54, 0x7f, 0xc3, 0xde, 0x32, 0x11, 0x05, 0x0e, 0x0e, 0xec, 0x3b, 0x63, 0x5d, 0x2d,
0x26, 0x08, 0x09, 0xc0, 0x39, 0x20, 0x1f, 0x01, 0x1d, 0x2e, 0xf3, 0x0d, 0x03, 0x45, 0x02, 0xff,
0xea, 0xbf, 0xf1, 0x06, 0x35, 0x81, 0xfc, 0xe3, 0xff, 0x02, 0x3d, 0xd2, 0x17, 0xfc, 0x46, 0xfd,
0x0a, 0x09, 0x0c, 0x60, 0xc0, 0x26, 0x0e, 0x0c, 0x22, 0x1e, 0xec, 0xca, 0xf1, 0x29, 0x17, 0x07,
0xef, 0xc4, 0xef, 0xd9, 0x2b, 0x0f, 0x04, 0xf2, 0x37, 0xae, 0x14, 0xef, 0x0e, 0x15, 0x0a, 0x18,
0x1e, 0xb1, 0x06, 0x26, 0x0e, 0xf1, 0x1d, 0xc4, 0xf3, 0xf5, 0x02, 0xd1, 0x30, 0xe2, 0x32, 0xf1,
0x0c, 0x38, 0x1b, 0x72, 0xc5, 0x11, 0xf2, 0x0c, 0x43, 0x1f, 0x13, 0xf9, 0x01, 0x43, 0xf5, 0xe7,
0x2f, 0xce, 0xf3, 0xe5, 0x02, 0x08, 0x16, 0x1d, 0xfa, 0xcb, 0xf3, 0xe9, 0x27, 0xf4, 0x31, 0x10,
0x1a, 0xb4, 0x29, 0x4e, 0x01, 0xf0, 0x25, 0xc3, 0x1f, 0x09, 0xc2, 0x28, 0x2f, 0xfe, 0x3d, 0xdf,
0x29, 0x49, 0x2e, 0x0e, 0xcf, 0xf8, 0xff, 0x24, 0x29, 0x36, 0x36, 0xfb, 0xdb, 0x5a, 0xf7, 0x03,
0x1b, 0x02, 0x18, 0xd3, 0x2d, 0x42, 0x2b, 0xd8, 0x21, 0xf3, 0xdf, 0xf8, 0xe3, 0x42, 0x38, 0xe6,
0xfa, 0x3c, 0x81, 0x3a, 0x4b, 0x54, 0xe7, 0xa5, 0xe7, 0x24, 0xb3, 0x0d, 0x06, 0x1d, 0x0f, 0x18,
0xd6, 0x0d, 0xf6, 0x05, 0xeb, 0x4d, 0xe2, 0xfe, 0xf4, 0x24, 0xf0, 0x25, 0x07, 0xf0, 0xdb, 0xe9,
0xd4, 0xd3, 0xe6, 0x17, 0xeb, 0xef, 0xd1, 0xf7, 0x0f, 0xf4, 0xe3, 0xe8, 0xf7, 0x2c, 0x46, 0x09,
0xf8, 0x3d, 0xa6, 0xf4, 0x30, 0x12, 0xcd, 0xd4, 0xf4, 0xe7, 0xd7, 0x19, 0xd7, 0x19, 0xf2, 0x32,
0xdc, 0x1e, 0xe7, 0x10, 0x15, 0x42, 0xff, 0xe2, 0xea, 0xec, 0x05, 0x20, 0xe0, 0xee, 0x10, 0xe3,
0x17, 0xe9, 0x05, 0xfa, 0xe8, 0xf2, 0xfc, 0x1a, 0xe3, 0xf8, 0xfb, 0xf9, 0xfe, 0x47, 0x2d, 0x18,
0xe7, 0x37, 0x9f, 0x2d, 0x2c, 0x2a, 0xe6, 0xf8, 0x09, 0x0b, 0xe9, 0x0b, 0xe9, 0x24, 0x0e, 0x17,
0x18, 0x35, 0xea, 0x12, 0x21, 0x2f, 0xec, 0x08, 0xd7, 0xd7, 0x09, 0xf6, 0xfe, 0xc2, 0xc5, 0x18,
0xea, 0x16, 0xf9, 0x06, 0xce, 0xeb, 0xf4, 0xf5, 0x04, 0x05, 0x13, 0x03, 0x01, 0x7f, 0x1b, 0x18,
0xf7, 0x5f, 0x02, 0x05, 0x6f, 0x40, 0xe5, 0xe9, 0x0a, 0x02, 0xf4, 0x2a, 0xd9, 0x21, 0x03, 0x0d,
0xf2, 0x1a, 0xfa, 0xfa, 0xbb, 0x3e, 0x00, 0x40, 0xe7, 0x0b, 0x0f, 0x11, 0x1b, 0xb2, 0xcd, 0xeb,
0xfb, 0xcf, 0xfd, 0x20, 0xd9, 0xf1, 0xd5, 0x0b, 0xec, 0x03, 0x0c, 0x07, 0xfe, 0x67, 0x10, 0x10,
0xd9, 0x3a, 0xfd, 0x07, 0x40, 0x43, 0xf1, 0x09, 0x0e, 0xe9, 0x04, 0x49, 0xe9, 0x26, 0x07, 0x15,
0xdf, 0xed, 0x06, 0x0b, 0xee, 0x34, 0x09, 0x03, 0x02, 0xef, 0x0e, 0x07, 0x0d, 0xd2, 0xef, 0x01,
0x12, 0xc9, 0xf8, 0xee, 0xe8, 0xf0, 0xe7, 0xf3, 0x1b, 0xf0, 0x03, 0x03, 0xf0, 0x63, 0x38, 0x1e,
0xef, 0x22, 0xdd, 0x06, 0x6c, 0x17, 0x14, 0xe7, 0x05, 0x11, 0xf5, 0x2e, 0xf7, 0x41, 0xd4, 0x22,
0xf8, 0x0b, 0x10, 0x30, 0xfe, 0x3a, 0xf0, 0x20, 0xfe, 0xcf, 0x14, 0x0b, 0xf2, 0x93, 0xeb, 0xf4,
0xf5, 0x0a, 0xfb, 0x16, 0xd1, 0xef, 0xf9, 0x0b, 0x24, 0xfa, 0xee, 0x02, 0x22, 0x3e, 0xb4, 0x15,
0xe9, 0xab, 0x29, 0x19, 0x10, 0xfd, 0xeb, 0x3f, 0xf3, 0x11, 0x29, 0xdc, 0xfd, 0x3c, 0xf6, 0xe8,
0xff, 0x2b, 0x05, 0x2a, 0xe6, 0x40, 0x00, 0x0e, 0x0c, 0x31, 0xc9, 0xde, 0x1b, 0xfc, 0xff, 0x06,
0xd5, 0xfd, 0xeb, 0xff, 0xe8, 0x0e, 0x00, 0xf3, 0x1a, 0xf2, 0xb5, 0xeb, 0x03, 0x13, 0xc6, 0x19,
0x20, 0x05, 0x0f, 0x31, 0xfb, 0xf1, 0x24, 0x34, 0xf1, 0x21, 0x11, 0x08, 0xf4, 0xd3, 0x09, 0xf3,
0x16, 0x0e, 0x0c, 0x2f, 0xde, 0x1e, 0xd9, 0x1a, 0x35, 0x43, 0x03, 0x07, 0xf9, 0x34, 0xca, 0x0b,
0x0c, 0x09, 0xe8, 0x92, 0x07, 0xfd, 0xf3, 0xf0, 0xdc, 0xf3, 0xc2, 0xcb, 0x12, 0x23, 0x13, 0x2a,
0x0c, 0xe4, 0x20, 0x7f, 0xec, 0xd5, 0x14, 0x01, 0x2c, 0xe8, 0xd1, 0xea, 0xfa, 0xed, 0x1a, 0xeb,
0x1a, 0x37, 0x2a, 0xc8, 0xe3, 0xd9, 0xf1, 0x2a, 0x3b, 0x35, 0x4a, 0xdd, 0x17, 0x20, 0xd3, 0x1d,
0xff, 0x21, 0xd1, 0xc8, 0x25, 0x3a, 0x1a, 0xdd, 0xf1, 0xf0, 0x0e, 0xc6, 0xd8, 0x47, 0x05, 0x31,
0x05, 0x17, 0x00, 0x9e, 0x11, 0x81, 0xee, 0x26, 0x11, 0x20, 0x1c, 0x0c, 0xfb, 0x19, 0xf1, 0x33,
0xfb, 0x12, 0x28, 0xce, 0xe6, 0x1e, 0x02, 0x2a, 0xeb, 0x0c, 0x2a, 0xe9, 0xfd, 0xfc, 0x04, 0xdf,
0x07, 0xca, 0xfe, 0x1c, 0x10, 0xe8, 0xdf, 0x03, 0xef, 0xef, 0xed, 0xfb, 0xd4, 0x52, 0xe1, 0x38,
0xc0, 0x07, 0xdb, 0xcc, 0x41, 0x93, 0xc9, 0x06, 0xf7, 0x17, 0xf4, 0xf1, 0xdc, 0x1e, 0xe2, 0x22,
0xf0, 0x23, 0x1a, 0xdb, 0xe9, 0xf3, 0x00, 0x37, 0xfd, 0x06, 0x02, 0xf0, 0xd8, 0xed, 0x0a, 0x0f,
0xfd, 0xee, 0xe9, 0x1a, 0x1e, 0xfd, 0x0f, 0x04, 0xf6, 0xdf, 0x04, 0xea, 0xcb, 0x56, 0xd2, 0x12,
0xae, 0xf4, 0xc4, 0xba, 0x16, 0xa6, 0xc2, 0xb6, 0xbe, 0x03, 0xf1, 0xed, 0xe8, 0x10, 0xcb, 0x2a,
0xcc, 0x18, 0xe1, 0xd1, 0xf1, 0xf8, 0xe2, 0x07, 0xe3, 0xff, 0x17, 0xc7, 0xd9, 0xe2, 0x0a, 0xfb,
0xef, 0xdc, 0xfb, 0x16, 0x0e, 0x0f, 0xf2, 0xf0, 0xe9, 0xe1, 0xe6, 0xe4, 0x2f, 0x02, 0x15, 0xba,
0x04, 0xd9, 0x06, 0x54, 0x38, 0xca, 0x09, 0xa7, 0xf1, 0xed, 0xa4, 0xf1, 0x18, 0xdf, 0x24, 0xca,
0x24, 0x0b, 0x12, 0x76, 0xcf, 0x3b, 0xea, 0xef, 0x1e, 0xb5, 0xce, 0x0b, 0x1a, 0xd5, 0x2c, 0xb3,
0x15, 0xb1, 0x28, 0x08, 0xc6, 0xf1, 0xfe, 0x21, 0x3d, 0x9e, 0xf4, 0x43, 0x01, 0xd0, 0x38, 0x16,
0x14, 0xe2, 0x0b, 0x3b, 0x29, 0xc9, 0x30, 0xe2, 0xf3, 0x0c, 0xbd, 0x2e, 0x37, 0xf6, 0x21, 0xe0,
0x3d, 0x1c, 0x42, 0x57, 0xe8, 0x12, 0x00, 0x0c, 0x46, 0xf9, 0xef, 0x1b, 0x42, 0xd3, 0x18, 0x94,
0x1a, 0x81, 0x19, 0x09, 0xdf, 0x25, 0x02, 0x30, 0x1f, 0xe2, 0xe2, 0x1c, 0x37, 0xf6, 0x2e, 0x14,
0x21, 0x0b, 0x59, 0x2c, 0xcb, 0xd2, 0x1c, 0x2c, 0x4e, 0xd6, 0xe7, 0x1b, 0x40, 0x20, 0x10, 0x01,
0x38, 0x48, 0x59, 0x44, 0xe8, 0xdd, 0x1c, 0x62, 0x76, 0xfc, 0x3f, 0x4f, 0x1d, 0x4a, 0x23, 0xca,
0x15, 0xd2, 0x33, 0x0c, 0x20, 0x1f, 0x07, 0x04, 0x1c, 0xd0, 0xce, 0x0e, 0x35, 0xd1, 0x50, 0xb8,
0x40, 0xf2, 0xfd, 0x76, 0x6f, 0xc1, 0x00, 0xe4, 0x2a, 0xb0, 0xbc, 0x06, 0x06, 0xbc, 0x34, 0xc7,
0xff, 0xf5, 0xf4, 0x47, 0xea, 0xc6, 0x0f, 0x11, 0xed, 0xc5, 0xe5, 0x1a, 0x2c, 0xba, 0x0e, 0xaf,
0x29, 0xa5, 0x3c, 0x45, 0xcc, 0x42, 0x1c, 0x22, 0x29, 0xbe, 0x32, 0x12, 0x34, 0x08, 0x3a, 0x0f,
0x3e, 0x37, 0x22, 0x22, 0x2a, 0xdd, 0x16, 0x41, 0xfc, 0x02, 0xd1, 0x10, 0x2c, 0xd2, 0x4c, 0xa7,
0x1a, 0xef, 0x22, 0x68, 0x04, 0xec, 0xfb, 0x46, 0x31, 0xdb, 0x09, 0x3e, 0x41, 0xf9, 0x1f, 0xd2,
0x2e, 0x95, 0x1d, 0x39, 0xd3, 0xf3, 0x14, 0x44, 0xfc, 0xd3, 0x3c, 0x25, 0x41, 0xfd, 0x1b, 0x1d,
0x2a, 0x50, 0x3c, 0x3b, 0x50, 0xfc, 0x46, 0x35, 0x12, 0x24, 0x39, 0x60, 0x18, 0xf1, 0x1e, 0x00,
0x2e, 0x2f, 0x40, 0x69, 0x00, 0xcd, 0x2a, 0x47, 0x52, 0x13, 0x7f, 0x31, 0x52, 0x03, 0x2d, 0xa9,
0xfa, 0xeb, 0x1e, 0x0e, 0xdc, 0x3b, 0x19, 0x32, 0x1f, 0x94, 0x2d, 0x3d, 0x2e, 0xfe, 0xff, 0xff,
0x04, 0x00, 0x00, 0x00, 0x10, 0x00, 0x00, 0x00, 0xf1, 0x39, 0xf4, 0x33, 0xf9, 0x80, 0x41, 0x3b,
0x25, 0xdb, 0x0b, 0x35, 0x04, 0xf0, 0x89, 0xf9, 0x4a, 0xfe, 0xff, 0xff, 0x04, 0x00, 0x00, 0x00,
0x10, 0x00, 0x00, 0x00, 0xe9, 0x22, 0x42, 0x1d, 0x03, 0x51, 0x7f, 0x42, 0x4f, 0x57, 0xfa, 0x73,
0x4d, 0x1c, 0x41, 0x18, 0x66, 0xfe, 0xff, 0xff, 0x04, 0x00, 0x00, 0x00, 0x40, 0x00, 0x00, 0x00,
0x88, 0x01, 0x00, 0x00, 0x03, 0x00, 0x00, 0x00, 0x15, 0x03, 0x00, 0x00, 0x1b, 0x00, 0x00, 0x00,
0x59, 0x00, 0x00, 0x00, 0xda, 0x11, 0x00, 0x00, 0x65, 0xe5, 0xff, 0xff, 0x74, 0xfd, 0xff, 0xff,
0x0c, 0x01, 0x00, 0x00, 0x58, 0x06, 0x00, 0x00, 0x42, 0x00, 0x00, 0x00, 0xc9, 0xeb, 0xff, 0xff,
0xb1, 0xff, 0xff, 0xff, 0x0b, 0x0a, 0x00, 0x00, 0xf1, 0x0a, 0x00, 0x00, 0x1c, 0x01, 0x00, 0x00,
0xb2, 0xfe, 0xff, 0xff, 0x04, 0x00, 0x00, 0x00, 0x90, 0x00, 0x00, 0x00, 0x86, 0xe1, 0xe2, 0x81,
0xce, 0xc4, 0xd0, 0xd3, 0xef, 0x41, 0x0f, 0x1a, 0x7f, 0xf6, 0xfd, 0x5a, 0x03, 0x42, 0xfa, 0x3e,
0xcb, 0xf9, 0x7f, 0xbc, 0x97, 0x6d, 0xe7, 0x7f, 0x73, 0x43, 0x3d, 0x4a, 0x34, 0x58, 0x3b, 0x79,
0x93, 0x44, 0x09, 0xb6, 0xa6, 0xc0, 0x81, 0xf8, 0xbd, 0x17, 0x7f, 0x89, 0x5f, 0x29, 0xa5, 0x39,
0x07, 0xb2, 0x9e, 0xbc, 0xe4, 0xb3, 0x05, 0xf0, 0x81, 0xcb, 0x28, 0x09, 0x58, 0x81, 0x08, 0x1a,
0x93, 0xe9, 0x2e, 0xe9, 0x45, 0xe1, 0x54, 0x3f, 0x0a, 0x47, 0x1e, 0xeb, 0x7f, 0x57, 0xe5, 0xcb,
0x42, 0xfa, 0x81, 0x1e, 0x15, 0x99, 0xf4, 0xdd, 0xff, 0xfe, 0x81, 0xc2, 0x0a, 0x88, 0xa6, 0x8e,
0xe2, 0xf3, 0x81, 0x9d, 0x49, 0x0c, 0xb6, 0x4a, 0xe0, 0x7f, 0xfd, 0xd2, 0xea, 0x14, 0xdb, 0x0b,
0x3f, 0x5a, 0x48, 0xd2, 0x02, 0x7f, 0xf9, 0x67, 0x74, 0x14, 0xf8, 0xf8, 0x7f, 0xac, 0x13, 0x62,
0xe9, 0x3f, 0xc9, 0xf0, 0x81, 0x7e, 0x14, 0x0d, 0x5b, 0x84, 0x8d, 0x55, 0x4e, 0xff, 0xff, 0xff,
0x04, 0x00, 0x00, 0x00, 0x08, 0x00, 0x00, 0x00, 0x01, 0x00, 0x00, 0x00, 0x02, 0x00, 0x00, 0x00,
0x5c, 0xee, 0xff, 0xff, 0x60, 0xee, 0xff, 0xff, 0x0f, 0x00, 0x00, 0x00, 0x4d, 0x4c, 0x49, 0x52,
0x20, 0x43, 0x6f, 0x6e, 0x76, 0x65, 0x72, 0x74, 0x65, 0x64, 0x2e, 0x00, 0x01, 0x00, 0x00, 0x00,
0x14, 0x00, 0x00, 0x00, 0x00, 0x00, 0x0e, 0x00, 0x18, 0x00, 0x14, 0x00, 0x10, 0x00, 0x0c, 0x00,
0x08, 0x00, 0x04, 0x00, 0x0e, 0x00, 0x00, 0x00, 0x14, 0x00, 0x00, 0x00, 0x1c, 0x00, 0x00, 0x00,
0xb4, 0x02, 0x00, 0x00, 0xb8, 0x02, 0x00, 0x00, 0xbc, 0x02, 0x00, 0x00, 0x04, 0x00, 0x00, 0x00,
0x6d, 0x61, 0x69, 0x6e, 0x00, 0x00, 0x00, 0x00, 0x0a, 0x00, 0x00, 0x00, 0x50, 0x02, 0x00, 0x00,
0xec, 0x01, 0x00, 0x00, 0xa8, 0x01, 0x00, 0x00, 0x74, 0x01, 0x00, 0x00, 0x34, 0x01, 0x00, 0x00,
0xf0, 0x00, 0x00, 0x00, 0xbc, 0x00, 0x00, 0x00, 0x78, 0x00, 0x00, 0x00, 0x40, 0x00, 0x00, 0x00,
0x04, 0x00, 0x00, 0x00, 0x46, 0xfe, 0xff, 0xff, 0x1c, 0x00, 0x00, 0x00, 0x00, 0x00, 0x00, 0x09,
0x1c, 0x00, 0x00, 0x00, 0x20, 0x00, 0x00, 0x00, 0x06, 0x00, 0x00, 0x00, 0x00, 0x00, 0x06, 0x00,
0x08, 0x00, 0x04, 0x00, 0x06, 0x00, 0x00, 0x00, 0x00, 0x00, 0x80, 0x3f, 0x01, 0x00, 0x00, 0x00,
0x15, 0x00, 0x00, 0x00, 0x01, 0x00, 0x00, 0x00, 0x14, 0x00, 0x00, 0x00, 0x7e, 0xfe, 0xff, 0xff,
0x14, 0x00, 0x00, 0x00, 0x00, 0x00, 0x00, 0x08, 0x10, 0x00, 0x00, 0x00, 0x14, 0x00, 0x00, 0x00,
0x05, 0x00, 0x00, 0x00, 0x30, 0xef, 0xff, 0xff, 0x01, 0x00, 0x00, 0x00, 0x14, 0x00, 0x00, 0x00,
0x03, 0x00, 0x00, 0x00, 0x13, 0x00, 0x00, 0x00, 0x0a, 0x00, 0x00, 0x00, 0x0b, 0x00, 0x00, 0x00,
0xb2, 0xfe, 0xff, 0xff, 0x1c, 0x00, 0x00, 0x00, 0x00, 0x00, 0x00, 0x08, 0x1c, 0x00, 0x00, 0x00,
0x20, 0x00, 0x00, 0x00, 0x05, 0x00, 0x00, 0x00, 0x00, 0x00, 0x06, 0x00, 0x08, 0x00, 0x07, 0x00,
0x06, 0x00, 0x00, 0x00, 0x00, 0x00, 0x00, 0x01, 0x01, 0x00, 0x00, 0x00, 0x13, 0x00, 0x00, 0x00,
0x03, 0x00, 0x00, 0x00, 0x12, 0x00, 0x00, 0x00, 0x08, 0x00, 0x00, 0x00, 0x09, 0x00, 0x00, 0x00,
0xf2, 0xfe, 0xff, 0xff, 0x14, 0x00, 0x00, 0x00, 0x00, 0x00, 0x00, 0x1b, 0x10, 0x00, 0x00, 0x00,
0x14, 0x00, 0x00, 0x00, 0x04, 0x00, 0x00, 0x00, 0xa4, 0xef, 0xff, 0xff, 0x01, 0x00, 0x00, 0x00,
0x12, 0x00, 0x00, 0x00, 0x02, 0x00, 0x00, 0x00, 0x11, 0x00, 0x00, 0x00, 0x01, 0x00, 0x00, 0x00,
0x22, 0xff, 0xff, 0xff, 0x14, 0x00, 0x00, 0x00, 0x00, 0x00, 0x00, 0x05, 0x24, 0x00, 0x00, 0x00,
0x28, 0x00, 0x00, 0x00, 0x01, 0x00, 0x00, 0x00, 0x12, 0xff, 0xff, 0xff, 0x03, 0x00, 0x00, 0x00,
0x01, 0x00, 0x00, 0x00, 0x03, 0x00, 0x00, 0x00, 0x01, 0x00, 0x00, 0x00, 0x00, 0x00, 0x00, 0x01,
0x01, 0x00, 0x00, 0x00, 0x11, 0x00, 0x00, 0x00, 0x01, 0x00, 0x00, 0x00, 0x10, 0x00, 0x00, 0x00,
0x02, 0xff, 0xff, 0xff, 0x10, 0x00, 0x00, 0x00, 0x00, 0x00, 0x00, 0x01, 0x18, 0x00, 0x00, 0x00,
0x1c, 0x00, 0x00, 0x00, 0xf4, 0xfe, 0xff, 0xff, 0x00, 0x00, 0x00, 0x01, 0x01, 0x00, 0x00, 0x00,
0x01, 0x00, 0x00, 0x00, 0x01, 0x00, 0x00, 0x00, 0x10, 0x00, 0x00, 0x00, 0x03, 0x00, 0x00, 0x00,
0x0f, 0x00, 0x00, 0x00, 0x06, 0x00, 0x00, 0x00, 0x07, 0x00, 0x00, 0x00, 0x9e, 0xff, 0xff, 0xff,
0x14, 0x00, 0x00, 0x00, 0x00, 0x00, 0x00, 0x0b, 0x10, 0x00, 0x00, 0x00, 0x14, 0x00, 0x00, 0x00,
0x03, 0x00, 0x00, 0x00, 0x50, 0xf0, 0xff, 0xff, 0x01, 0x00, 0x00, 0x00, 0x0f, 0x00, 0x00, 0x00,
0x02, 0x00, 0x00, 0x00, 0x0e, 0x00, 0x00, 0x00, 0x05, 0x00, 0x00, 0x00, 0xce, 0xff, 0xff, 0xff,
0x14, 0x00, 0x00, 0x00, 0x00, 0x00, 0x00, 0x15, 0x10, 0x00, 0x00, 0x00, 0x14, 0x00, 0x00, 0x00,
0x02, 0x00, 0x00, 0x00, 0x80, 0xf0, 0xff, 0xff, 0x01, 0x00, 0x00, 0x00, 0x0e, 0x00, 0x00, 0x00,
0x02, 0x00, 0x00, 0x00, 0x0d, 0x00, 0x00, 0x00, 0x04, 0x00, 0x00, 0x00, 0x00, 0x00, 0x0e, 0x00,
0x1a, 0x00, 0x14, 0x00, 0x10, 0x00, 0x0c, 0x00, 0x0b, 0x00, 0x04, 0x00, 0x0e, 0x00, 0x00, 0x00,
0x24, 0x00, 0x00, 0x00, 0x00, 0x00, 0x00, 0x05, 0x34, 0x00, 0x00, 0x00, 0x38, 0x00, 0x00, 0x00,
0x01, 0x00, 0x00, 0x00, 0x00, 0x00, 0x0e, 0x00, 0x18, 0x00, 0x17, 0x00, 0x10, 0x00, 0x0c, 0x00,
0x08, 0x00, 0x04, 0x00, 0x0e, 0x00, 0x00, 0x00, 0x03, 0x00, 0x00, 0x00, 0x03, 0x00, 0x00, 0x00,
0x03, 0x00, 0x00, 0x00, 0x03, 0x00, 0x00, 0x00, 0x00, 0x00, 0x00, 0x01, 0x01, 0x00, 0x00, 0x00,
0x0d, 0x00, 0x00, 0x00, 0x01, 0x00, 0x00, 0x00, 0x0c, 0x00, 0x00, 0x00, 0x00, 0x00, 0x0e, 0x00,
0x14, 0x00, 0x00, 0x00, 0x10, 0x00, 0x0c, 0x00, 0x0b, 0x00, 0x04, 0x00, 0x0e, 0x00, 0x00, 0x00,
0x1c, 0x00, 0x00, 0x00, 0x00, 0x00, 0x00, 0x01, 0x24, 0x00, 0x00, 0x00, 0x28, 0x00, 0x00, 0x00,
0x0c, 0x00, 0x10, 0x00, 0x00, 0x00, 0x0c, 0x00, 0x08, 0x00, 0x07, 0x00, 0x0c, 0x00, 0x00, 0x00,
0x00, 0x00, 0x00, 0x01, 0x01, 0x00, 0x00, 0x00, 0x01, 0x00, 0x00, 0x00, 0x01, 0x00, 0x00, 0x00,
0x0c, 0x00, 0x00, 0x00, 0x03, 0x00, 0x00, 0x00, 0x00, 0x00, 0x00, 0x00, 0x02, 0x00, 0x00, 0x00,
0x03, 0x00, 0x00, 0x00, 0x01, 0x00, 0x00, 0x00, 0x15, 0x00, 0x00, 0x00, 0x01, 0x00, 0x00, 0x00,
0x00, 0x00, 0x00, 0x00, 0x16, 0x00, 0x00, 0x00, 0x04, 0x0f, 0x00, 0x00, 0x80, 0x0e, 0x00, 0x00,
0x50, 0x0d, 0x00, 0x00, 0x44, 0x0c, 0x00, 0x00, 0xc0, 0x0b, 0x00, 0x00, 0x3c, 0x0b, 0x00, 0x00,
0x50, 0x09, 0x00, 0x00, 0x84, 0x07, 0x00, 0x00, 0x18, 0x07, 0x00, 0x00, 0xc4, 0x06, 0x00, 0x00,
0x50, 0x06, 0x00, 0x00, 0xf4, 0x05, 0x00, 0x00, 0x30, 0x05, 0x00, 0x00, 0xac, 0x04, 0x00, 0x00,
0x18, 0x04, 0x00, 0x00, 0x84, 0x03, 0x00, 0x00, 0xb8, 0x02, 0x00, 0x00, 0x34, 0x02, 0x00, 0x00,
0xb0, 0x01, 0x00, 0x00, 0x04, 0x01, 0x00, 0x00, 0x70, 0x00, 0x00, 0x00, 0x04, 0x00, 0x00, 0x00,
0x62, 0xf1, 0xff, 0xff, 0x14, 0x00, 0x00, 0x00, 0x34, 0x00, 0x00, 0x00, 0x16, 0x00, 0x00, 0x00,
0x00, 0x00, 0x00, 0x09, 0x48, 0x00, 0x00, 0x00, 0x54, 0xf1, 0xff, 0xff, 0x08, 0x00, 0x00, 0x00,
0x14, 0x00, 0x00, 0x00, 0x01, 0x00, 0x00, 0x00, 0x80, 0xff, 0xff, 0xff, 0xff, 0xff, 0xff, 0xff,
0x00, 0x00, 0x00, 0x00, 0x01, 0x00, 0x00, 0x00, 0x00, 0x00, 0x80, 0x3b, 0x19, 0x00, 0x00, 0x00,
0x53, 0x74, 0x61, 0x74, 0x65, 0x66, 0x75, 0x6c, 0x50, 0x61, 0x72, 0x74, 0x69, 0x74, 0x69, 0x6f,
0x6e, 0x65, 0x64, 0x43, 0x61, 0x6c, 0x6c, 0x3a, 0x30, 0x00, 0x00, 0x00, 0x02, 0x00, 0x00, 0x00,
0x01, 0x00, 0x00, 0x00, 0x04, 0x00, 0x00, 0x00, 0xca, 0xf1, 0xff, 0xff, 0x14, 0x00, 0x00, 0x00,
0x30, 0x00, 0x00, 0x00, 0x15, 0x00, 0x00, 0x00, 0x00, 0x00, 0x00, 0x09, 0x70, 0x00, 0x00, 0x00,
0xbc, 0xf1, 0xff, 0xff, 0x08, 0x00, 0x00, 0x00, 0x10, 0x00, 0x00, 0x00, 0x01, 0x00, 0x00, 0x00,
0x0f, 0x00, 0x00, 0x00, 0x00, 0x00, 0x00, 0x00, 0x01, 0x00, 0x00, 0x00, 0x62, 0xd4, 0x7b, 0x3f,
0x44, 0x00, 0x00, 0x00, 0x6d, 0x6f, 0x64, 0x65, 0x6c, 0x5f, 0x31, 0x2f, 0x73, 0x65, 0x71, 0x75,
0x65, 0x6e, 0x74, 0x69, 0x61, 0x6c, 0x2f, 0x64, 0x65, 0x6e, 0x73, 0x65, 0x5f, 0x31, 0x2f, 0x4d,
0x61, 0x74, 0x4d, 0x75, 0x6c, 0x3b, 0x6d, 0x6f, 0x64, 0x65, 0x6c, 0x5f, 0x31, 0x2f, 0x73, 0x65,
0x71, 0x75, 0x65, 0x6e, 0x74, 0x69, 0x61, 0x6c, 0x2f, 0x64, 0x65, 0x6e, 0x73, 0x65, 0x5f, 0x31,
0x2f, 0x42, 0x69, 0x61, 0x73, 0x41, 0x64, 0x64, 0x00, 0x00, 0x00, 0x00, 0x02, 0x00, 0x00, 0x00,
0x01, 0x00, 0x00, 0x00, 0x04, 0x00, 0x00, 0x00, 0x5a, 0xf2, 0xff, 0xff, 0x14, 0x00, 0x00, 0x00,
0x30, 0x00, 0x00, 0x00, 0x14, 0x00, 0x00, 0x00, 0x00, 0x00, 0x00, 0x09, 0x88, 0x00, 0x00, 0x00,
0x4c, 0xf2, 0xff, 0xff, 0x08, 0x00, 0x00, 0x00, 0x10, 0x00, 0x00, 0x00, 0x01, 0x00, 0x00, 0x00,
0x80, 0xff, 0xff, 0xff, 0xff, 0xff, 0xff, 0xff, 0x01, 0x00, 0x00, 0x00, 0x7d, 0xf7, 0xad, 0x3e,
0x5e, 0x00, 0x00, 0x00, 0x6d, 0x6f, 0x64, 0x65, 0x6c, 0x5f, 0x31, 0x2f, 0x73, 0x65, 0x71, 0x75,
0x65, 0x6e, 0x74, 0x69, 0x61, 0x6c, 0x2f, 0x64, 0x65, 0x6e, 0x73, 0x65, 0x2f, 0x4d, 0x61, 0x74,
0x4d, 0x75, 0x6c, 0x3b, 0x6d, 0x6f, 0x64, 0x65, 0x6c, 0x5f, 0x31, 0x2f, 0x73, 0x65, 0x71, 0x75,
0x65, 0x6e, 0x74, 0x69, 0x61, 0x6c, 0x2f, 0x64, 0x65, 0x6e, 0x73, 0x65, 0x2f, 0x52, 0x65, 0x6c,
0x75, 0x3b, 0x6d, 0x6f, 0x64, 0x65, 0x6c, 0x5f, 0x31, 0x2f, 0x73, 0x65, 0x71, 0x75, 0x65, 0x6e,
0x74, 0x69, 0x61, 0x6c, 0x2f, 0x64, 0x65, 0x6e, 0x73, 0x65, 0x2f, 0x42, 0x69, 0x61, 0x73, 0x41,
0x64, 0x64, 0x00, 0x00, 0x02, 0x00, 0x00, 0x00, 0x01, 0x00, 0x00, 0x00, 0x10, 0x00, 0x00, 0x00,
0x02, 0xf3, 0xff, 0xff, 0x14, 0x00, 0x00, 0x00, 0x34, 0x00, 0x00, 0x00, 0x13, 0x00, 0x00, 0x00,
0x00, 0x00, 0x00, 0x09, 0x60, 0x00, 0x00, 0x00, 0xf4, 0xf2, 0xff, 0xff, 0x08, 0x00, 0x00, 0x00,
0x14, 0x00, 0x00, 0x00, 0x01, 0x00, 0x00, 0x00, 0x80, 0xff, 0xff, 0xff, 0xff, 0xff, 0xff, 0xff,
0x00, 0x00, 0x00, 0x00, 0x01, 0x00, 0x00, 0x00, 0xfb, 0xb0, 0xa6, 0x3e, 0x30, 0x00, 0x00, 0x00,
0x6d, 0x6f, 0x64, 0x65, 0x6c, 0x5f, 0x31, 0x2f, 0x73, 0x65, 0x71, 0x75, 0x65, 0x6e, 0x74, 0x69,
0x61, 0x6c, 0x2f, 0x67, 0x6c, 0x6f, 0x62, 0x61, 0x6c, 0x5f, 0x61, 0x76, 0x65, 0x72, 0x61, 0x67,
0x65, 0x5f, 0x70, 0x6f, 0x6f, 0x6c, 0x69, 0x6e, 0x67, 0x32, 0x64, 0x2f, 0x4d, 0x65, 0x61, 0x6e,
0x00, 0x00, 0x00, 0x00, 0x02, 0x00, 0x00, 0x00, 0x01, 0x00, 0x00, 0x00, 0x20, 0x00, 0x00, 0x00,
0x82, 0xf3, 0xff, 0xff, 0x14, 0x00, 0x00, 0x00, 0x34, 0x00, 0x00, 0x00, 0x12, 0x00, 0x00, 0x00,
0x00, 0x00, 0x00, 0x09, 0x58, 0x00, 0x00, 0x00, 0x74, 0xf3, 0xff, 0xff, 0x08, 0x00, 0x00, 0x00,
0x14, 0x00, 0x00, 0x00, 0x01, 0x00, 0x00, 0x00, 0x80, 0xff, 0xff, 0xff, 0xff, 0xff, 0xff, 0xff,
0x00, 0x00, 0x00, 0x00, 0x01, 0x00, 0x00, 0x00, 0xdf, 0xaf, 0xf3, 0x3e, 0x2a, 0x00, 0x00, 0x00,
0x6d, 0x6f, 0x64, 0x65, 0x6c, 0x5f, 0x31, 0x2f, 0x73, 0x65, 0x71, 0x75, 0x65, 0x6e, 0x74, 0x69,
0x61, 0x6c, 0x2f, 0x6d, 0x61, 0x78, 0x5f, 0x70, 0x6f, 0x6f, 0x6c, 0x69, 0x6e, 0x67, 0x32, 0x64,
0x5f, 0x31, 0x2f, 0x4d, 0x61, 0x78, 0x50, 0x6f, 0x6f, 0x6c, 0x00, 0x00, 0x04, 0x00, 0x00, 0x00,
0x01, 0x00, 0x00, 0x00, 0x0e, 0x00, 0x00, 0x00, 0x02, 0x00, 0x00, 0x00, 0x20, 0x00, 0x00, 0x00,
0x02, 0xf4, 0xff, 0xff, 0x14, 0x00, 0x00, 0x00, 0x30, 0x00, 0x00, 0x00, 0x11, 0x00, 0x00, 0x00,
0x00, 0x00, 0x00, 0x09, 0xa0, 0x00, 0x00, 0x00, 0xf4, 0xf3, 0xff, 0xff, 0x08, 0x00, 0x00, 0x00,
0x10, 0x00, 0x00, 0x00, 0x01, 0x00, 0x00, 0x00, 0x80, 0xff, 0xff, 0xff, 0xff, 0xff, 0xff, 0xff,
0x01, 0x00, 0x00, 0x00, 0xdf, 0xaf, 0xf3, 0x3e, 0x75, 0x00, 0x00, 0x00, 0x6d, 0x6f, 0x64, 0x65,
0x6c, 0x5f, 0x31, 0x2f, 0x73, 0x65, 0x71, 0x75, 0x65, 0x6e, 0x74, 0x69, 0x61, 0x6c, 0x2f, 0x63,
0x6f, 0x6e, 0x76, 0x32, 0x64, 0x5f, 0x31, 0x2f, 0x52, 0x65, 0x6c, 0x75, 0x3b, 0x6d, 0x6f, 0x64,
0x65, 0x6c, 0x5f, 0x31, 0x2f, 0x73, 0x65, 0x71, 0x75, 0x65, 0x6e, 0x74, 0x69, 0x61, 0x6c, 0x2f,
0x63, 0x6f, 0x6e, 0x76, 0x32, 0x64, 0x5f, 0x31, 0x2f, 0x42, 0x69, 0x61, 0x73, 0x41, 0x64, 0x64,
0x3b, 0x6d, 0x6f, 0x64, 0x65, 0x6c, 0x5f, 0x31, 0x2f, 0x73, 0x65, 0x71, 0x75, 0x65, 0x6e, 0x74,
0x69, 0x61, 0x6c, 0x2f, 0x63, 0x6f, 0x6e, 0x76, 0x32, 0x64, 0x5f, 0x31, 0x2f, 0x43, 0x6f, 0x6e,
0x76, 0x32, 0x44, 0x3b, 0x63, 0x6f, 0x6e, 0x76, 0x32, 0x64, 0x5f, 0x31, 0x2f, 0x62, 0x69, 0x61,
0x73, 0x00, 0x00, 0x00, 0x04, 0x00, 0x00, 0x00, 0x01, 0x00, 0x00, 0x00, 0x2a, 0x00, 0x00, 0x00,
0x02, 0x00, 0x00, 0x00, 0x20, 0x00, 0x00, 0x00, 0xca, 0xf4, 0xff, 0xff, 0x14, 0x00, 0x00, 0x00,
0x34, 0x00, 0x00, 0x00, 0x10, 0x00, 0x00, 0x00, 0x00, 0x00, 0x00, 0x09, 0x68, 0x00, 0x00, 0x00,
0xbc, 0xf4, 0xff, 0xff, 0x08, 0x00, 0x00, 0x00, 0x14, 0x00, 0x00, 0x00, 0x01, 0x00, 0x00, 0x00,
0x95, 0xff, 0xff, 0xff, 0xff, 0xff, 0xff, 0xff, 0x00, 0x00, 0x00, 0x00, 0x01, 0x00, 0x00, 0x00,
0x9a, 0x62, 0x0c, 0x3e, 0x38, 0x00, 0x00, 0x00, 0x6d, 0x6f, 0x64, 0x65, 0x6c, 0x5f, 0x31, 0x2f,
0x73, 0x65, 0x71, 0x75, 0x65, 0x6e, 0x74, 0x69, 0x61, 0x6c, 0x2f, 0x62, 0x61, 0x74, 0x63, 0x68,
0x5f, 0x6e, 0x6f, 0x72, 0x6d, 0x61, 0x6c, 0x69, 0x7a, 0x61, 0x74, 0x69, 0x6f, 0x6e, 0x2f, 0x46,
0x75, 0x73, 0x65, 0x64, 0x42, 0x61, 0x74, 0x63, 0x68, 0x4e, 0x6f, 0x72, 0x6d, 0x56, 0x33, 0x33,
0x00, 0x00, 0x00, 0x00, 0x04, 0x00, 0x00, 0x00, 0x01, 0x00, 0x00, 0x00, 0x2a, 0x00, 0x00, 0x00,
0x02, 0x00, 0x00, 0x00, 0x10, 0x00, 0x00, 0x00, 0x5a, 0xf5, 0xff, 0xff, 0x14, 0x00, 0x00, 0x00,
0x34, 0x00, 0x00, 0x00, 0x0f, 0x00, 0x00, 0x00, 0x00, 0x00, 0x00, 0x09, 0x68, 0x00, 0x00, 0x00,
0x4c, 0xf5, 0xff, 0xff, 0x08, 0x00, 0x00, 0x00, 0x14, 0x00, 0x00, 0x00, 0x01, 0x00, 0x00, 0x00,
0x80, 0xff, 0xff, 0xff, 0xff, 0xff, 0xff, 0xff, 0x00, 0x00, 0x00, 0x00, 0x01, 0x00, 0x00, 0x00,
0x70, 0xfc, 0x04, 0x3e, 0x38, 0x00, 0x00, 0x00, 0x6d, 0x6f, 0x64, 0x65, 0x6c, 0x5f, 0x31, 0x2f,
0x73, 0x65, 0x71, 0x75, 0x65, 0x6e, 0x74, 0x69, 0x61, 0x6c, 0x2f, 0x62, 0x61, 0x74, 0x63, 0x68,
0x5f, 0x6e, 0x6f, 0x72, 0x6d, 0x61, 0x6c, 0x69, 0x7a, 0x61, 0x74, 0x69, 0x6f, 0x6e, 0x2f, 0x46,
0x75, 0x73, 0x65, 0x64, 0x42, 0x61, 0x74, 0x63, 0x68, 0x4e, 0x6f, 0x72, 0x6d, 0x56, 0x33, 0x32,
0x00, 0x00, 0x00, 0x00, 0x04, 0x00, 0x00, 0x00, 0x01, 0x00, 0x00, 0x00, 0x2a, 0x00, 0x00, 0x00,
0x02, 0x00, 0x00, 0x00, 0x10, 0x00, 0x00, 0x00, 0xea, 0xf5, 0xff, 0xff, 0x14, 0x00, 0x00, 0x00,
0x34, 0x00, 0x00, 0x00, 0x0e, 0x00, 0x00, 0x00, 0x00, 0x00, 0x00, 0x09, 0x58, 0x00, 0x00, 0x00,
0xdc, 0xf5, 0xff, 0xff, 0x08, 0x00, 0x00, 0x00, 0x14, 0x00, 0x00, 0x00, 0x01, 0x00, 0x00, 0x00,
0x80, 0xff, 0xff, 0xff, 0xff, 0xff, 0xff, 0xff, 0x00, 0x00, 0x00, 0x00, 0x01, 0x00, 0x00, 0x00,
0x1c, 0x15, 0xb8, 0x3b, 0x28, 0x00, 0x00, 0x00, 0x6d, 0x6f, 0x64, 0x65, 0x6c, 0x5f, 0x31, 0x2f,
0x73, 0x65, 0x71, 0x75, 0x65, 0x6e, 0x74, 0x69, 0x61, 0x6c, 0x2f, 0x6d, 0x61, 0x78, 0x5f, 0x70,
0x6f, 0x6f, 0x6c, 0x69, 0x6e, 0x67, 0x32, 0x64, 0x2f, 0x4d, 0x61, 0x78, 0x50, 0x6f, 0x6f, 0x6c,
0x00, 0x00, 0x00, 0x00, 0x04, 0x00, 0x00, 0x00, 0x01, 0x00, 0x00, 0x00, 0x2a, 0x00, 0x00, 0x00,
0x02, 0x00, 0x00, 0x00, 0x10, 0x00, 0x00, 0x00, 0x6a, 0xf6, 0xff, 0xff, 0x14, 0x00, 0x00, 0x00,
0x30, 0x00, 0x00, 0x00, 0x0d, 0x00, 0x00, 0x00, 0x00, 0x00, 0x00, 0x09, 0x98, 0x00, 0x00, 0x00,
0x5c, 0xf6, 0xff, 0xff, 0x08, 0x00, 0x00, 0x00, 0x10, 0x00, 0x00, 0x00, 0x01, 0x00, 0x00, 0x00,
0x80, 0xff, 0xff, 0xff, 0xff, 0xff, 0xff, 0xff, 0x01, 0x00, 0x00, 0x00, 0x1c, 0x15, 0xb8, 0x3b,
0x6d, 0x00, 0x00, 0x00, 0x6d, 0x6f, 0x64, 0x65, 0x6c, 0x5f, 0x31, 0x2f, 0x73, 0x65, 0x71, 0x75,
0x65, 0x6e, 0x74, 0x69, 0x61, 0x6c, 0x2f, 0x63, 0x6f, 0x6e, 0x76, 0x32, 0x64, 0x2f, 0x52, 0x65,
0x6c, 0x75, 0x3b, 0x6d, 0x6f, 0x64, 0x65, 0x6c, 0x5f, 0x31, 0x2f, 0x73, 0x65, 0x71, 0x75, 0x65,
0x6e, 0x74, 0x69, 0x61, 0x6c, 0x2f, 0x63, 0x6f, 0x6e, 0x76, 0x32, 0x64, 0x2f, 0x42, 0x69, 0x61,
0x73, 0x41, 0x64, 0x64, 0x3b, 0x6d, 0x6f, 0x64, 0x65, 0x6c, 0x5f, 0x31, 0x2f, 0x73, 0x65, 0x71,
0x75, 0x65, 0x6e, 0x74, 0x69, 0x61, 0x6c, 0x2f, 0x63, 0x6f, 0x6e, 0x76, 0x32, 0x64, 0x2f, 0x43,
0x6f, 0x6e, 0x76, 0x32, 0x44, 0x3b, 0x63, 0x6f, 0x6e, 0x76, 0x32, 0x64, 0x2f, 0x62, 0x69, 0x61,
0x73, 0x00, 0x00, 0x00, 0x04, 0x00, 0x00, 0x00, 0x01, 0x00, 0x00, 0x00, 0x80, 0x00, 0x00, 0x00,
0x06, 0x00, 0x00, 0x00, 0x10, 0x00, 0x00, 0x00, 0x2a, 0xf7, 0xff, 0xff, 0x14, 0x00, 0x00, 0x00,
0x34, 0x00, 0x00, 0x00, 0x0c, 0x00, 0x00, 0x00, 0x00, 0x00, 0x00, 0x02, 0x3c, 0x00, 0x00, 0x00,
0x1c, 0xf7, 0xff, 0xff, 0x08, 0x00, 0x00, 0x00, 0x14, 0x00, 0x00, 0x00, 0x01, 0x00, 0x00, 0x00,
0x00, 0x00, 0x00, 0x00, 0x00, 0x00, 0x00, 0x00, 0x00, 0x00, 0x00, 0x00, 0x01, 0x00, 0x00, 0x00,
0x5e, 0x4e, 0x36, 0x3b, 0x0c, 0x00, 0x00, 0x00, 0x64, 0x65, 0x6e, 0x73, 0x65, 0x5f, 0x31, 0x2f,
0x62, 0x69, 0x61, 0x73, 0x00, 0x00, 0x00, 0x00, 0x01, 0x00, 0x00, 0x00, 0x04, 0x00, 0x00, 0x00,
0x82, 0xf7, 0xff, 0xff, 0x14, 0x00, 0x00, 0x00, 0x34, 0x00, 0x00, 0x00, 0x0b, 0x00, 0x00, 0x00,
0x00, 0x00, 0x00, 0x09, 0x50, 0x00, 0x00, 0x00, 0x74, 0xf7, 0xff, 0xff, 0x08, 0x00, 0x00, 0x00,
0x14, 0x00, 0x00, 0x00, 0x01, 0x00, 0x00, 0x00, 0x00, 0x00, 0x00, 0x00, 0x00, 0x00, 0x00, 0x00,
0x00, 0x00, 0x00, 0x00, 0x01, 0x00, 0x00, 0x00, 0xc9, 0x22, 0x06, 0x3c, 0x21, 0x00, 0x00, 0x00,
0x6d, 0x6f, 0x64, 0x65, 0x6c, 0x5f, 0x31, 0x2f, 0x73, 0x65, 0x71, 0x75, 0x65, 0x6e, 0x74, 0x69,
0x61, 0x6c, 0x2f, 0x64, 0x65, 0x6e, 0x73, 0x65, 0x5f, 0x31, 0x2f, 0x4d, 0x61, 0x74, 0x4d, 0x75,
0x6c, 0x00, 0x00, 0x00, 0x02, 0x00, 0x00, 0x00, 0x04, 0x00, 0x00, 0x00, 0x10, 0x00, 0x00, 0x00,
0xf2, 0xf7, 0xff, 0xff, 0x14, 0x00, 0x00, 0x00, 0x30, 0x00, 0x00, 0x00, 0x0a, 0x00, 0x00, 0x00,
0x00, 0x00, 0x00, 0x02, 0x34, 0x00, 0x00, 0x00, 0xe4, 0xf7, 0xff, 0xff, 0x08, 0x00, 0x00, 0x00,
0x10, 0x00, 0x00, 0x00, 0x01, 0x00, 0x00, 0x00, 0x00, 0x00, 0x00, 0x00, 0x00, 0x00, 0x00, 0x00,
0x01, 0x00, 0x00, 0x00, 0xf6, 0xb1, 0x0d, 0x3b, 0x0a, 0x00, 0x00, 0x00, 0x64, 0x65, 0x6e, 0x73,
0x65, 0x2f, 0x62, 0x69, 0x61, 0x73, 0x00, 0x00, 0x01, 0x00, 0x00, 0x00, 0x10, 0x00, 0x00, 0x00,
0x42, 0xf8, 0xff, 0xff, 0x14, 0x00, 0x00, 0x00, 0x30, 0x00, 0x00, 0x00, 0x09, 0x00, 0x00, 0x00,
0x00, 0x00, 0x00, 0x09, 0x48, 0x00, 0x00, 0x00, 0x34, 0xf8, 0xff, 0xff, 0x08, 0x00, 0x00, 0x00,
0x10, 0x00, 0x00, 0x00, 0x01, 0x00, 0x00, 0x00, 0x00, 0x00, 0x00, 0x00, 0x00, 0x00, 0x00, 0x00,
0x01, 0x00, 0x00, 0x00, 0x8f, 0x9c, 0xd9, 0x3b, 0x1f, 0x00, 0x00, 0x00, 0x6d, 0x6f, 0x64, 0x65,
0x6c, 0x5f, 0x31, 0x2f, 0x73, 0x65, 0x71, 0x75, 0x65, 0x6e, 0x74, 0x69, 0x61, 0x6c, 0x2f, 0x64,
0x65, 0x6e, 0x73, 0x65, 0x2f, 0x4d, 0x61, 0x74, 0x4d, 0x75, 0x6c, 0x00, 0x02, 0x00, 0x00, 0x00,
0x10, 0x00, 0x00, 0x00, 0x20, 0x00, 0x00, 0x00, 0xaa, 0xf8, 0xff, 0xff, 0x14, 0x00, 0x00, 0x00,
0xa4, 0x01, 0x00, 0x00, 0x08, 0x00, 0x00, 0x00, 0x00, 0x00, 0x00, 0x02, 0xac, 0x01, 0x00, 0x00,
0x9c, 0xf8, 0xff, 0xff, 0x08, 0x00, 0x00, 0x00, 0x08, 0x01, 0x00, 0x00, 0x20, 0x00, 0x00, 0x00,
0x00, 0x00, 0x00, 0x00, 0x00, 0x00, 0x00, 0x00, 0x00, 0x00, 0x00, 0x00, 0x00, 0x00, 0x00, 0x00,
0x00, 0x00, 0x00, 0x00, 0x00, 0x00, 0x00, 0x00, 0x00, 0x00, 0x00, 0x00, 0x00, 0x00, 0x00, 0x00,
0x00, 0x00, 0x00, 0x00, 0x00, 0x00, 0x00, 0x00, 0x00, 0x00, 0x00, 0x00, 0x00, 0x00, 0x00, 0x00,
0x00, 0x00, 0x00, 0x00, 0x00, 0x00, 0x00, 0x00, 0x00, 0x00, 0x00, 0x00, 0x00, 0x00, 0x00, 0x00,
0x00, 0x00, 0x00, 0x00, 0x00, 0x00, 0x00, 0x00, 0x00, 0x00, 0x00, 0x00, 0x00, 0x00, 0x00, 0x00,
0x00, 0x00, 0x00, 0x00, 0x00, 0x00, 0x00, 0x00, 0x00, 0x00, 0x00, 0x00, 0x00, 0x00, 0x00, 0x00,
0x00, 0x00, 0x00, 0x00, 0x00, 0x00, 0x00, 0x00, 0x00, 0x00, 0x00, 0x00, 0x00, 0x00, 0x00, 0x00,
0x00, 0x00, 0x00, 0x00, 0x00, 0x00, 0x00, 0x00, 0x00, 0x00, 0x00, 0x00, 0x00, 0x00, 0x00, 0x00,
0x00, 0x00, 0x00, 0x00, 0x00, 0x00, 0x00, 0x00, 0x00, 0x00, 0x00, 0x00, 0x00, 0x00, 0x00, 0x00,
0x00, 0x00, 0x00, 0x00, 0x00, 0x00, 0x00, 0x00, 0x00, 0x00, 0x00, 0x00, 0x00, 0x00, 0x00, 0x00,
0x00, 0x00, 0x00, 0x00, 0x00, 0x00, 0x00, 0x00, 0x00, 0x00, 0x00, 0x00, 0x00, 0x00, 0x00, 0x00,
0x00, 0x00, 0x00, 0x00, 0x00, 0x00, 0x00, 0x00, 0x00, 0x00, 0x00, 0x00, 0x00, 0x00, 0x00, 0x00,
0x00, 0x00, 0x00, 0x00, 0x00, 0x00, 0x00, 0x00, 0x00, 0x00, 0x00, 0x00, 0x00, 0x00, 0x00, 0x00,
0x00, 0x00, 0x00, 0x00, 0x00, 0x00, 0x00, 0x00, 0x00, 0x00, 0x00, 0x00, 0x00, 0x00, 0x00, 0x00,
0x00, 0x00, 0x00, 0x00, 0x00, 0x00, 0x00, 0x00, 0x00, 0x00, 0x00, 0x00, 0x00, 0x00, 0x00, 0x00,
0x00, 0x00, 0x00, 0x00, 0x00, 0x00, 0x00, 0x00, 0x00, 0x00, 0x00, 0x00, 0x00, 0x00, 0x00, 0x00,
0x20, 0x00, 0x00, 0x00, 0x5d, 0x24, 0xd3, 0x39, 0x21, 0x95, 0xc0, 0x39, 0x45, 0x44, 0xd0, 0x39,
0x9c, 0xd2, 0xa3, 0x39, 0x32, 0xa6, 0xa9, 0x39, 0x86, 0xbb, 0xb0, 0x39, 0xab, 0xe9, 0xde, 0x39,
0x02, 0x75, 0xd0, 0x39, 0x3c, 0xe2, 0xd2, 0x39, 0x99, 0x52, 0xd4, 0x39, 0xef, 0x23, 0x16, 0x3a,
0x5e, 0x89, 0x0d, 0x3a, 0x7c, 0x22, 0xaf, 0x39, 0x40, 0xd7, 0xc0, 0x39, 0x0a, 0x25, 0xc1, 0x39,
0xc8, 0xc8, 0xcc, 0x39, 0x3c, 0xa1, 0xc0, 0x39, 0x3a, 0x2a, 0x98, 0x39, 0x72, 0xb6, 0xe0, 0x39,
0x8e, 0xa4, 0x0b, 0x3a, 0x80, 0xe6, 0x4f, 0x3a, 0x35, 0xf9, 0x97, 0x39, 0x72, 0x99, 0xc9, 0x39,
0x5d, 0xe6, 0xc0, 0x39, 0x8a, 0x26, 0xca, 0x39, 0x64, 0xc6, 0xc2, 0x39, 0x2d, 0x52, 0xfe, 0x39,
0x23, 0xb4, 0x07, 0x3a, 0xb3, 0x7f, 0xa2, 0x39, 0xe6, 0xd6, 0x25, 0x3a, 0x99, 0xce, 0xae, 0x39,
0x16, 0xb4, 0xb0, 0x39, 0x0d, 0x00, 0x00, 0x00, 0x63, 0x6f, 0x6e, 0x76, 0x32, 0x64, 0x5f, 0x31,
0x2f, 0x62, 0x69, 0x61, 0x73, 0x00, 0x00, 0x00, 0x01, 0x00, 0x00, 0x00, 0x20, 0x00, 0x00, 0x00,
0x72, 0xfa, 0xff, 0xff, 0x14, 0x00, 0x00, 0x00, 0xa4, 0x01, 0x00, 0x00, 0x07, 0x00, 0x00, 0x00,
0x00, 0x00, 0x00, 0x09, 0xc0, 0x01, 0x00, 0x00, 0x64, 0xfa, 0xff, 0xff, 0x08, 0x00, 0x00, 0x00,
0x08, 0x01, 0x00, 0x00, 0x20, 0x00, 0x00, 0x00, 0x00, 0x00, 0x00, 0x00, 0x00, 0x00, 0x00, 0x00,
0x00, 0x00, 0x00, 0x00, 0x00, 0x00, 0x00, 0x00, 0x00, 0x00, 0x00, 0x00, 0x00, 0x00, 0x00, 0x00,
0x00, 0x00, 0x00, 0x00, 0x00, 0x00, 0x00, 0x00, 0x00, 0x00, 0x00, 0x00, 0x00, 0x00, 0x00, 0x00,
0x00, 0x00, 0x00, 0x00, 0x00, 0x00, 0x00, 0x00, 0x00, 0x00, 0x00, 0x00, 0x00, 0x00, 0x00, 0x00,
0x00, 0x00, 0x00, 0x00, 0x00, 0x00, 0x00, 0x00, 0x00, 0x00, 0x00, 0x00, 0x00, 0x00, 0x00, 0x00,
0x00, 0x00, 0x00, 0x00, 0x00, 0x00, 0x00, 0x00, 0x00, 0x00, 0x00, 0x00, 0x00, 0x00, 0x00, 0x00,
0x00, 0x00, 0x00, 0x00, 0x00, 0x00, 0x00, 0x00, 0x00, 0x00, 0x00, 0x00, 0x00, 0x00, 0x00, 0x00,
0x00, 0x00, 0x00, 0x00, 0x00, 0x00, 0x00, 0x00, 0x00, 0x00, 0x00, 0x00, 0x00, 0x00, 0x00, 0x00,
0x00, 0x00, 0x00, 0x00, 0x00, 0x00, 0x00, 0x00, 0x00, 0x00, 0x00, 0x00, 0x00, 0x00, 0x00, 0x00,
0x00, 0x00, 0x00, 0x00, 0x00, 0x00, 0x00, 0x00, 0x00, 0x00, 0x00, 0x00, 0x00, 0x00, 0x00, 0x00,
0x00, 0x00, 0x00, 0x00, 0x00, 0x00, 0x00, 0x00, 0x00, 0x00, 0x00, 0x00, 0x00, 0x00, 0x00, 0x00,
0x00, 0x00, 0x00, 0x00, 0x00, 0x00, 0x00, 0x00, 0x00, 0x00, 0x00, 0x00, 0x00, 0x00, 0x00, 0x00,
0x00, 0x00, 0x00, 0x00, 0x00, 0x00, 0x00, 0x00, 0x00, 0x00, 0x00, 0x00, 0x00, 0x00, 0x00, 0x00,
0x00, 0x00, 0x00, 0x00, 0x00, 0x00, 0x00, 0x00, 0x00, 0x00, 0x00, 0x00, 0x00, 0x00, 0x00, 0x00,
0x00, 0x00, 0x00, 0x00, 0x00, 0x00, 0x00, 0x00, 0x00, 0x00, 0x00, 0x00, 0x00, 0x00, 0x00, 0x00,
0x00, 0x00, 0x00, 0x00, 0x00, 0x00, 0x00, 0x00, 0x00, 0x00, 0x00, 0x00, 0x00, 0x00, 0x00, 0x00,
0x00, 0x00, 0x00, 0x00, 0x00, 0x00, 0x00, 0x00, 0x20, 0x00, 0x00, 0x00, 0xb7, 0x83, 0x40, 0x3b,
0xa6, 0x97, 0x2f, 0x3b, 0x90, 0xe4, 0x3d, 0x3b, 0xac, 0x5e, 0x15, 0x3b, 0xaa, 0xae, 0x1a, 0x3b,
0x04, 0x24, 0x21, 0x3b, 0x2e, 0x3f, 0x4b, 0x3b, 0x00, 0x11, 0x3e, 0x3b, 0x6c, 0x47, 0x40, 0x3b,
0x49, 0x97, 0x41, 0x3b, 0x03, 0xe5, 0x88, 0x3b, 0xc3, 0x0c, 0x81, 0x3b, 0x10, 0xaf, 0x1f, 0x3b,
0xf0, 0xd3, 0x2f, 0x3b, 0xdd, 0x1a, 0x30, 0x3b, 0xb9, 0xb7, 0x3a, 0x3b, 0xb0, 0xa2, 0x2f, 0x3b,
0x94, 0xbd, 0x0a, 0x3b, 0x4e, 0xe3, 0x4c, 0x3b, 0x71, 0xa5, 0x7e, 0x3b, 0x11, 0x8f, 0xbd, 0x3b,
0xe2, 0x90, 0x0a, 0x3b, 0x52, 0xd0, 0x37, 0x3b, 0xb7, 0xe1, 0x2f, 0x3b, 0xf7, 0x50, 0x38, 0x3b,
0x65, 0x97, 0x31, 0x3b, 0x55, 0xe2, 0x67, 0x3b, 0x89, 0x76, 0x77, 0x3b, 0xa9, 0x29, 0x14, 0x3b,
0x69, 0x35, 0x97, 0x3b, 0x94, 0x62, 0x1f, 0x3b, 0x3c, 0x1d, 0x21, 0x3b, 0x22, 0x00, 0x00, 0x00,
0x6d, 0x6f, 0x64, 0x65, 0x6c, 0x5f, 0x31, 0x2f, 0x73, 0x65, 0x71, 0x75, 0x65, 0x6e, 0x74, 0x69,
0x61, 0x6c, 0x2f, 0x63, 0x6f, 0x6e, 0x76, 0x32, 0x64, 0x5f, 0x31, 0x2f, 0x43, 0x6f, 0x6e, 0x76,
0x32, 0x44, 0x00, 0x00, 0x04, 0x00, 0x00, 0x00, 0x20, 0x00, 0x00, 0x00, 0x03, 0x00, 0x00, 0x00,
0x03, 0x00, 0x00, 0x00, 0x10, 0x00, 0x00, 0x00, 0x5a, 0xfc, 0xff, 0xff, 0x14, 0x00, 0x00, 0x00,
0x30, 0x00, 0x00, 0x00, 0x06, 0x00, 0x00, 0x00, 0x00, 0x00, 0x00, 0x09, 0x64, 0x00, 0x00, 0x00,
0x4c, 0xfc, 0xff, 0xff, 0x08, 0x00, 0x00, 0x00, 0x10, 0x00, 0x00, 0x00, 0x01, 0x00, 0x00, 0x00,
0x7f, 0x00, 0x00, 0x00, 0x00, 0x00, 0x00, 0x00, 0x01, 0x00, 0x00, 0x00, 0x04, 0x2e, 0x37, 0x3c,
0x38, 0x00, 0x00, 0x00, 0x6d, 0x6f, 0x64, 0x65, 0x6c, 0x5f, 0x31, 0x2f, 0x73, 0x65, 0x71, 0x75,
0x65, 0x6e, 0x74, 0x69, 0x61, 0x6c, 0x2f, 0x62, 0x61, 0x74, 0x63, 0x68, 0x5f, 0x6e, 0x6f, 0x72,
0x6d, 0x61, 0x6c, 0x69, 0x7a, 0x61, 0x74, 0x69, 0x6f, 0x6e, 0x2f, 0x46, 0x75, 0x73, 0x65, 0x64,
0x42, 0x61, 0x74, 0x63, 0x68, 0x4e, 0x6f, 0x72, 0x6d, 0x56, 0x33, 0x31, 0x00, 0x00, 0x00, 0x00,
0x01, 0x00, 0x00, 0x00, 0x10, 0x00, 0x00, 0x00, 0xda, 0xfc, 0xff, 0xff, 0x14, 0x00, 0x00, 0x00,
0x34, 0x00, 0x00, 0x00, 0x05, 0x00, 0x00, 0x00, 0x00, 0x00, 0x00, 0x09, 0x64, 0x00, 0x00, 0x00,
0xcc, 0xfc, 0xff, 0xff, 0x08, 0x00, 0x00, 0x00, 0x14, 0x00, 0x00, 0x00, 0x01, 0x00, 0x00, 0x00,
0x80, 0xff, 0xff, 0xff, 0xff, 0xff, 0xff, 0xff, 0x00, 0x00, 0x00, 0x00, 0x01, 0x00, 0x00, 0x00,
0xa8, 0x51, 0x02, 0x3e, 0x37, 0x00, 0x00, 0x00, 0x6d, 0x6f, 0x64, 0x65, 0x6c, 0x5f, 0x31, 0x2f,
0x73, 0x65, 0x71, 0x75, 0x65, 0x6e, 0x74, 0x69, 0x61, 0x6c, 0x2f, 0x62, 0x61, 0x74, 0x63, 0x68,
0x5f, 0x6e, 0x6f, 0x72, 0x6d, 0x61, 0x6c, 0x69, 0x7a, 0x61, 0x74, 0x69, 0x6f, 0x6e, 0x2f, 0x46,
0x75, 0x73, 0x65, 0x64, 0x42, 0x61, 0x74, 0x63, 0x68, 0x4e, 0x6f, 0x72, 0x6d, 0x56, 0x33, 0x00,
0x01, 0x00, 0x00, 0x00, 0x10, 0x00, 0x00, 0x00, 0x5a, 0xfd, 0xff, 0xff, 0x14, 0x00, 0x00, 0x00,
0xe8, 0x00, 0x00, 0x00, 0x04, 0x00, 0x00, 0x00, 0x00, 0x00, 0x00, 0x02, 0xec, 0x00, 0x00, 0x00,
0x4c, 0xfd, 0xff, 0xff, 0x08, 0x00, 0x00, 0x00, 0x8c, 0x00, 0x00, 0x00, 0x10, 0x00, 0x00, 0x00,
0x00, 0x00, 0x00, 0x00, 0x00, 0x00, 0x00, 0x00, 0x00, 0x00, 0x00, 0x00, 0x00, 0x00, 0x00, 0x00,
0x00, 0x00, 0x00, 0x00, 0x00, 0x00, 0x00, 0x00, 0x00, 0x00, 0x00, 0x00, 0x00, 0x00, 0x00, 0x00,
0x00, 0x00, 0x00, 0x00, 0x00, 0x00, 0x00, 0x00, 0x00, 0x00, 0x00, 0x00, 0x00, 0x00, 0x00, 0x00,
0x00, 0x00, 0x00, 0x00, 0x00, 0x00, 0x00, 0x00, 0x00, 0x00, 0x00, 0x00, 0x00, 0x00, 0x00, 0x00,
0x00, 0x00, 0x00, 0x00, 0x00, 0x00, 0x00, 0x00, 0x00, 0x00, 0x00, 0x00, 0x00, 0x00, 0x00, 0x00,
0x00, 0x00, 0x00, 0x00, 0x00, 0x00, 0x00, 0x00, 0x00, 0x00, 0x00, 0x00, 0x00, 0x00, 0x00, 0x00,
0x00, 0x00, 0x00, 0x00, 0x00, 0x00, 0x00, 0x00, 0x00, 0x00, 0x00, 0x00, 0x00, 0x00, 0x00, 0x00,
0x00, 0x00, 0x00, 0x00, 0x00, 0x00, 0x00, 0x00, 0x00, 0x00, 0x00, 0x00, 0x00, 0x00, 0x00, 0x00,
0x00, 0x00, 0x00, 0x00, 0x10, 0x00, 0x00, 0x00, 0xdf, 0x18, 0xa1, 0x37, 0x6e, 0x65, 0x11, 0x38,
0x07, 0x1b, 0x87, 0x37, 0x16, 0x0d, 0xc9, 0x37, 0x2e, 0x52, 0x71, 0x37, 0x63, 0xb8, 0x9d, 0x37,
0xed, 0x61, 0x62, 0x37, 0xe2, 0x59, 0xdd, 0x37, 0x25, 0xa2, 0xc9, 0x37, 0xcf, 0xa8, 0xa7, 0x37,
0xc0, 0xab, 0x88, 0x37, 0x20, 0x3a, 0x89, 0x37, 0x0e, 0x9b, 0xc9, 0x37, 0xc0, 0xb0, 0xaa, 0x37,
0x2c, 0x31, 0xb2, 0x37, 0x12, 0x5a, 0x7a, 0x37, 0x0b, 0x00, 0x00, 0x00, 0x63, 0x6f, 0x6e, 0x76,
0x32, 0x64, 0x2f, 0x62, 0x69, 0x61, 0x73, 0x00, 0x01, 0x00, 0x00, 0x00, 0x10, 0x00, 0x00, 0x00,
0x62, 0xfe, 0xff, 0xff, 0x14, 0x00, 0x00, 0x00, 0xe8, 0x00, 0x00, 0x00, 0x03, 0x00, 0x00, 0x00,
0x00, 0x00, 0x00, 0x09, 0x04, 0x01, 0x00, 0x00, 0x54, 0xfe, 0xff, 0xff, 0x08, 0x00, 0x00, 0x00,
0x8c, 0x00, 0x00, 0x00, 0x10, 0x00, 0x00, 0x00, 0x00, 0x00, 0x00, 0x00, 0x00, 0x00, 0x00, 0x00,
0x00, 0x00, 0x00, 0x00, 0x00, 0x00, 0x00, 0x00, 0x00, 0x00, 0x00, 0x00, 0x00, 0x00, 0x00, 0x00,
0x00, 0x00, 0x00, 0x00, 0x00, 0x00, 0x00, 0x00, 0x00, 0x00, 0x00, 0x00, 0x00, 0x00, 0x00, 0x00,
0x00, 0x00, 0x00, 0x00, 0x00, 0x00, 0x00, 0x00, 0x00, 0x00, 0x00, 0x00, 0x00, 0x00, 0x00, 0x00,
0x00, 0x00, 0x00, 0x00, 0x00, 0x00, 0x00, 0x00, 0x00, 0x00, 0x00, 0x00, 0x00, 0x00, 0x00, 0x00,
0x00, 0x00, 0x00, 0x00, 0x00, 0x00, 0x00, 0x00, 0x00, 0x00, 0x00, 0x00, 0x00, 0x00, 0x00, 0x00,
0x00, 0x00, 0x00, 0x00, 0x00, 0x00, 0x00, 0x00, 0x00, 0x00, 0x00, 0x00, 0x00, 0x00, 0x00, 0x00,
0x00, 0x00, 0x00, 0x00, 0x00, 0x00, 0x00, 0x00, 0x00, 0x00, 0x00, 0x00, 0x00, 0x00, 0x00, 0x00,
0x00, 0x00, 0x00, 0x00, 0x00, 0x00, 0x00, 0x00, 0x00, 0x00, 0x00, 0x00, 0x10, 0x00, 0x00, 0x00,
0x23, 0xa6, 0x20, 0x3b, 0xe0, 0xfd, 0x90, 0x3b, 0xce, 0xba, 0x06, 0x3b, 0xe5, 0x7d, 0x48, 0x3b,
0x4f, 0xa6, 0xf0, 0x3a, 0x0e, 0x48, 0x1d, 0x3b, 0xb1, 0xc0, 0xe1, 0x3a, 0x3c, 0xbc, 0x5c, 0x3b,
0x8a, 0x12, 0x49, 0x3b, 0x66, 0x31, 0x27, 0x3b, 0x69, 0x4a, 0x08, 0x3b, 0x64, 0xd8, 0x08, 0x3b,
0x78, 0x0b, 0x49, 0x3b, 0x2e, 0x37, 0x2a, 0x3b, 0x43, 0xb2, 0x31, 0x3b, 0xc4, 0xa7, 0xf9, 0x3a,
0x20, 0x00, 0x00, 0x00, 0x6d, 0x6f, 0x64, 0x65, 0x6c, 0x5f, 0x31, 0x2f, 0x73, 0x65, 0x71, 0x75,
0x65, 0x6e, 0x74, 0x69, 0x61, 0x6c, 0x2f, 0x63, 0x6f, 0x6e, 0x76, 0x32, 0x64, 0x2f, 0x43, 0x6f,
0x6e, 0x76, 0x32, 0x44, 0x00, 0x00, 0x00, 0x00, 0x04, 0x00, 0x00, 0x00, 0x10, 0x00, 0x00, 0x00,
0x03, 0x00, 0x00, 0x00, 0x03, 0x00, 0x00, 0x00, 0x01, 0x00, 0x00, 0x00, 0x8e, 0xff, 0xff, 0xff,
0x18, 0x00, 0x00, 0x00, 0x18, 0x00, 0x00, 0x00, 0x02, 0x00, 0x00, 0x00, 0x00, 0x00, 0x00, 0x02,
0x54, 0x00, 0x00, 0x00, 0x04, 0x00, 0x04, 0x00, 0x04, 0x00, 0x00, 0x00, 0x42, 0x00, 0x00, 0x00,
0x6d, 0x6f, 0x64, 0x65, 0x6c, 0x5f, 0x31, 0x2f, 0x73, 0x65, 0x71, 0x75, 0x65, 0x6e, 0x74, 0x69,
0x61, 0x6c, 0x2f, 0x67, 0x6c, 0x6f, 0x62, 0x61, 0x6c, 0x5f, 0x61, 0x76, 0x65, 0x72, 0x61, 0x67,
0x65, 0x5f, 0x70, 0x6f, 0x6f, 0x6c, 0x69, 0x6e, 0x67, 0x32, 0x64, 0x2f, 0x4d, 0x65, 0x61, 0x6e,
0x2f, 0x72, 0x65, 0x64, 0x75, 0x63, 0x74, 0x69, 0x6f, 0x6e, 0x5f, 0x69, 0x6e, 0x64, 0x69, 0x63,
0x65, 0x73, 0x00, 0x00, 0x01, 0x00, 0x00, 0x00, 0x02, 0x00, 0x00, 0x00, 0x00, 0x00, 0x0e, 0x00,
0x18, 0x00, 0x14, 0x00, 0x13, 0x00, 0x0c, 0x00, 0x08, 0x00, 0x04, 0x00, 0x0e, 0x00, 0x00, 0x00,
0x20, 0x00, 0x00, 0x00, 0x40, 0x00, 0x00, 0x00, 0x01, 0x00, 0x00, 0x00, 0x00, 0x00, 0x00, 0x09,
0x54, 0x00, 0x00, 0x00, 0x0c, 0x00, 0x0c, 0x00, 0x00, 0x00, 0x00, 0x00, 0x08, 0x00, 0x04, 0x00,
0x0c, 0x00, 0x00, 0x00, 0x08, 0x00, 0x00, 0x00, 0x14, 0x00, 0x00, 0x00, 0x01, 0x00, 0x00, 0x00,
0x00, 0x00, 0x00, 0x00, 0x00, 0x00, 0x00, 0x00, 0x00, 0x00, 0x00, 0x00, 0x01, 0x00, 0x00, 0x00,
0x6b, 0x5b, 0x00, 0x3c, 0x19, 0x00, 0x00, 0x00, 0x73, 0x65, 0x72, 0x76, 0x69, 0x6e, 0x67, 0x5f,
0x64, 0x65, 0x66, 0x61, 0x75, 0x6c, 0x74, 0x5f, 0x69, 0x6e, 0x70, 0x75, 0x74, 0x5f, 0x32, 0x3a,
0x30, 0x00, 0x00, 0x00, 0x04, 0x00, 0x00, 0x00, 0x01, 0x00, 0x00, 0x00, 0x80, 0x00, 0x00, 0x00,
0x06, 0x00, 0x00, 0x00, 0x01, 0x00, 0x00, 0x00, 0x07, 0x00, 0x00, 0x00, 0x94, 0x00, 0x00, 0x00,
0x74, 0x00, 0x00, 0x00, 0x60, 0x00, 0x00, 0x00, 0x54, 0x00, 0x00, 0x00, 0x38, 0x00, 0x00, 0x00,
0x18, 0x00, 0x00, 0x00, 0x04, 0x00, 0x00, 0x00, 0x94, 0xff, 0xff, 0xff, 0x19, 0x00, 0x00, 0x00,
0x02, 0x00, 0x00, 0x00, 0x00, 0x00, 0x00, 0x19, 0xa4, 0xff, 0xff, 0xff, 0x09, 0x00, 0x00, 0x00,
0x04, 0x00, 0x00, 0x00, 0x00, 0x00, 0x00, 0x09, 0x0c, 0x00, 0x0e, 0x00, 0x0d, 0x00, 0x00, 0x00,
0x08, 0x00, 0x04, 0x00, 0x0c, 0x00, 0x00, 0x00, 0x28, 0x00, 0x00, 0x00, 0x02, 0x00, 0x00, 0x00,
0x00, 0x28, 0x0a, 0x00, 0x08, 0x00, 0x00, 0x00, 0x00, 0x00, 0x04, 0x00, 0x0a, 0x00, 0x00, 0x00,
0x02, 0x00, 0x00, 0x00, 0xe0, 0xff, 0xff, 0xff, 0x12, 0x00, 0x00, 0x00, 0x02, 0x00, 0x00, 0x00,
0x00, 0x00, 0x00, 0x12, 0xf0, 0xff, 0xff, 0xff, 0x11, 0x00, 0x00, 0x00, 0x02, 0x00, 0x00, 0x00,
0x00, 0x00, 0x00, 0x11, 0x0c, 0x00, 0x10, 0x00, 0x0f, 0x00, 0x00, 0x00, 0x08, 0x00, 0x04, 0x00,
0x0c, 0x00, 0x00, 0x00, 0x03, 0x00, 0x00, 0x00, 0x03, 0x00, 0x00, 0x00, 0x00, 0x00, 0x00, 0x03
};

