/***************************************************************************//**
* \file MAGIC_WAND_tflm_model_float.c
*
* \brief
* Autogenerated with ml-coretools, this file contains MAGIC_WAND model data.
* Date: 2022-10-27 15:22:49.155315
*******************************************************************************
* \copyright
* Copyright 2022, Cypress Semiconductor Corporation (an Infineon company).
* All rights reserved.
* You may use this file only in accordance with the license, terms, conditions,
* disclaimers, and limitations in the end user license agreement accompanying
* the software package with which this file was provided.
******************************************************************************/


#include "MAGIC_WAND_tflm_model_float.h"


#ifdef CY_ML_MODEL_MEM
#include "cy_utils.h"
#define Q(x) #x
#define QUOTE(x) Q(x)
CY_SECTION(QUOTE(CY_ML_MODEL_MEM))
const
#endif

uint8_t MAGIC_WAND_model_bin[MAGIC_WAND_MODEL_BIN_LEN] __attribute__((aligned(4))) = {
0x1c, 0x00, 0x00, 0x00, 0x54, 0x46, 0x4c, 0x33, 0x14, 0x00, 0x20, 0x00, 0x1c, 0x00, 0x18, 0x00,
0x14, 0x00, 0x10, 0x00, 0x0c, 0x00, 0x00, 0x00, 0x08, 0x00, 0x04, 0x00, 0x14, 0x00, 0x00, 0x00,
0x1c, 0x00, 0x00, 0x00, 0x90, 0x00, 0x00, 0x00, 0xc0, 0x00, 0x00, 0x00, 0xc8, 0x56, 0x00, 0x00,
0xd8, 0x56, 0x00, 0x00, 0xec, 0x61, 0x00, 0x00, 0x03, 0x00, 0x00, 0x00, 0x01, 0x00, 0x00, 0x00,
0x10, 0x00, 0x00, 0x00, 0x00, 0x00, 0x0a, 0x00, 0x10, 0x00, 0x0c, 0x00, 0x08, 0x00, 0x04, 0x00,
0x0a, 0x00, 0x00, 0x00, 0x0c, 0x00, 0x00, 0x00, 0x1c, 0x00, 0x00, 0x00, 0x3c, 0x00, 0x00, 0x00,
0x0f, 0x00, 0x00, 0x00, 0x73, 0x65, 0x72, 0x76, 0x69, 0x6e, 0x67, 0x5f, 0x64, 0x65, 0x66, 0x61,
0x75, 0x6c, 0x74, 0x00, 0x01, 0x00, 0x00, 0x00, 0x04, 0x00, 0x00, 0x00, 0xc0, 0xff, 0xff, 0xff,
0x15, 0x00, 0x00, 0x00, 0x04, 0x00, 0x00, 0x00, 0x0a, 0x00, 0x00, 0x00, 0x73, 0x65, 0x71, 0x75,
0x65, 0x6e, 0x74, 0x69, 0x61, 0x6c, 0x00, 0x00, 0x01, 0x00, 0x00, 0x00, 0x04, 0x00, 0x00, 0x00,
0x16, 0xa9, 0xff, 0xff, 0x04, 0x00, 0x00, 0x00, 0x07, 0x00, 0x00, 0x00, 0x69, 0x6e, 0x70, 0x75,
0x74, 0x5f, 0x31, 0x00, 0x01, 0x00, 0x00, 0x00, 0x0c, 0x00, 0x00, 0x00, 0x08, 0x00, 0x0c, 0x00,
0x08, 0x00, 0x04, 0x00, 0x08, 0x00, 0x00, 0x00, 0x17, 0x00, 0x00, 0x00, 0x04, 0x00, 0x00, 0x00,
0x13, 0x00, 0x00, 0x00, 0x6d, 0x69, 0x6e, 0x5f, 0x72, 0x75, 0x6e, 0x74, 0x69, 0x6d, 0x65, 0x5f,
0x76, 0x65, 0x72, 0x73, 0x69, 0x6f, 0x6e, 0x00, 0x18, 0x00, 0x00, 0x00, 0x04, 0x56, 0x00, 0x00,
0xfc, 0x55, 0x00, 0x00, 0xdc, 0x55, 0x00, 0x00, 0x8c, 0x55, 0x00, 0x00, 0xfc, 0x54, 0x00, 0x00,
0xac, 0x54, 0x00, 0x00, 0x94, 0x54, 0x00, 0x00, 0x44, 0x54, 0x00, 0x00, 0xf4, 0x53, 0x00, 0x00,
0xe4, 0x4b, 0x00, 0x00, 0xd4, 0x4a, 0x00, 0x00, 0x84, 0x48, 0x00, 0x00, 0x74, 0x00, 0x00, 0x00,
0x6c, 0x00, 0x00, 0x00, 0x64, 0x00, 0x00, 0x00, 0x5c, 0x00, 0x00, 0x00, 0x54, 0x00, 0x00, 0x00,
0x4c, 0x00, 0x00, 0x00, 0x44, 0x00, 0x00, 0x00, 0x3c, 0x00, 0x00, 0x00, 0x34, 0x00, 0x00, 0x00,
0x2c, 0x00, 0x00, 0x00, 0x24, 0x00, 0x00, 0x00, 0x04, 0x00, 0x00, 0x00, 0xc2, 0xa9, 0xff, 0xff,
0x04, 0x00, 0x00, 0x00, 0x10, 0x00, 0x00, 0x00, 0x31, 0x2e, 0x36, 0x2e, 0x30, 0x00, 0x00, 0x00,
0x00, 0x00, 0x00, 0x00, 0x00, 0x00, 0x00, 0x00, 0x04, 0x9f, 0xff, 0xff, 0x08, 0x9f, 0xff, 0xff,
0x0c, 0x9f, 0xff, 0xff, 0x10, 0x9f, 0xff, 0xff, 0x14, 0x9f, 0xff, 0xff, 0x18, 0x9f, 0xff, 0xff,
0x1c, 0x9f, 0xff, 0xff, 0x20, 0x9f, 0xff, 0xff, 0x24, 0x9f, 0xff, 0xff, 0x28, 0x9f, 0xff, 0xff,
0x06, 0xaa, 0xff, 0xff, 0x04, 0x00, 0x00, 0x00, 0x00, 0x48, 0x00, 0x00, 0x99, 0x48, 0x29, 0xbd,
0xe0, 0x21, 0x30, 0xbd, 0xd4, 0x7f, 0xd6, 0xbd, 0x42, 0x65, 0x04, 0x3d, 0xa6, 0xb4, 0x01, 0xbd,
0x39, 0x62, 0x72, 0x3e, 0x57, 0xf4, 0x3f, 0x3c, 0x6c, 0x09, 0x36, 0xbe, 0xdd, 0x2e, 0xa0, 0xbb,
0x53, 0x58, 0x1d, 0xbe, 0x48, 0xe6, 0xef, 0xbd, 0x24, 0x98, 0x82, 0x3d, 0xcf, 0xb6, 0x4f, 0x3d,
0x9c, 0x11, 0x0a, 0x3e, 0x3e, 0xd7, 0x01, 0x3d, 0x34, 0x7a, 0xdc, 0x3d, 0x93, 0x29, 0x4d, 0xbe,
0xad, 0xb1, 0xbc, 0x3d, 0x31, 0x50, 0x40, 0xbd, 0x67, 0x6c, 0x88, 0x3d, 0xe7, 0xfb, 0xc4, 0xbd,
0x2f, 0xd5, 0x37, 0xbd, 0x70, 0x46, 0x0f, 0xbd, 0xb9, 0x56, 0xab, 0xbd, 0xe5, 0xd9, 0xe9, 0x3c,
0x32, 0x78, 0xcd, 0xbd, 0x79, 0x67, 0xc3, 0xbd, 0x5c, 0x8a, 0xc4, 0xbd, 0xb2, 0xfe, 0x80, 0xbd,
0x74, 0x34, 0x17, 0x3d, 0xbb, 0xcb, 0x01, 0x3d, 0x38, 0x52, 0xb0, 0xbd, 0x35, 0xb5, 0x95, 0xbd,
0x75, 0xa0, 0x8c, 0x3b, 0x90, 0x89, 0x4a, 0x3d, 0xd1, 0x2a, 0xb1, 0xbc, 0xd0, 0xd6, 0xc2, 0xbc,
0xd3, 0x61, 0x39, 0x3d, 0xeb, 0x03, 0x9d, 0xbd, 0x00, 0x72, 0x6f, 0x3b, 0xa9, 0x1d, 0xef, 0x3d,
0x93, 0x64, 0x98, 0x3d, 0xdd, 0x45, 0x0f, 0xbd, 0x68, 0xed, 0x27, 0x3c, 0x88, 0x81, 0x9c, 0xbd,
0xe7, 0xb9, 0x85, 0x3d, 0xbf, 0x21, 0x4e, 0xbe, 0xf7, 0x7c, 0xe0, 0x3d, 0xaf, 0x0e, 0xa7, 0xbd,
0x71, 0xdd, 0xed, 0xbd, 0xb0, 0xcf, 0xf9, 0xbc, 0xe9, 0x2f, 0xb5, 0xbb, 0x4d, 0x80, 0x24, 0xbe,
0xb9, 0x71, 0xaf, 0x3e, 0x8a, 0x35, 0x11, 0xbe, 0xd9, 0x9a, 0x91, 0xbe, 0x7c, 0xe8, 0xf8, 0x3d,
0x28, 0x2d, 0x42, 0xbe, 0x13, 0xff, 0xdf, 0x3d, 0x7a, 0x97, 0x84, 0x3d, 0xc1, 0x39, 0x06, 0xbc,
0x7a, 0x24, 0x61, 0x3e, 0xdf, 0x39, 0x27, 0x3e, 0x9e, 0x72, 0x86, 0xba, 0xaa, 0x9a, 0xf4, 0xbc,
0x6c, 0x7a, 0x8a, 0x3d, 0x5d, 0x90, 0x9c, 0xbc, 0xb2, 0x33, 0xb1, 0x3d, 0x06, 0x2b, 0xca, 0xbd,
0x68, 0xc4, 0x4e, 0xbd, 0x3b, 0x2c, 0x47, 0xbd, 0x0f, 0xde, 0x10, 0xbe, 0x4c, 0x21, 0xee, 0x3d,
0x07, 0x07, 0xfe, 0xbc, 0x2c, 0xee, 0xa6, 0xbd, 0xaf, 0x65, 0x1b, 0xbe, 0xc2, 0x67, 0x4c, 0xbe,
0x06, 0xcb, 0xbb, 0x3c, 0xb2, 0x31, 0xbc, 0xbd, 0x53, 0x61, 0x3b, 0xbd, 0xa9, 0xd5, 0x90, 0xbd,
0x6c, 0x98, 0xe8, 0xbc, 0x77, 0x65, 0x02, 0x3c, 0xb6, 0xcb, 0x0a, 0xbd, 0x4c, 0xdd, 0x49, 0x3c,
0x3b, 0x6f, 0xe8, 0x3b, 0xd2, 0xcb, 0xda, 0xbd, 0x74, 0x4a, 0x3d, 0xbd, 0x1b, 0x30, 0xa4, 0x3d,
0x2d, 0x56, 0xb6, 0x3d, 0xa2, 0x23, 0xc0, 0xbb, 0x62, 0xcb, 0xdd, 0xbc, 0xf7, 0x2f, 0x58, 0xbd,
0xe4, 0x8f, 0x13, 0xbc, 0xc1, 0xa1, 0x5c, 0x3d, 0xc8, 0x71, 0xfd, 0x3d, 0x6b, 0xa3, 0x2a, 0xbe,
0x1e, 0x46, 0x3e, 0xbd, 0x6a, 0x28, 0x78, 0xbe, 0xe2, 0xf1, 0x2f, 0xbd, 0x6d, 0xaf, 0x5a, 0x3d,
0xb0, 0x02, 0xbf, 0x3e, 0xaa, 0xd4, 0x82, 0x3d, 0xf1, 0x01, 0x9d, 0xbe, 0x5d, 0xd6, 0x1a, 0x3e,
0x22, 0x01, 0x6f, 0xbe, 0xc2, 0x5e, 0xc7, 0xbd, 0xa8, 0x89, 0x4a, 0x3b, 0x93, 0xd9, 0x58, 0xbd,
0x5e, 0x65, 0x11, 0x3e, 0x4c, 0x57, 0xc9, 0x3d, 0x65, 0x5b, 0xec, 0x3c, 0xa5, 0x99, 0xe1, 0xbd,
0x51, 0x5f, 0x83, 0x3c, 0xbc, 0x28, 0x60, 0x3d, 0xa0, 0x7f, 0x3e, 0xbc, 0x2d, 0x88, 0x4e, 0xbc,
0xd8, 0x34, 0x09, 0x3b, 0xbc, 0xe5, 0x7f, 0xbc, 0x16, 0x1b, 0xef, 0xbd, 0x1c, 0xf6, 0x09, 0x3e,
0x2f, 0xea, 0xf6, 0x3c, 0x80, 0x95, 0xf9, 0xbc, 0xb6, 0xac, 0xd4, 0xbd, 0xd0, 0x2b, 0xe8, 0xbd,
0x7f, 0x79, 0x66, 0x3b, 0xde, 0x84, 0x41, 0xbd, 0x35, 0x69, 0x8a, 0xbc, 0xb7, 0xcf, 0xdc, 0xbd,
0xdc, 0x35, 0x52, 0xbe, 0x1d, 0x64, 0x37, 0x3b, 0x7d, 0x78, 0x03, 0xbe, 0xd5, 0x9d, 0x02, 0x3d,
0x4e, 0xd6, 0x28, 0xbb, 0xdf, 0xf3, 0x2a, 0xbe, 0xf6, 0x62, 0x2a, 0x3e, 0x67, 0xd7, 0x0c, 0x3c,
0x92, 0x9f, 0xcc, 0x3b, 0xbc, 0xb1, 0x1d, 0xbd, 0xf6, 0x3a, 0x0e, 0x3d, 0x56, 0x7d, 0x0f, 0xbd,
0xc6, 0x66, 0x8e, 0x3c, 0x76, 0xe8, 0xd2, 0x3c, 0x8a, 0x1f, 0x1d, 0xbb, 0x9f, 0x7c, 0x88, 0x3d,
0xad, 0x2b, 0x64, 0xbe, 0xea, 0xbc, 0x72, 0xbc, 0x13, 0x30, 0xcc, 0xbd, 0x7b, 0x0e, 0x70, 0x3d,
0x26, 0xc2, 0x16, 0x3d, 0xda, 0xbd, 0xe1, 0x3d, 0x77, 0x38, 0xae, 0x3e, 0x57, 0xf1, 0xaa, 0xbd,
0x9f, 0x0b, 0x5f, 0xbd, 0x75, 0xc6, 0xe3, 0x3b, 0xba, 0x63, 0x4f, 0x3e, 0xfb, 0x02, 0x1c, 0xbc,
0x05, 0xcf, 0xaa, 0x3d, 0xaf, 0x00, 0x10, 0x3c, 0x17, 0xbd, 0x92, 0x3d, 0x7c, 0x03, 0x56, 0x3d,
0x23, 0xbe, 0x08, 0xbd, 0x15, 0x6e, 0xa2, 0x3d, 0x3e, 0x85, 0xfc, 0xbc, 0x89, 0xbc, 0x06, 0xbd,
0xd3, 0x78, 0x18, 0x3e, 0x59, 0x97, 0x1b, 0x3c, 0x42, 0x14, 0x56, 0xbe, 0xf3, 0x45, 0x9d, 0x3c,
0x46, 0x04, 0x6d, 0xbc, 0x9d, 0xbf, 0x0f, 0x3d, 0x8a, 0x6c, 0x07, 0x3e, 0x37, 0xd4, 0x17, 0x3e,
0xfb, 0x44, 0xab, 0x3c, 0x8a, 0xfc, 0x1c, 0x3e, 0xc5, 0x64, 0xc4, 0xbd, 0x18, 0x9a, 0x22, 0xbd,
0x66, 0x10, 0x78, 0x3e, 0xe0, 0xd5, 0x92, 0x3c, 0x22, 0x1b, 0x6b, 0xbc, 0xa0, 0x3e, 0xc7, 0xbd,
0x16, 0x99, 0x4f, 0xbd, 0xa0, 0xa5, 0x30, 0xbd, 0x03, 0x7f, 0x7e, 0xbd, 0x38, 0xed, 0x37, 0x3e,
0x84, 0x93, 0x71, 0x3d, 0xb8, 0x89, 0xa7, 0x3b, 0x15, 0x1e, 0x6d, 0xbd, 0x44, 0xcb, 0x8e, 0xbc,
0x8b, 0x21, 0x4e, 0xbd, 0x3e, 0xa7, 0x59, 0xbe, 0x29, 0xb1, 0x90, 0xbd, 0xcd, 0xed, 0x9b, 0xbc,
0x4e, 0xd3, 0x04, 0xbe, 0xef, 0x93, 0xc4, 0xbd, 0x7b, 0x41, 0xa1, 0x3b, 0x53, 0x56, 0x87, 0x3d,
0x59, 0x6a, 0x5c, 0x3e, 0xbb, 0xe8, 0x85, 0xbc, 0x99, 0xa9, 0xf4, 0x3d, 0x22, 0xd5, 0x9c, 0xbd,
0x8b, 0xe9, 0x30, 0xbe, 0x77, 0xe1, 0xed, 0x3d, 0x8a, 0x65, 0x2b, 0x3e, 0x05, 0xac, 0xbd, 0x3c,
0x92, 0x48, 0x6e, 0x3e, 0x37, 0x2e, 0x74, 0x3d, 0x84, 0x4b, 0x87, 0xbc, 0x31, 0x0c, 0x3d, 0xbc,
0x8f, 0xa7, 0xc0, 0x3d, 0xf7, 0x62, 0xef, 0xbc, 0x53, 0x2f, 0x08, 0xbd, 0x1f, 0x2e, 0xc4, 0xbd,
0x65, 0xe1, 0xfd, 0x3d, 0x76, 0xe4, 0x31, 0xbc, 0x18, 0x54, 0x4d, 0xbe, 0x4c, 0x8d, 0xd3, 0xbc,
0x52, 0xe5, 0x26, 0xbd, 0x56, 0x1e, 0xef, 0x3c, 0xb3, 0x31, 0x98, 0x3d, 0xe4, 0x86, 0x15, 0x3d,
0xf6, 0x04, 0xc3, 0x3d, 0x44, 0x6d, 0x70, 0x3e, 0xf0, 0x56, 0x89, 0xbd, 0x85, 0xf2, 0x3a, 0xbe,
0x91, 0x2e, 0x1b, 0x3e, 0x3c, 0x1a, 0xfa, 0x3c, 0x1f, 0xa1, 0x3a, 0x3d, 0x54, 0x77, 0x95, 0x3c,
0x93, 0xbc, 0xa3, 0xbd, 0xf4, 0xd2, 0x29, 0xbe, 0xb3, 0xe5, 0xba, 0xbd, 0x00, 0x84, 0x1f, 0x3e,
0xa1, 0x04, 0x84, 0x3d, 0xd3, 0x3c, 0x6e, 0xbd, 0x32, 0x09, 0x93, 0xbd, 0x73, 0x9f, 0x50, 0x3d,
0xfd, 0x68, 0x47, 0x3d, 0xea, 0x64, 0x4b, 0xbe, 0xaf, 0x04, 0x47, 0xbe, 0x28, 0x07, 0x13, 0x3d,
0x98, 0x5e, 0x47, 0xbe, 0x75, 0x16, 0xd9, 0xbd, 0xa4, 0x9e, 0xb5, 0xbc, 0x60, 0xb2, 0x3b, 0xbc,
0xf2, 0x29, 0x3c, 0x3e, 0x3f, 0xb3, 0x2e, 0x3c, 0xb8, 0x70, 0x85, 0x3d, 0xb0, 0x34, 0x9d, 0xbd,
0xae, 0xc7, 0x2b, 0xbe, 0x38, 0x0a, 0x16, 0x3d, 0xba, 0x32, 0x24, 0x3e, 0x7e, 0x78, 0xb7, 0x3c,
0xeb, 0x4a, 0x0e, 0x3e, 0x68, 0x24, 0x56, 0x3e, 0x00, 0xc8, 0x54, 0xbd, 0xd5, 0xa0, 0x95, 0xbd,
0x0a, 0xd4, 0xbb, 0x3d, 0xbd, 0xc0, 0x81, 0xbc, 0xb1, 0x9b, 0x4e, 0x3c, 0xbc, 0x21, 0xfb, 0xbd,
0x9a, 0x08, 0xc8, 0x3c, 0xe4, 0xfd, 0x2a, 0xbe, 0x63, 0x27, 0x02, 0xbd, 0x67, 0x7f, 0x17, 0x3e,
0x55, 0xf3, 0xb2, 0x3b, 0xa6, 0xb3, 0x03, 0x3d, 0xf6, 0x96, 0x22, 0xbe, 0xa4, 0x6c, 0xea, 0xbd,
0x15, 0x5d, 0x9d, 0xbd, 0xa6, 0xb3, 0xd4, 0xbc, 0x82, 0x4a, 0xd9, 0xbd, 0x38, 0xff, 0x67, 0xbd,
0xbe, 0xbe, 0xe5, 0x3d, 0xd8, 0x9e, 0xda, 0x3d, 0x1a, 0xc6, 0x53, 0xbc, 0x33, 0x69, 0xbd, 0xbd,
0x88, 0x7e, 0xf2, 0x3b, 0x5e, 0xfa, 0xdc, 0xbc, 0x5f, 0x3d, 0x7c, 0x3d, 0x60, 0xe8, 0x5f, 0x3d,
0x51, 0xc5, 0xdd, 0x3d, 0x76, 0xe3, 0xa6, 0xbd, 0x5d, 0x6f, 0x01, 0x3d, 0x3d, 0xaa, 0x91, 0xbd,
0xf3, 0x87, 0xf4, 0xbd, 0x6c, 0x5e, 0x0c, 0xbd, 0xb7, 0xa5, 0x95, 0xbd, 0xbd, 0xa6, 0xae, 0x3c,
0x13, 0xa5, 0xa9, 0xbd, 0x5b, 0x53, 0x1d, 0x3e, 0xc8, 0x38, 0x72, 0x3d, 0xe1, 0x7f, 0x79, 0xbd,
0x29, 0xff, 0x5f, 0xbc, 0x6a, 0x2d, 0x80, 0xbe, 0xf4, 0x12, 0xff, 0x3d, 0x9f, 0xff, 0xd6, 0x3d,
0x3f, 0x02, 0x91, 0x3d, 0x4b, 0xdb, 0xfc, 0x3c, 0xc3, 0x03, 0x8e, 0xbd, 0x7c, 0x9f, 0xb6, 0xbe,
0x3f, 0xcc, 0x11, 0xbe, 0x50, 0x9e, 0x3e, 0xbe, 0x95, 0xa1, 0xce, 0x3c, 0xd0, 0x9b, 0xee, 0x3c,
0xaf, 0x04, 0x59, 0x3e, 0xa6, 0xfa, 0xc9, 0xbd, 0x6e, 0xe2, 0x39, 0x3e, 0x70, 0x74, 0xbc, 0x3d,
0x38, 0x5b, 0xbb, 0x3d, 0x7b, 0xba, 0x97, 0x3d, 0xf4, 0xc8, 0x67, 0xbe, 0x0e, 0xa9, 0xa9, 0xbb,
0x8d, 0xa0, 0x4e, 0x3c, 0xb9, 0xa8, 0x87, 0xbc, 0xe2, 0x66, 0xb9, 0x3e, 0x92, 0x63, 0x1e, 0x3e,
0x00, 0x2d, 0x2f, 0x3d, 0x77, 0x9c, 0x12, 0x3d, 0x13, 0x25, 0xf5, 0x3d, 0xeb, 0x0e, 0x93, 0xbc,
0xc7, 0x68, 0xbc, 0xbe, 0x42, 0xf8, 0xf3, 0x3c, 0x46, 0x42, 0xd6, 0xbd, 0x2c, 0xa1, 0x9d, 0x3d,
0xa0, 0x0d, 0x6d, 0xbe, 0x98, 0x86, 0x90, 0x3d, 0x39, 0xaa, 0x6c, 0xbc, 0xfa, 0xca, 0x11, 0xbd,
0xdd, 0x9b, 0x1a, 0xbd, 0x12, 0xc0, 0xeb, 0x3b, 0x8d, 0x62, 0x0a, 0x3c, 0x3b, 0xd1, 0x00, 0x3e,
0x74, 0x41, 0xb1, 0xbd, 0x53, 0x2f, 0x0c, 0x3e, 0x24, 0x6d, 0x84, 0x3d, 0xfc, 0x3f, 0x94, 0x3d,
0x3b, 0x4a, 0xd7, 0xbd, 0xdb, 0x76, 0xeb, 0x3b, 0x03, 0x8a, 0x39, 0xbd, 0x07, 0x5e, 0xd4, 0xbd,
0x1b, 0x3e, 0x06, 0xba, 0xbf, 0x37, 0x2d, 0xbe, 0x47, 0x6a, 0xa9, 0x3e, 0x03, 0xf0, 0xd9, 0xbd,
0x42, 0x4d, 0xb0, 0x3d, 0xe0, 0xf6, 0x31, 0x3e, 0x7e, 0x0a, 0x38, 0xbe, 0xb4, 0xdb, 0x65, 0xbe,
0xf2, 0x7e, 0xcf, 0x3c, 0xc5, 0xf6, 0x08, 0xbe, 0xfb, 0x14, 0x57, 0x3d, 0x79, 0x4f, 0x7c, 0xbc,
0xa1, 0x68, 0xa8, 0x3e, 0x1d, 0x20, 0x44, 0xbd, 0xf5, 0x0e, 0x82, 0x3e, 0x28, 0xac, 0x8a, 0x3d,
0xf4, 0x88, 0x60, 0x3d, 0x34, 0x75, 0x2a, 0xbd, 0xd1, 0x86, 0x3d, 0xbd, 0x43, 0xb6, 0x9f, 0xbc,
0xbc, 0x66, 0x6e, 0x3e, 0x5c, 0x4e, 0xca, 0x3d, 0xdd, 0x12, 0x49, 0x3e, 0x37, 0xc9, 0x63, 0xbc,
0x12, 0x1c, 0x58, 0x3d, 0x3e, 0xfb, 0x72, 0xbb, 0xfc, 0x64, 0xef, 0x3c, 0xa2, 0xe1, 0xba, 0x3d,
0x79, 0x16, 0x74, 0xbe, 0x13, 0xd7, 0xd7, 0xbc, 0x05, 0x88, 0x48, 0xbe, 0x26, 0xb7, 0xca, 0x3d,
0x61, 0x2e, 0x1b, 0xbe, 0xd1, 0x60, 0xcc, 0x3c, 0x4c, 0x67, 0x9e, 0x3c, 0xdd, 0x8d, 0xc0, 0xbd,
0x6e, 0x02, 0x95, 0x3d, 0x57, 0x62, 0x18, 0xbe, 0xb4, 0xa3, 0x45, 0xbd, 0xfb, 0xa7, 0xca, 0x3c,
0x11, 0xad, 0x4d, 0xbe, 0xca, 0x89, 0xb8, 0x3b, 0xbc, 0x81, 0x06, 0xbe, 0x01, 0x80, 0xbc, 0x3d,
0x66, 0x72, 0x1d, 0xbe, 0xc4, 0xdb, 0x97, 0x3d, 0xcf, 0x89, 0xef, 0x3c, 0x32, 0xa9, 0xc9, 0x3a,
0x50, 0x38, 0x41, 0x3c, 0x7b, 0x2a, 0x2c, 0xbe, 0x50, 0x1d, 0xb6, 0x3d, 0x05, 0x41, 0x25, 0xbd,
0x42, 0xc4, 0x18, 0x3e, 0xe3, 0xd9, 0x04, 0x3e, 0x13, 0x0c, 0x81, 0xbe, 0x3f, 0xff, 0xb7, 0xbe,
0xa6, 0x34, 0x02, 0xbe, 0x70, 0xde, 0x72, 0xbe, 0xd0, 0xb4, 0xa8, 0x3c, 0x89, 0xe8, 0xe9, 0x3d,
0x48, 0xbb, 0x7f, 0x3e, 0xc4, 0x26, 0x83, 0xbd, 0xda, 0x46, 0x99, 0x3d, 0x1b, 0x2a, 0x09, 0x3d,
0x30, 0xb1, 0xfe, 0x3d, 0x4a, 0x59, 0x91, 0xbc, 0x9d, 0x28, 0x44, 0x3d, 0x47, 0x3b, 0x1b, 0x3e,
0x4e, 0xa8, 0x6d, 0x3d, 0xbf, 0xaa, 0x76, 0xbd, 0xb6, 0x23, 0x78, 0x3e, 0x65, 0x3e, 0xca, 0xba,
0xc5, 0x05, 0xec, 0x3c, 0xda, 0x78, 0x05, 0x3e, 0xee, 0x2b, 0x59, 0x3d, 0x70, 0x95, 0xb1, 0x3b,
0x51, 0x82, 0x5a, 0xbe, 0x53, 0xf9, 0x21, 0xbe, 0xa1, 0x82, 0x85, 0xbd, 0x22, 0x6a, 0xf1, 0x3b,
0x66, 0xc3, 0x9b, 0xbe, 0x6a, 0x9f, 0x92, 0xbc, 0xb9, 0xc7, 0x63, 0x3d, 0x9b, 0xc7, 0xa9, 0x3c,
0x54, 0x59, 0xa2, 0xbc, 0xbf, 0x5a, 0x39, 0xbc, 0xfb, 0xa3, 0x34, 0x3e, 0xc5, 0x67, 0x9a, 0x3d,
0xda, 0x0c, 0x14, 0x3c, 0xdd, 0x90, 0x91, 0xbd, 0xb4, 0x93, 0x47, 0xbd, 0x7a, 0x21, 0x81, 0x3d,
0xff, 0xf5, 0xac, 0xbd, 0x20, 0x69, 0x41, 0xbd, 0xe5, 0x07, 0x21, 0x3e, 0x59, 0x69, 0xb0, 0xbc,
0x01, 0x02, 0x35, 0xbd, 0x34, 0xa0, 0xb4, 0x3d, 0x25, 0x44, 0x11, 0xbd, 0x4b, 0x25, 0xe9, 0xbd,
0x09, 0x67, 0x37, 0xbd, 0xb3, 0xb7, 0xce, 0x3c, 0x30, 0xfe, 0xe9, 0x3d, 0xb9, 0x0f, 0x91, 0xbb,
0x81, 0xe4, 0xc1, 0x3d, 0x89, 0x02, 0x70, 0x3e, 0x2f, 0xc6, 0x6b, 0x3d, 0x40, 0xa4, 0xab, 0x3c,
0xf4, 0xf9, 0x17, 0xbc, 0xc6, 0x38, 0xd0, 0x3c, 0x93, 0xed, 0x94, 0x3b, 0xa6, 0x99, 0xe8, 0x3d,
0x9b, 0x2f, 0xf9, 0x3c, 0xca, 0x6a, 0x82, 0x3d, 0x1d, 0x54, 0x0d, 0x3d, 0xb5, 0xf6, 0xa4, 0xbd,
0xe8, 0xcc, 0x98, 0x3d, 0x1b, 0x67, 0xa0, 0xbc, 0x6c, 0x72, 0x89, 0xbc, 0x8c, 0xd0, 0x11, 0x3c,
0x89, 0xf5, 0xd9, 0x3c, 0x69, 0xb5, 0xa5, 0x3a, 0x4e, 0x9d, 0x32, 0xbe, 0x89, 0x65, 0x4a, 0xbd,
0xd3, 0x42, 0xb8, 0x3d, 0xbf, 0x54, 0x83, 0xbd, 0x91, 0x53, 0xb6, 0x3d, 0x0a, 0x26, 0xd3, 0x3b,
0x72, 0xb4, 0x9f, 0x3d, 0xb7, 0xaa, 0x2e, 0x3c, 0xca, 0xd7, 0xbb, 0xbd, 0x93, 0x8a, 0x34, 0x3d,
0xd4, 0xd8, 0xdc, 0x3c, 0x58, 0x84, 0xdc, 0x3d, 0xc2, 0x1c, 0x3c, 0xbe, 0x38, 0x2c, 0x75, 0xbc,
0xa2, 0xd7, 0x25, 0x3e, 0x99, 0x77, 0x96, 0xbd, 0xa9, 0x31, 0x20, 0xbd, 0xf7, 0x05, 0x86, 0xbd,
0x17, 0x24, 0x87, 0xbd, 0x4b, 0xa9, 0xf5, 0xbd, 0x0d, 0xc4, 0xf1, 0x3d, 0x34, 0x73, 0x80, 0x3d,
0x94, 0xaf, 0x80, 0xbe, 0xae, 0x16, 0xe9, 0x3d, 0x61, 0x39, 0x3c, 0x3e, 0x81, 0x4c, 0x84, 0xbd,
0x32, 0x27, 0x50, 0xbc, 0x4a, 0xe8, 0xf4, 0x3c, 0xee, 0x1d, 0xef, 0x3d, 0x67, 0xa7, 0x39, 0xbc,
0xf0, 0x52, 0x98, 0x3d, 0x88, 0xb4, 0xc9, 0x3d, 0xf6, 0x5b, 0xaf, 0xbd, 0xc6, 0x62, 0x9f, 0x3d,
0xcf, 0x74, 0x50, 0x3d, 0x83, 0x14, 0x7d, 0x3b, 0x95, 0x94, 0x78, 0xbc, 0x58, 0xf1, 0xdc, 0x3d,
0xb3, 0x06, 0xbd, 0x3a, 0x8d, 0x99, 0x0a, 0x3b, 0xee, 0x07, 0xe8, 0xbc, 0xcc, 0x8b, 0x9c, 0xbd,
0x42, 0x8a, 0x1d, 0x3e, 0x85, 0x9f, 0x95, 0x3d, 0x3d, 0xbf, 0x0f, 0xbd, 0xf9, 0x99, 0x3d, 0x3d,
0x20, 0x32, 0x34, 0x3e, 0x41, 0x5f, 0xb1, 0x3d, 0xcf, 0xdc, 0x07, 0xbe, 0xe0, 0xf7, 0x69, 0xbd,
0x5f, 0xeb, 0x73, 0x3e, 0x0c, 0xeb, 0x72, 0x3d, 0x22, 0xab, 0xc2, 0x3d, 0x85, 0x64, 0x75, 0xbd,
0x89, 0xe1, 0x35, 0x3e, 0x14, 0x82, 0x8c, 0xbc, 0x23, 0x19, 0x4d, 0xbe, 0xf5, 0x8f, 0xa5, 0x3d,
0xf2, 0xe5, 0x40, 0xbd, 0xc2, 0x52, 0x7d, 0xbc, 0xb5, 0xad, 0xea, 0xbd, 0x1c, 0x0e, 0xc9, 0xbc,
0x82, 0x79, 0x34, 0x3e, 0x6b, 0x68, 0xc8, 0xbd, 0x26, 0xd4, 0x9e, 0xbd, 0x98, 0x00, 0xb0, 0x3d,
0x1b, 0xcc, 0x44, 0xbd, 0x7f, 0x8a, 0xd7, 0x3d, 0x81, 0xff, 0xf6, 0x3d, 0x36, 0x4b, 0xba, 0x3d,
0x55, 0xb0, 0x3d, 0xbe, 0x8a, 0xfb, 0x30, 0x3e, 0xef, 0x33, 0x94, 0x3e, 0x3d, 0xde, 0xef, 0xbd,
0x22, 0xd8, 0xdc, 0xbc, 0xaf, 0x22, 0x9b, 0x3d, 0x17, 0xb5, 0x2c, 0x3c, 0xe3, 0x5f, 0x86, 0xbd,
0xb1, 0xe9, 0x0f, 0x3d, 0xb3, 0x6e, 0x00, 0x3e, 0x6a, 0x2d, 0xd7, 0x3b, 0x30, 0x92, 0xaf, 0x3d,
0xef, 0xc5, 0xb7, 0x3d, 0x04, 0x53, 0x7a, 0x3d, 0x0c, 0x4d, 0x01, 0x3d, 0x29, 0x08, 0x3a, 0x3e,
0xb0, 0xe9, 0xb0, 0x3d, 0x12, 0x58, 0xf6, 0x3d, 0xd2, 0x43, 0x52, 0x3d, 0xbc, 0xa7, 0x92, 0x3d,
0x20, 0x5d, 0x72, 0x3d, 0x07, 0x98, 0x98, 0x3d, 0x59, 0xf6, 0x10, 0xbe, 0xd2, 0xf8, 0x97, 0x3d,
0x24, 0xb2, 0xb8, 0x3c, 0xaf, 0x4c, 0x06, 0xbc, 0x76, 0x7f, 0xd2, 0xbd, 0xce, 0x3d, 0x9f, 0x3d,
0x7f, 0xe7, 0x1b, 0x3e, 0x9b, 0x13, 0xf0, 0x3d, 0xe5, 0xd9, 0xca, 0xbb, 0xe9, 0x77, 0x70, 0x3a,
0x2c, 0x20, 0xb0, 0x3d, 0x9b, 0x5d, 0xf5, 0xbc, 0xf7, 0x1a, 0x31, 0xbe, 0xba, 0xc8, 0xd0, 0x3d,
0xc5, 0x87, 0x98, 0xbd, 0x25, 0xe7, 0x11, 0x3d, 0x88, 0x5e, 0xba, 0xbd, 0xaa, 0x42, 0x46, 0x3c,
0x1e, 0xc8, 0x20, 0x3e, 0xbe, 0xf1, 0x05, 0xbd, 0x80, 0x4e, 0x21, 0xbc, 0xa8, 0xc0, 0xf4, 0xbc,
0x57, 0xc1, 0xa3, 0x3d, 0xd6, 0x6b, 0x82, 0xbd, 0xdc, 0xb9, 0xe1, 0xbd, 0xe7, 0x11, 0x98, 0x3a,
0xe3, 0xc7, 0x58, 0xbd, 0x02, 0xfc, 0x48, 0xbd, 0x94, 0x32, 0x7a, 0x3c, 0xfe, 0xd8, 0xeb, 0xbd,
0x03, 0xe1, 0x6d, 0x3e, 0xdc, 0x4e, 0xb3, 0xbc, 0x21, 0x29, 0x0d, 0xbe, 0x15, 0x61, 0x06, 0x3b,
0xc6, 0x44, 0x3c, 0xbe, 0x4d, 0xf1, 0x7e, 0xbd, 0xa2, 0x7d, 0x2b, 0xbe, 0x60, 0x0b, 0xbc, 0xbc,
0x0d, 0x0a, 0xcf, 0x3c, 0x39, 0xd0, 0x3f, 0x3d, 0x7c, 0xe9, 0x8a, 0xbc, 0x97, 0x51, 0xa4, 0x3c,
0x6a, 0x64, 0x22, 0x3e, 0xe1, 0xef, 0x3f, 0xbe, 0xe6, 0x89, 0x16, 0x3e, 0x59, 0xb9, 0x95, 0x3e,
0x86, 0xd6, 0xab, 0x3d, 0x94, 0x82, 0xbf, 0xbd, 0xe9, 0x7d, 0x36, 0xbe, 0xf9, 0x9b, 0x9d, 0x39,
0xc5, 0x3f, 0x17, 0x3d, 0x9c, 0x44, 0x40, 0xbe, 0xca, 0xbf, 0x81, 0x3d, 0xa5, 0x49, 0x9f, 0x3c,
0x41, 0x3f, 0x2c, 0xbe, 0x44, 0xdb, 0xb5, 0xbd, 0xf0, 0xfc, 0xd0, 0xbd, 0xde, 0x7d, 0x9e, 0xbd,
0x8f, 0x92, 0x99, 0xbd, 0x45, 0x71, 0x79, 0x3d, 0xa6, 0x3d, 0x71, 0xbd, 0x13, 0x29, 0x91, 0xbd,
0x59, 0x03, 0x6b, 0xbe, 0x45, 0x35, 0x83, 0x3d, 0xc7, 0x7b, 0x95, 0xbd, 0xea, 0x5a, 0x83, 0xba,
0x53, 0xb6, 0xb1, 0xbc, 0x03, 0x33, 0xea, 0x3d, 0x05, 0x0d, 0x31, 0x3d, 0x8c, 0xfc, 0xcc, 0xbc,
0x8a, 0x18, 0x99, 0x3c, 0xce, 0xfc, 0x5a, 0xbd, 0xb7, 0x56, 0x6f, 0xbe, 0x21, 0x57, 0x25, 0x3c,
0x62, 0x15, 0x4d, 0xbd, 0x82, 0x92, 0x40, 0xbd, 0x6f, 0x20, 0x40, 0x3d, 0x97, 0x8e, 0x38, 0xbd,
0x25, 0xb0, 0x80, 0x3e, 0x9c, 0x04, 0xa4, 0x3b, 0x0a, 0x06, 0x02, 0xbe, 0xb4, 0x46, 0x09, 0x3d,
0x84, 0xd6, 0xd4, 0xbd, 0x60, 0xe8, 0x93, 0xbe, 0x19, 0xcf, 0x55, 0xbc, 0x10, 0xf6, 0xfd, 0xbc,
0x80, 0xdd, 0x18, 0x3c, 0xbb, 0x72, 0x18, 0x3e, 0x75, 0x54, 0x9e, 0x3d, 0x0d, 0x6c, 0x9e, 0xbd,
0x61, 0xd0, 0x71, 0x3e, 0x87, 0x16, 0x33, 0xbd, 0xf9, 0xe1, 0x9b, 0x3d, 0x04, 0xe1, 0x09, 0x3e,
0xd9, 0xeb, 0x02, 0x3e, 0x72, 0xde, 0x29, 0xbd, 0xf3, 0x24, 0x53, 0xbe, 0x9e, 0xd2, 0x77, 0xbd,
0xce, 0x25, 0xd8, 0x3c, 0x29, 0xaa, 0xeb, 0xbd, 0x74, 0xd5, 0x1e, 0x3d, 0xa1, 0x27, 0xa7, 0xbc,
0x55, 0x81, 0xf3, 0xbd, 0x76, 0xab, 0xd0, 0x3c, 0xe6, 0x46, 0xa2, 0xbc, 0x46, 0x98, 0x2c, 0xbd,
0xf5, 0x07, 0x14, 0xbd, 0xdc, 0x2c, 0xea, 0x3c, 0xd3, 0x7e, 0xc5, 0x3c, 0x96, 0xb1, 0xa4, 0xbd,
0xb0, 0x8b, 0xf1, 0xbd, 0xce, 0x00, 0x24, 0x3d, 0x3a, 0x9c, 0xf6, 0xbd, 0xe9, 0x60, 0xea, 0xbd,
0x25, 0x1f, 0x3f, 0xbe, 0xa1, 0x6b, 0xc6, 0xbd, 0x8c, 0x12, 0x7c, 0x3c, 0x81, 0x16, 0x8b, 0xbd,
0x10, 0x7e, 0x9e, 0x3c, 0x59, 0x46, 0xd1, 0xbd, 0xa3, 0x90, 0x6b, 0xbd, 0x17, 0x3c, 0x6b, 0xbd,
0xd6, 0xcd, 0xb7, 0xbd, 0xc6, 0x92, 0x81, 0xbe, 0xf6, 0x93, 0xbd, 0x3c, 0xdf, 0x83, 0xd5, 0xbd,
0x10, 0xef, 0x18, 0x3e, 0x43, 0x78, 0x15, 0xbd, 0x21, 0x17, 0x95, 0xbe, 0xf9, 0x15, 0xb4, 0xbd,
0x70, 0x36, 0xae, 0xbd, 0xef, 0xe7, 0x51, 0xbe, 0x11, 0xbf, 0x16, 0xbe, 0x27, 0xfd, 0x7b, 0xbd,
0xdc, 0xaf, 0xd3, 0x3c, 0x4c, 0xff, 0x0f, 0x3e, 0xdf, 0xcf, 0xa4, 0x3d, 0xb0, 0xdc, 0x8e, 0xbd,
0x4d, 0x79, 0x99, 0x3e, 0x08, 0x66, 0x33, 0xbe, 0x81, 0x35, 0x1e, 0x3d, 0xa3, 0x2e, 0x26, 0x3e,
0xeb, 0x01, 0xa0, 0x3d, 0xdf, 0x77, 0x3a, 0x3b, 0x76, 0xe6, 0x28, 0xbe, 0x64, 0x06, 0x24, 0xbd,
0x82, 0x07, 0x46, 0x3e, 0x11, 0xdf, 0x29, 0x3c, 0x00, 0x19, 0xdf, 0x3c, 0x12, 0xce, 0x9b, 0xbb,
0x79, 0xd1, 0xe2, 0xbd, 0x78, 0xec, 0x08, 0xbd, 0x12, 0x65, 0x0f, 0xbe, 0x7e, 0x7e, 0xe0, 0xbd,
0x1d, 0x6a, 0x2b, 0x3c, 0xf1, 0x6f, 0x42, 0xbc, 0xd3, 0x7c, 0x64, 0x3c, 0x34, 0x5a, 0xe1, 0xbc,
0x54, 0xc1, 0x43, 0xbe, 0xed, 0x14, 0xfb, 0xbb, 0x48, 0xc8, 0xa5, 0xbd, 0x91, 0x81, 0xf8, 0xbd,
0xbe, 0xc1, 0x95, 0xbd, 0x93, 0x1c, 0x12, 0xbe, 0xfb, 0x16, 0xbd, 0xbc, 0xf3, 0xe7, 0x0e, 0xbd,
0x39, 0xe7, 0xc1, 0xbc, 0x77, 0x5f, 0xd9, 0xbd, 0x10, 0x79, 0x8b, 0x3d, 0xb4, 0x2b, 0xc8, 0xbb,
0x30, 0xd0, 0x13, 0xbb, 0x21, 0x74, 0xaf, 0xbd, 0x32, 0x87, 0xa8, 0x3d, 0xed, 0x99, 0xbd, 0x3d,
0x8c, 0xeb, 0x60, 0xbe, 0x62, 0xbc, 0xeb, 0xbc, 0x22, 0x2e, 0x29, 0xbc, 0xcf, 0xdc, 0x9f, 0xbb,
0x10, 0x3b, 0x6c, 0x3d, 0xc0, 0x43, 0x82, 0x3d, 0x3b, 0x1e, 0xb3, 0xbd, 0x1b, 0xc4, 0xdd, 0xbd,
0xee, 0x61, 0x51, 0x3e, 0x55, 0x10, 0x22, 0x3e, 0x5b, 0x8a, 0x1b, 0x3d, 0x35, 0xb7, 0x1d, 0xbb,
0x90, 0x58, 0x9c, 0xbd, 0x72, 0x56, 0x4e, 0xbd, 0x04, 0xb0, 0x85, 0x3e, 0x5e, 0x51, 0x58, 0x3e,
0x99, 0xa2, 0xec, 0xbd, 0x83, 0x3b, 0x12, 0xbe, 0x92, 0xce, 0x98, 0xbd, 0x60, 0x73, 0x71, 0x3d,
0xcb, 0x21, 0x77, 0x3d, 0x53, 0xc3, 0x14, 0xbe, 0xed, 0xfb, 0x40, 0xbe, 0x67, 0xa7, 0x7f, 0x3c,
0x17, 0x62, 0x12, 0x3e, 0xc1, 0xa7, 0x03, 0x3e, 0x6a, 0x62, 0x60, 0x3d, 0x70, 0x42, 0x91, 0x3d,
0xac, 0x7f, 0x4a, 0x3e, 0x3a, 0xd1, 0x8f, 0x3d, 0x6b, 0x19, 0xe7, 0x3d, 0x7c, 0x0d, 0x96, 0xbd,
0xb0, 0xf1, 0x85, 0x3e, 0x37, 0xf8, 0x3b, 0xbe, 0xa9, 0x47, 0xae, 0x3d, 0x98, 0x82, 0xe4, 0x3d,
0x8d, 0xd2, 0x81, 0x3d, 0xb8, 0xe1, 0x25, 0x3d, 0xee, 0x66, 0x31, 0xbe, 0x0b, 0x72, 0x81, 0xbd,
0x93, 0x0b, 0xd4, 0xbd, 0x12, 0x13, 0xf1, 0x3d, 0x5b, 0x6b, 0xaf, 0x3d, 0xf4, 0x58, 0x35, 0xbc,
0xe9, 0x85, 0xe5, 0xbd, 0x8e, 0x04, 0x18, 0xbc, 0xe7, 0x97, 0x8f, 0x3e, 0x5b, 0xf8, 0x9b, 0x3c,
0xf8, 0xdb, 0x0d, 0xbe, 0xb8, 0xa2, 0x23, 0xbc, 0x4f, 0x36, 0x9e, 0x3c, 0x78, 0xcf, 0xf2, 0x3b,
0x22, 0xa9, 0x4d, 0xbd, 0x98, 0x72, 0xcb, 0x3d, 0x47, 0xbb, 0x90, 0xbd, 0x7f, 0xd8, 0x06, 0xbc,
0x84, 0xf3, 0xec, 0x3d, 0x81, 0x2e, 0x39, 0x3e, 0x20, 0x26, 0xd5, 0x3c, 0xfa, 0xec, 0xf2, 0x3c,
0x64, 0xea, 0x07, 0xbe, 0xa8, 0xa8, 0x2a, 0x3c, 0x41, 0xcf, 0xfd, 0x3d, 0x90, 0x39, 0xed, 0xbc,
0xac, 0xb2, 0xe3, 0x3d, 0x4c, 0xbc, 0x9a, 0xbd, 0x3d, 0x0d, 0x0b, 0xbe, 0x9a, 0x52, 0xf7, 0x3d,
0x1c, 0xbb, 0x87, 0xbd, 0x08, 0x4e, 0x18, 0xbe, 0x8e, 0x7c, 0xfe, 0xbd, 0x23, 0x64, 0xc3, 0x3d,
0xde, 0x18, 0xba, 0x3c, 0xe0, 0x50, 0x22, 0x3e, 0x85, 0xba, 0x46, 0xbd, 0xb7, 0xe9, 0x36, 0x3e,
0x95, 0xcf, 0x85, 0xbc, 0x37, 0x2b, 0xd6, 0x3d, 0x49, 0x4a, 0x11, 0x3e, 0xb7, 0x1c, 0x1b, 0xbe,
0xd5, 0x46, 0x40, 0x3e, 0xf1, 0xe5, 0x57, 0xbd, 0xb6, 0x78, 0xf7, 0x3b, 0x0e, 0xeb, 0x64, 0x3e,
0x27, 0xcb, 0x16, 0xbe, 0x1d, 0x80, 0x02, 0x3e, 0xb6, 0x7a, 0x31, 0xbe, 0x42, 0xac, 0xdf, 0xbc,
0x64, 0x6d, 0xab, 0xbd, 0xb9, 0x81, 0x12, 0x3e, 0xd6, 0x7a, 0x25, 0x3e, 0xc8, 0xff, 0x57, 0xbd,
0x0a, 0xcf, 0x4b, 0xbe, 0xb3, 0x50, 0xa0, 0xbd, 0xb8, 0x03, 0xe1, 0x3d, 0x3c, 0xf7, 0x97, 0xbd,
0x87, 0xf0, 0x44, 0xbe, 0x05, 0x60, 0x38, 0x3d, 0x59, 0xae, 0xd4, 0xbd, 0xb3, 0xb2, 0xbd, 0xbd,
0x5b, 0x7e, 0x01, 0x3d, 0x40, 0xb7, 0xef, 0x3c, 0x14, 0x59, 0xd7, 0xbd, 0x55, 0xe1, 0x31, 0x3e,
0x7c, 0x81, 0x14, 0x3e, 0x6a, 0x1a, 0x3c, 0x3e, 0x45, 0xdc, 0x8c, 0xbd, 0xbf, 0xa0, 0x1f, 0x3e,
0x61, 0x16, 0x59, 0xbe, 0xe9, 0x93, 0x91, 0x3d, 0xeb, 0xe9, 0x80, 0x3e, 0x5d, 0x1f, 0x19, 0xbe,
0x2f, 0xf3, 0x89, 0x3d, 0x0e, 0x03, 0xc7, 0x3c, 0x92, 0x3c, 0x07, 0xbd, 0x52, 0xc4, 0xe8, 0x3d,
0x15, 0x0a, 0xb9, 0xbd, 0x88, 0x8e, 0x2e, 0xbc, 0x74, 0xb3, 0x4a, 0xbe, 0x85, 0x48, 0x39, 0x3e,
0x9f, 0xe6, 0x3b, 0x3d, 0x42, 0x34, 0x3f, 0x3e, 0x4b, 0x9b, 0x93, 0xbe, 0xb6, 0x6d, 0x2c, 0x3e,
0xf7, 0x58, 0x04, 0xbe, 0xb9, 0x86, 0x2d, 0x3d, 0x76, 0x9b, 0xc5, 0x3d, 0x37, 0xe0, 0x2e, 0xbe,
0xfc, 0xda, 0x3b, 0x3d, 0x7f, 0x29, 0xdb, 0xbd, 0x0a, 0xba, 0x66, 0x3d, 0xbc, 0xe1, 0x9f, 0x3e,
0x28, 0x18, 0x33, 0xbe, 0x47, 0x3b, 0x13, 0x3d, 0xac, 0x5a, 0x45, 0xbc, 0xa0, 0xf4, 0x19, 0xbe,
0x14, 0x23, 0x64, 0xbc, 0x93, 0x4e, 0x44, 0xbe, 0xbd, 0xd7, 0x9e, 0x3e, 0xb7, 0x12, 0x17, 0xbd,
0x8a, 0x48, 0x80, 0x3e, 0x27, 0x57, 0xa5, 0x3d, 0x26, 0x85, 0x39, 0x3e, 0xba, 0x1f, 0x7c, 0xbe,
0x50, 0x64, 0x29, 0x3e, 0x9b, 0x1b, 0x68, 0xbc, 0x15, 0xd3, 0x17, 0x3e, 0xc8, 0x71, 0xb2, 0xbb,
0xd9, 0x66, 0x96, 0x3e, 0x99, 0xfa, 0x2a, 0x3e, 0x05, 0x69, 0xb2, 0xbd, 0x0a, 0x11, 0xac, 0x3d,
0x59, 0xe0, 0x65, 0x3d, 0xda, 0xc7, 0x17, 0xbd, 0x6b, 0x77, 0xcd, 0xbd, 0x84, 0x51, 0xa4, 0x3d,
0xd9, 0x3e, 0x19, 0xbe, 0xbb, 0x08, 0x02, 0x3d, 0x91, 0x37, 0x8d, 0x3e, 0x6d, 0x6f, 0x7a, 0xbd,
0xfc, 0x18, 0x1f, 0x3e, 0x47, 0xd8, 0xde, 0x3d, 0xfc, 0xfe, 0x28, 0xbe, 0x6e, 0xda, 0x9c, 0xbc,
0x3a, 0x3e, 0x88, 0xbe, 0xc5, 0x18, 0xa5, 0xbd, 0x77, 0x46, 0xbe, 0x3d, 0xaf, 0x3c, 0x8b, 0x3c,
0x83, 0x95, 0xc5, 0x3d, 0x46, 0xe6, 0xbf, 0xbd, 0x3c, 0x5a, 0x71, 0x3e, 0x1a, 0xfe, 0x3f, 0xbd,
0x19, 0x1e, 0x78, 0x3d, 0x46, 0x3c, 0x2d, 0xbc, 0x7e, 0x1d, 0x80, 0xbd, 0x79, 0x02, 0x3f, 0xbe,
0x70, 0xac, 0xdd, 0xbd, 0x23, 0xcc, 0xe6, 0xbc, 0x1a, 0x50, 0x87, 0xbd, 0x41, 0x6e, 0xbb, 0x3d,
0x6b, 0x59, 0x47, 0x3d, 0xda, 0x17, 0x4e, 0x3c, 0x44, 0x20, 0x0a, 0xbe, 0x2c, 0xbb, 0x3d, 0xbd,
0x86, 0x8b, 0xa6, 0xbd, 0x0d, 0x69, 0x0b, 0xbe, 0xa6, 0xd1, 0x8c, 0x3e, 0xb4, 0x1f, 0x91, 0xbd,
0x04, 0xaf, 0x18, 0x3e, 0x88, 0x25, 0xb1, 0x3d, 0x80, 0xab, 0x91, 0x3d, 0xd7, 0x12, 0xa6, 0xbe,
0x72, 0xa7, 0x12, 0x3e, 0xbb, 0x1b, 0xd2, 0xbc, 0xc7, 0x8c, 0x2e, 0x3e, 0x1c, 0x2c, 0x3a, 0x3d,
0xb0, 0xa8, 0xc9, 0x3e, 0xa3, 0x4f, 0xfa, 0x3d, 0xde, 0x36, 0xb5, 0x3c, 0x90, 0xe3, 0xfc, 0x3c,
0xe8, 0x53, 0x9c, 0x3e, 0xb5, 0xed, 0x5e, 0x3d, 0xf9, 0xfa, 0x9b, 0x3d, 0x07, 0x93, 0x42, 0x3d,
0x15, 0x8e, 0xd3, 0x3d, 0x7b, 0x79, 0x14, 0x3d, 0x04, 0x6c, 0xa6, 0x3e, 0x97, 0x14, 0x12, 0x3d,
0xb9, 0xca, 0xc3, 0x3e, 0x3f, 0xb9, 0xe4, 0xbc, 0x35, 0xb1, 0x1f, 0xbe, 0x30, 0xb2, 0x6c, 0x3d,
0x08, 0x54, 0x17, 0xbd, 0xf3, 0xb9, 0x05, 0xbe, 0xe4, 0xb1, 0x6c, 0x3d, 0xbf, 0x7f, 0xc5, 0xbc,
0xbb, 0xad, 0x86, 0x3d, 0x3b, 0xf7, 0xcc, 0xbd, 0x69, 0x1f, 0xbe, 0x3d, 0xb7, 0x79, 0x7c, 0x3d,
0xfe, 0x7a, 0xdb, 0x3d, 0xdf, 0x21, 0xb7, 0xbd, 0x20, 0x05, 0x80, 0xbd, 0x21, 0x97, 0x4e, 0x3d,
0x82, 0x42, 0xb0, 0xbd, 0x89, 0xf9, 0x0a, 0xbe, 0xaf, 0x73, 0x16, 0xbd, 0xf9, 0xd6, 0x53, 0x3c,
0x35, 0xf8, 0xf6, 0x3d, 0x59, 0x85, 0x99, 0xbd, 0x8c, 0x27, 0x9a, 0x3c, 0x9a, 0xb4, 0x32, 0xbd,
0x7b, 0xd2, 0x16, 0xbe, 0x82, 0x09, 0x00, 0xbe, 0x00, 0x87, 0xb4, 0x3e, 0x95, 0xe5, 0xce, 0x3b,
0x20, 0x88, 0xd9, 0xbc, 0x78, 0x21, 0x71, 0x3d, 0x9c, 0xd1, 0x0b, 0x3e, 0xfe, 0x00, 0x62, 0xbe,
0x67, 0xbb, 0x29, 0x3e, 0x04, 0xf7, 0xac, 0x3c, 0x6f, 0x69, 0x69, 0x3e, 0xaa, 0x27, 0x06, 0xbd,
0x01, 0x72, 0xac, 0x3e, 0xf0, 0xaa, 0x41, 0x3e, 0xc0, 0x0e, 0xd8, 0x3a, 0x40, 0x16, 0x5b, 0x3d,
0x80, 0xe6, 0xa5, 0x3e, 0x28, 0x11, 0xa7, 0x3d, 0xb0, 0x2b, 0xaf, 0xbd, 0x62, 0xbc, 0x4b, 0x3d,
0x4e, 0xc7, 0x4f, 0xbc, 0x25, 0x3e, 0x7e, 0xbd, 0x12, 0xae, 0xa6, 0x3e, 0x3c, 0x59, 0x69, 0x3b,
0x3a, 0x01, 0x8f, 0x3e, 0xed, 0xd9, 0x8f, 0x3d, 0xf3, 0x48, 0xe6, 0xbd, 0x7e, 0x72, 0x9c, 0x3d,
0xe1, 0x88, 0x1d, 0x3e, 0x15, 0x52, 0xb2, 0xbc, 0x4b, 0xa6, 0x7e, 0xbc, 0xc6, 0xb6, 0xcc, 0x3c,
0xca, 0xb2, 0x19, 0x3e, 0x4f, 0xa9, 0x22, 0xbe, 0xa2, 0x26, 0x36, 0x3e, 0x75, 0xa8, 0xc8, 0x3d,
0x94, 0x0d, 0x37, 0x3e, 0x76, 0x7d, 0x41, 0xbd, 0xf4, 0x67, 0x8a, 0xbd, 0x1c, 0x28, 0xef, 0xbd,
0xbc, 0x78, 0xac, 0xbd, 0x5f, 0xf3, 0x0e, 0xbd, 0xf0, 0x17, 0x9b, 0xbd, 0x50, 0x8c, 0xd9, 0x3c,
0x86, 0xa0, 0x11, 0x3e, 0xdb, 0x43, 0xf2, 0xbd, 0xd1, 0x1e, 0x10, 0xbe, 0x40, 0x3b, 0xe8, 0xbd,
0x6e, 0x8c, 0x67, 0x3e, 0xeb, 0xe7, 0x1b, 0xbe, 0x4a, 0xda, 0x9f, 0x3e, 0x02, 0x50, 0x05, 0xbe,
0x29, 0x50, 0xa7, 0xbd, 0x5e, 0x04, 0x0b, 0xbe, 0x1a, 0x9b, 0xf5, 0xbd, 0x67, 0x17, 0xf2, 0xbd,
0x7b, 0x63, 0x9c, 0x3d, 0xdc, 0xed, 0x9c, 0xbd, 0xc7, 0xeb, 0x3b, 0xbd, 0xe6, 0x2f, 0xba, 0xbc,
0x25, 0x14, 0x7e, 0xbd, 0x41, 0x91, 0x6a, 0xbc, 0x40, 0xf5, 0xe6, 0x3c, 0xdd, 0x49, 0x05, 0x3c,
0x6e, 0x7e, 0x23, 0xbe, 0x40, 0x97, 0xcc, 0xbd, 0x85, 0x74, 0xe6, 0xbb, 0xac, 0x39, 0xaa, 0xbd,
0x2d, 0x1e, 0x21, 0xbe, 0x13, 0xd0, 0x43, 0xbd, 0x94, 0xe4, 0x2e, 0xbe, 0x47, 0x86, 0x4d, 0xbe,
0x7b, 0x39, 0x15, 0xbd, 0x61, 0xc9, 0x52, 0xbe, 0x95, 0xe5, 0x96, 0x3d, 0x43, 0x74, 0x2b, 0xbe,
0xc8, 0x9a, 0x96, 0x3d, 0x7a, 0xf9, 0x14, 0xbd, 0x18, 0xcf, 0x20, 0xbe, 0x44, 0xa6, 0x12, 0xbd,
0x7d, 0x53, 0x59, 0xbe, 0xb1, 0x7b, 0x7a, 0xbd, 0x3f, 0x02, 0x4b, 0xbe, 0x26, 0xb5, 0xb2, 0xbd,
0x2a, 0xe5, 0xb9, 0xbd, 0x75, 0x1e, 0x1d, 0xbd, 0x69, 0xb6, 0xc0, 0xbc, 0xdf, 0x76, 0x1a, 0x3d,
0x96, 0x61, 0xa8, 0x3d, 0x0d, 0x31, 0x83, 0xbd, 0xed, 0x37, 0x0a, 0x3d, 0x61, 0x0d, 0x45, 0xbd,
0xf8, 0xca, 0x3d, 0xbe, 0x98, 0xc2, 0x0d, 0x3d, 0x8f, 0x9b, 0x11, 0xbe, 0xf9, 0x3f, 0x2f, 0xbe,
0xe0, 0xa0, 0x2f, 0x3e, 0x60, 0x67, 0xdb, 0xbd, 0xde, 0x94, 0xbc, 0x3e, 0x60, 0x09, 0x55, 0xbe,
0xb5, 0x74, 0xa8, 0x3d, 0xcd, 0xb9, 0x78, 0x3c, 0x98, 0x1a, 0xa2, 0xbd, 0xdf, 0xf2, 0x82, 0xbe,
0xc6, 0x5e, 0xe1, 0xbd, 0x9e, 0xed, 0xab, 0xbd, 0xd9, 0x4d, 0x98, 0x3c, 0xfb, 0x92, 0x3e, 0xbe,
0xa0, 0x6e, 0x2c, 0x3e, 0xdc, 0xad, 0x33, 0xbe, 0x50, 0x37, 0xf4, 0xbd, 0xdf, 0x1f, 0x0c, 0xbc,
0xba, 0x85, 0x39, 0xbd, 0x34, 0x6b, 0x1b, 0xbe, 0xe5, 0x84, 0xdc, 0x3d, 0x41, 0x0b, 0x03, 0x3d,
0x4b, 0x49, 0x6a, 0xbe, 0xbb, 0x13, 0xc1, 0xbc, 0xbd, 0x3a, 0xb4, 0x3d, 0xfd, 0xd6, 0xff, 0xbd,
0xf9, 0xa0, 0xe6, 0xbc, 0xe6, 0xae, 0x8b, 0xbe, 0xa5, 0x24, 0x2f, 0xbd, 0x0d, 0x65, 0x15, 0xbe,
0x12, 0x85, 0x2a, 0xbc, 0x31, 0x8b, 0xff, 0x3c, 0xd1, 0x73, 0xf1, 0xbd, 0x62, 0xfd, 0x4a, 0x3d,
0xe8, 0x13, 0xa2, 0xbe, 0xd2, 0xba, 0xf8, 0x3d, 0x4c, 0xc7, 0x3d, 0xbd, 0xf1, 0xbb, 0xbf, 0x3d,
0x68, 0xab, 0x00, 0xbe, 0x9c, 0x6c, 0xcd, 0x3d, 0xa9, 0xe2, 0xa1, 0x3d, 0xca, 0x6e, 0x81, 0xbc,
0xa6, 0x68, 0x38, 0x3c, 0x72, 0x3b, 0x9e, 0xbc, 0xc7, 0xe9, 0xcc, 0xbc, 0x8e, 0xd4, 0x9d, 0x3d,
0x24, 0x74, 0xb5, 0xbd, 0x73, 0xaf, 0x9e, 0xbd, 0x6c, 0xc9, 0x17, 0x3e, 0x0e, 0x51, 0x98, 0xbd,
0x0c, 0x5e, 0x95, 0x3e, 0x6a, 0x24, 0x1e, 0xbd, 0xc6, 0x5c, 0x89, 0x3e, 0x72, 0xf6, 0xe5, 0xbd,
0x48, 0x81, 0x08, 0x3d, 0xbc, 0xb7, 0x83, 0xbe, 0x3c, 0xcd, 0x48, 0x3e, 0x6a, 0x80, 0x3e, 0xbe,
0x5c, 0x9e, 0x70, 0x3d, 0xe3, 0x26, 0x2e, 0xbd, 0xcf, 0x79, 0x41, 0xbd, 0x55, 0xad, 0x5e, 0xbe,
0x2a, 0xbe, 0xa5, 0x3d, 0x1e, 0x02, 0xad, 0xbe, 0xfd, 0xa0, 0x62, 0xbc, 0xe0, 0x33, 0x0b, 0xbd,
0xa2, 0x3b, 0x2e, 0xbe, 0x80, 0x25, 0x86, 0xbe, 0x52, 0x47, 0x87, 0x3d, 0x34, 0xeb, 0x9e, 0x3c,
0xc7, 0xaa, 0xf9, 0xbd, 0xca, 0x19, 0x35, 0xbc, 0x51, 0x87, 0x04, 0xbe, 0x3d, 0x4c, 0x7b, 0xbe,
0xc6, 0xa1, 0x46, 0xbe, 0xc6, 0x15, 0x27, 0xbe, 0x28, 0x44, 0x2f, 0xbc, 0x04, 0x91, 0xd2, 0xbd,
0x77, 0x42, 0x8e, 0xbc, 0x39, 0xb5, 0x2f, 0xbd, 0x53, 0xec, 0x6d, 0xbe, 0x2b, 0x00, 0xef, 0xbc,
0xc6, 0x42, 0xa0, 0xbe, 0xf4, 0xc1, 0x11, 0xbe, 0xbf, 0xba, 0xe1, 0xbd, 0x8a, 0x28, 0xcd, 0xbd,
0x1a, 0x11, 0x5e, 0xbe, 0x3e, 0x9d, 0x5a, 0xbc, 0x03, 0x51, 0x27, 0x3d, 0x09, 0xf2, 0x8f, 0xbd,
0xa6, 0xf5, 0x48, 0x3d, 0x47, 0x74, 0x1b, 0xbe, 0x70, 0xb9, 0xaa, 0x3d, 0x3c, 0xed, 0x6b, 0xbb,
0x60, 0xfe, 0xf4, 0xbd, 0x83, 0x3f, 0x02, 0x3d, 0x00, 0x35, 0x98, 0x3c, 0x10, 0x3e, 0x42, 0x3c,
0x09, 0x04, 0x92, 0xbc, 0x94, 0xae, 0x82, 0xbd, 0xcc, 0x43, 0xd6, 0xbd, 0x46, 0xd4, 0xb5, 0x3d,
0x0f, 0x56, 0x2b, 0xbe, 0xe8, 0x31, 0x6f, 0x3d, 0x50, 0x5e, 0x47, 0xbe, 0x98, 0xb8, 0x53, 0xbe,
0x15, 0x5c, 0x07, 0x3e, 0x1a, 0x2e, 0x02, 0x3d, 0x57, 0x3c, 0x14, 0x3e, 0x75, 0x3f, 0xb7, 0x3c,
0x23, 0xc5, 0x41, 0xbe, 0xa3, 0xaa, 0xdf, 0x3d, 0x16, 0x59, 0xcc, 0xbd, 0x6c, 0xa8, 0x53, 0x3e,
0xa7, 0xb5, 0xeb, 0xbc, 0x37, 0x69, 0xa6, 0xbc, 0xd5, 0xf6, 0x99, 0x3c, 0xc5, 0x07, 0xc2, 0x3d,
0xdf, 0x68, 0xd8, 0xbc, 0x80, 0x72, 0x12, 0x3e, 0xf0, 0x0c, 0x05, 0xbe, 0xc3, 0x6f, 0xef, 0xbc,
0x84, 0xe8, 0x99, 0x3d, 0xe5, 0xfa, 0xea, 0x3d, 0xf4, 0x54, 0xf3, 0x3d, 0xd4, 0x11, 0x69, 0x3d,
0xff, 0xd0, 0xc2, 0xbd, 0x93, 0x6f, 0xc8, 0xbc, 0xbd, 0xd3, 0xaf, 0x3d, 0xdf, 0x18, 0xe2, 0x39,
0x87, 0xca, 0x17, 0xbe, 0x56, 0x86, 0xde, 0x3c, 0xb1, 0x81, 0xe6, 0x3d, 0x61, 0x03, 0x51, 0xbd,
0x28, 0xe8, 0x59, 0x3e, 0x3c, 0x11, 0xd7, 0x3d, 0x99, 0x56, 0x1e, 0xbd, 0x9f, 0xe5, 0x6b, 0x3c,
0xa8, 0xba, 0xc2, 0xbd, 0x11, 0x82, 0x8d, 0x3d, 0x79, 0x54, 0xba, 0x3d, 0xf4, 0x7f, 0xd9, 0x3d,
0x14, 0xdb, 0x3d, 0x3e, 0xb1, 0x7c, 0xcf, 0x3d, 0x73, 0x49, 0xe2, 0x3c, 0x1d, 0x5c, 0xf8, 0x3d,
0xf4, 0x26, 0x8e, 0xbd, 0xf4, 0xa7, 0x1d, 0xbe, 0xaf, 0x0b, 0x49, 0x3b, 0x13, 0x42, 0x97, 0xbd,
0x3c, 0xfa, 0xbc, 0xbd, 0x34, 0x5b, 0xa0, 0xbc, 0xc9, 0xb3, 0x46, 0xbe, 0xdf, 0x9f, 0x9c, 0xbe,
0xf8, 0x8a, 0xe4, 0x3d, 0x86, 0xc0, 0x07, 0x3e, 0x98, 0x6f, 0xe7, 0x3d, 0x42, 0xfb, 0xe0, 0x3c,
0xb3, 0xed, 0xb8, 0xbd, 0x6d, 0xc9, 0x76, 0xbc, 0x8a, 0x14, 0x53, 0xbd, 0xbb, 0x02, 0xe7, 0x3d,
0xef, 0x91, 0x10, 0x3e, 0x97, 0x72, 0x8d, 0x3d, 0x97, 0x40, 0x0c, 0xbd, 0x9b, 0x6c, 0x40, 0x3e,
0xa6, 0xca, 0x18, 0xbd, 0x20, 0xb8, 0x33, 0x3e, 0x4d, 0xf5, 0x89, 0xbd, 0x8d, 0xcd, 0x05, 0xbd,
0x87, 0x80, 0x9a, 0x3d, 0x6c, 0x0a, 0x91, 0x3d, 0x96, 0xb7, 0x11, 0xbd, 0x46, 0x7e, 0x87, 0x3c,
0x4c, 0x7b, 0xc8, 0xbd, 0x9b, 0x0b, 0xed, 0x3c, 0xeb, 0x06, 0xe8, 0x3c, 0x19, 0xd9, 0x57, 0x3b,
0xca, 0x12, 0x11, 0xbe, 0x2c, 0x1c, 0xce, 0xbc, 0xbc, 0xbf, 0x9a, 0x3e, 0x63, 0x62, 0xd5, 0x3d,
0x7e, 0x5b, 0x54, 0x3e, 0xc3, 0xc5, 0x05, 0x3e, 0x05, 0x66, 0x2c, 0x3e, 0x47, 0x4a, 0xa5, 0x3d,
0x9f, 0x54, 0xfa, 0x3b, 0x4d, 0x51, 0x00, 0x3e, 0x63, 0xc2, 0xcf, 0xbc, 0xe8, 0x74, 0x9e, 0xbd,
0xdd, 0xc6, 0xbe, 0x3e, 0x89, 0x79, 0x9a, 0x3d, 0x74, 0x15, 0xd1, 0x3d, 0xb9, 0x4f, 0xba, 0x3d,
0xbd, 0xd0, 0x09, 0x3b, 0xea, 0x1d, 0x77, 0xbd, 0x71, 0x1e, 0xc5, 0xbc, 0x8a, 0xcd, 0x3e, 0x3d,
0xad, 0x16, 0xa3, 0xbe, 0x72, 0x56, 0xe0, 0xbd, 0x69, 0x9b, 0x2b, 0xbe, 0x49, 0x7c, 0x69, 0xbe,
0x87, 0xcc, 0x36, 0x3e, 0x65, 0x67, 0xc1, 0x3d, 0x44, 0x50, 0x98, 0xbd, 0xeb, 0xdc, 0x9f, 0xbd,
0x77, 0x3c, 0xdb, 0xbd, 0xa3, 0x82, 0x24, 0xbe, 0x75, 0xac, 0x6f, 0xbd, 0xf8, 0x23, 0x85, 0xbb,
0x86, 0x39, 0x8a, 0x3a, 0x1a, 0x96, 0xa1, 0x3d, 0x57, 0x2e, 0x75, 0x3d, 0xd2, 0x8d, 0x10, 0x3e,
0x4d, 0x12, 0x44, 0xbe, 0xd6, 0x35, 0x14, 0xbc, 0xe5, 0xf5, 0xe0, 0xbc, 0x75, 0xe5, 0x52, 0xbe,
0xf7, 0xa5, 0xbf, 0x3d, 0xf8, 0x9e, 0x96, 0x3d, 0x88, 0x71, 0x0a, 0xbe, 0x56, 0x8c, 0xdc, 0xbc,
0x20, 0x2d, 0x0d, 0xbd, 0xc4, 0x52, 0x72, 0xbd, 0xd0, 0xa5, 0x5f, 0x3a, 0xfe, 0x17, 0x49, 0xbd,
0xf7, 0xcb, 0x7e, 0xbc, 0x00, 0xe8, 0x30, 0xbc, 0x93, 0x33, 0x49, 0x3e, 0x41, 0xe9, 0xe9, 0x3d,
0xf5, 0xfa, 0x62, 0x3e, 0x7d, 0x51, 0x17, 0x3d, 0x2d, 0x5b, 0xa2, 0xbd, 0x34, 0x15, 0x2f, 0x3d,
0x5b, 0x1d, 0x62, 0xbd, 0x9d, 0x58, 0xa2, 0x3d, 0xef, 0xa1, 0x2d, 0x3c, 0x79, 0xfb, 0x5e, 0xbb,
0x6d, 0x7a, 0x16, 0x3e, 0x2d, 0xfc, 0x44, 0x3e, 0x2c, 0x13, 0xe2, 0x3d, 0x0b, 0xd7, 0x97, 0x3d,
0xdd, 0xc0, 0x5b, 0xbb, 0xdb, 0x58, 0x0e, 0xbe, 0xf5, 0x7a, 0xc1, 0x3d, 0xd3, 0x77, 0xa1, 0x3d,
0x2b, 0xca, 0x1c, 0xbe, 0x17, 0x4d, 0x19, 0x3d, 0xbc, 0x93, 0xb0, 0xbd, 0x2e, 0x17, 0x52, 0xbd,
0x94, 0x3c, 0xdd, 0xbd, 0x94, 0x87, 0x33, 0x3e, 0x54, 0x01, 0x1e, 0x3e, 0xa0, 0x59, 0x2a, 0x3e,
0xea, 0x0d, 0x2e, 0x3e, 0xce, 0x7c, 0x80, 0x3e, 0xd4, 0x45, 0xf6, 0x3c, 0x0a, 0x32, 0x0e, 0x3d,
0x65, 0x48, 0xbf, 0x3d, 0xd3, 0xa4, 0x93, 0x3d, 0xad, 0x3c, 0xd2, 0x3d, 0xcb, 0xc7, 0x0a, 0x3e,
0x4d, 0x82, 0xd2, 0xbc, 0x3a, 0x99, 0x8a, 0x3e, 0x78, 0x45, 0x26, 0xbe, 0x6e, 0x7a, 0xd6, 0xbc,
0x39, 0xa5, 0x8f, 0x3d, 0xa1, 0x41, 0x4f, 0x3d, 0xc2, 0x7b, 0x10, 0x3e, 0xb9, 0x50, 0x9e, 0x3c,
0x08, 0x46, 0x98, 0x3d, 0xd1, 0x72, 0x06, 0x3d, 0xf9, 0xf6, 0x07, 0xbe, 0x65, 0xd2, 0x8a, 0x3d,
0x0a, 0x0f, 0xae, 0x3d, 0x90, 0x78, 0x1a, 0x3e, 0x7a, 0x8e, 0x82, 0x3d, 0x98, 0x8a, 0xd0, 0x3c,
0xac, 0xe2, 0x0d, 0x3e, 0x82, 0xfa, 0x86, 0x3d, 0x3e, 0x09, 0xa2, 0xbc, 0x84, 0xbf, 0x4d, 0x3d,
0x2a, 0x38, 0x03, 0xbd, 0xa5, 0xe4, 0xbb, 0xbc, 0x70, 0x41, 0x71, 0x3c, 0x4b, 0x59, 0x23, 0x3e,
0x45, 0x8c, 0x3a, 0x3e, 0x0a, 0x72, 0xdd, 0x3d, 0xd9, 0xdb, 0xfd, 0x3d, 0x66, 0x14, 0x10, 0x3e,
0xd9, 0xc1, 0x2f, 0x3c, 0x33, 0xb0, 0x94, 0x3c, 0xcb, 0x69, 0x3c, 0xbd, 0x31, 0xfb, 0xf4, 0x3d,
0xcd, 0x37, 0xc2, 0xbd, 0x77, 0x60, 0x64, 0x3e, 0x36, 0xfd, 0xcc, 0x3c, 0x11, 0x10, 0x56, 0xbd,
0xf0, 0xd6, 0x88, 0xbd, 0x5e, 0xbc, 0x31, 0x3e, 0xf6, 0x8b, 0xa1, 0x3e, 0x3c, 0x7d, 0xe8, 0x3d,
0x05, 0x09, 0x0d, 0x3d, 0x75, 0x44, 0x38, 0x3e, 0xe1, 0x3d, 0x8d, 0x3a, 0x75, 0x19, 0x2b, 0x3e,
0x13, 0x98, 0x27, 0xbd, 0x9a, 0x57, 0xe3, 0x3c, 0x00, 0x40, 0xbc, 0x3d, 0x9d, 0xc9, 0x90, 0x3e,
0x05, 0x3d, 0xbe, 0xbd, 0x8a, 0x5f, 0x85, 0x3e, 0xd8, 0xc1, 0x10, 0x3d, 0xfb, 0x08, 0xf5, 0xbd,
0x5d, 0xa1, 0xe0, 0x3d, 0xf2, 0xb1, 0xd1, 0x3d, 0xf2, 0xf1, 0x25, 0x3e, 0x1a, 0x2f, 0xda, 0x3d,
0xf4, 0x62, 0x01, 0xbb, 0x46, 0xde, 0xfb, 0xbc, 0x0d, 0x69, 0xd6, 0xbd, 0xcd, 0x33, 0x14, 0x3e,
0xee, 0xea, 0x06, 0x3e, 0xa7, 0x2e, 0x50, 0x3e, 0x16, 0x50, 0x1e, 0x3d, 0x9e, 0xf8, 0xa1, 0x3c,
0xaa, 0x2e, 0x51, 0x3d, 0xa3, 0x92, 0x22, 0x3d, 0x3c, 0xfe, 0x0c, 0x3c, 0x29, 0x13, 0x19, 0x3e,
0xca, 0xf4, 0xa4, 0x3c, 0x16, 0xbe, 0x28, 0x3e, 0x1c, 0xbc, 0x04, 0x3e, 0x83, 0x61, 0xc3, 0x3d,
0x33, 0x1c, 0x58, 0x3e, 0x73, 0x31, 0x4f, 0xbc, 0x2d, 0x55, 0x19, 0xbd, 0xb5, 0xc9, 0x43, 0x3e,
0x1c, 0x7e, 0x05, 0xbe, 0xa6, 0x28, 0x8a, 0x3d, 0x65, 0x0e, 0x04, 0xbd, 0x8e, 0x59, 0x29, 0x3e,
0x1a, 0x14, 0xc0, 0xbe, 0x2d, 0x68, 0x06, 0x3e, 0xd8, 0x87, 0x81, 0x3e, 0x13, 0xfe, 0x7f, 0xbc,
0x7e, 0x99, 0x42, 0x3d, 0x06, 0x1b, 0xc5, 0x3d, 0x65, 0x4b, 0x1d, 0x3e, 0x18, 0x1f, 0x02, 0x3e,
0xf7, 0x38, 0x16, 0xbc, 0xd2, 0xa4, 0x8c, 0x3d, 0x45, 0xc3, 0x05, 0x3e, 0x7a, 0x16, 0xa8, 0x3e,
0x85, 0xb0, 0x05, 0xbe, 0x9e, 0x00, 0x15, 0x3e, 0xe1, 0xfe, 0xb2, 0x3d, 0x46, 0x4f, 0xa5, 0x3e,
0x86, 0xc2, 0x43, 0xbe, 0x9f, 0x30, 0x2e, 0x3e, 0xb7, 0xb8, 0x03, 0x3d, 0xa2, 0x68, 0x44, 0xbd,
0xaa, 0x2a, 0x0a, 0x3d, 0xde, 0xad, 0x21, 0x3e, 0x1a, 0x53, 0xfa, 0x3d, 0x82, 0xda, 0x51, 0x3e,
0xec, 0x04, 0x90, 0x3c, 0x8f, 0x5b, 0xbb, 0x3d, 0xbb, 0x26, 0x22, 0xbd, 0x7c, 0xfa, 0xc1, 0x3d,
0xb1, 0x4b, 0x04, 0x3d, 0xf6, 0xc8, 0x16, 0x3e, 0xa3, 0x7e, 0xe5, 0x3d, 0x62, 0x79, 0x15, 0x3d,
0x6f, 0xa0, 0x07, 0x3d, 0xf6, 0x3f, 0xac, 0x3d, 0x3f, 0x21, 0x1a, 0xbd, 0x4f, 0xd1, 0xe5, 0x3d,
0x6e, 0x55, 0xa1, 0x3c, 0xbf, 0x92, 0xb3, 0x3d, 0x9d, 0x35, 0x6a, 0x3d, 0x11, 0x24, 0x3b, 0x3d,
0x23, 0xed, 0xf7, 0x3d, 0xc3, 0x16, 0x8e, 0x3d, 0x9a, 0x8f, 0x4e, 0x3d, 0xd2, 0x0b, 0x32, 0xbe,
0x0a, 0x52, 0x6d, 0x3e, 0xfa, 0x55, 0x9f, 0x3d, 0x58, 0xca, 0x33, 0x3e, 0x1c, 0xaf, 0x3e, 0xbe,
0xbc, 0xf8, 0x13, 0x3e, 0xd9, 0xda, 0xdc, 0xbe, 0xa3, 0xc4, 0x90, 0x3e, 0x61, 0xff, 0x51, 0x3c,
0x99, 0x09, 0x38, 0x3d, 0x0f, 0x73, 0x5a, 0xbe, 0x78, 0x62, 0x41, 0xbe, 0x05, 0x44, 0x69, 0xbe,
0x3c, 0x29, 0x77, 0x3c, 0x47, 0x76, 0x66, 0xbe, 0x9c, 0xc1, 0xa3, 0xbd, 0x86, 0x9e, 0x7b, 0xbb,
0xbf, 0xc1, 0x86, 0x3e, 0x11, 0x51, 0xa5, 0xbd, 0x59, 0xe6, 0x3b, 0x3e, 0xfe, 0x15, 0xba, 0xbc,
0x6d, 0x8b, 0x56, 0x3d, 0xb6, 0xd6, 0x13, 0x3e, 0xf0, 0x63, 0x8a, 0xbe, 0xc0, 0x18, 0x8b, 0xbc,
0x3d, 0xaa, 0xf3, 0x3d, 0x14, 0x8e, 0xda, 0xbd, 0xc6, 0x65, 0xa5, 0x3e, 0x32, 0x30, 0x12, 0x3e,
0xdd, 0xf9, 0x05, 0xbd, 0xcf, 0x41, 0x21, 0x3e, 0xe4, 0x84, 0xaf, 0x3d, 0xa2, 0x3b, 0x57, 0xbd,
0xda, 0x37, 0xb9, 0xbe, 0xd5, 0x1e, 0x20, 0x3c, 0xc0, 0x5f, 0x6c, 0xbe, 0x05, 0x57, 0x95, 0x3d,
0xe7, 0xbe, 0x51, 0xbe, 0xe6, 0x3d, 0x0f, 0xbd, 0x03, 0xbb, 0x10, 0xbc, 0xec, 0x77, 0x68, 0xbd,
0xd8, 0xcb, 0x31, 0xbd, 0x6b, 0xf1, 0xb2, 0xbd, 0xdc, 0x1f, 0x40, 0x3e, 0xda, 0x2c, 0xf8, 0x3c,
0x9e, 0xc9, 0x07, 0xbe, 0x49, 0x2d, 0xfd, 0xbb, 0x27, 0x9e, 0x3c, 0xbc, 0x4b, 0xe6, 0x17, 0xbd,
0xe8, 0xdc, 0x7e, 0x3d, 0x4e, 0x85, 0x09, 0x3e, 0xd3, 0x8c, 0x28, 0xbe, 0x15, 0x96, 0x72, 0xbe,
0xfa, 0xaa, 0xe1, 0x3d, 0x8d, 0xf1, 0xbd, 0xbe, 0x4c, 0x37, 0x8c, 0x3e, 0xcd, 0xd0, 0x62, 0x3d,
0x47, 0x5c, 0x44, 0x3d, 0x24, 0x47, 0x83, 0xbd, 0x8a, 0x4f, 0x7f, 0xbe, 0xa1, 0xdc, 0xd2, 0xbe,
0x4b, 0x79, 0x1d, 0xbc, 0x96, 0xb0, 0x49, 0xbe, 0xe4, 0x12, 0xd4, 0xbc, 0x62, 0x0c, 0x0a, 0x3d,
0x32, 0x05, 0xd5, 0x3e, 0x52, 0x52, 0x0a, 0x3d, 0xa4, 0xb9, 0x22, 0x3e, 0xa2, 0x7c, 0x86, 0xbd,
0x3b, 0xf0, 0xfc, 0x3c, 0x5d, 0x3e, 0x2c, 0x3d, 0x6d, 0xd3, 0x3f, 0xbe, 0xde, 0x60, 0x19, 0x3e,
0x49, 0x08, 0x2b, 0x3e, 0x17, 0x9f, 0x9d, 0x3d, 0x0f, 0xac, 0x8f, 0x3e, 0xd2, 0xf4, 0x5a, 0xbd,
0x7c, 0x08, 0x55, 0xbd, 0xae, 0xe6, 0x05, 0x3e, 0x7a, 0x89, 0x1c, 0x3e, 0x03, 0x7f, 0x97, 0x3d,
0x52, 0x10, 0x7a, 0xbe, 0xf9, 0xcc, 0xa5, 0xbd, 0xe7, 0x39, 0xd0, 0xbc, 0x3a, 0x2d, 0xc6, 0xbc,
0xc0, 0xa8, 0x19, 0xbe, 0xd2, 0x99, 0xdf, 0x3b, 0xa4, 0x92, 0x5e, 0x3e, 0xcf, 0x22, 0x8a, 0xbd,
0x96, 0x16, 0x9e, 0xba, 0x31, 0xb2, 0x83, 0xbc, 0x00, 0x9f, 0x0d, 0x3e, 0x16, 0x01, 0x49, 0xbd,
0x0e, 0x5b, 0xe3, 0xbd, 0x00, 0x77, 0x87, 0x3d, 0x2f, 0xfb, 0xfa, 0xbb, 0x1d, 0x95, 0x34, 0x3c,
0x34, 0x2a, 0x1a, 0x3d, 0x10, 0x28, 0x0e, 0x3d, 0x26, 0x5d, 0xf1, 0xbd, 0x46, 0xe9, 0x95, 0xbe,
0x12, 0x54, 0x91, 0x3e, 0x39, 0xd3, 0x07, 0xbf, 0x03, 0x97, 0x3f, 0x3e, 0x00, 0xef, 0x82, 0xbd,
0x0e, 0x1f, 0x62, 0x3e, 0x9f, 0x60, 0x64, 0xbd, 0x41, 0x28, 0xa7, 0xbe, 0x90, 0xb4, 0xdb, 0xbe,
0xc2, 0xae, 0x35, 0xbe, 0x61, 0x66, 0x89, 0xbe, 0xab, 0x12, 0xb2, 0xbd, 0x25, 0xa6, 0x96, 0xbd,
0x97, 0xbf, 0xa0, 0x3e, 0x05, 0xbf, 0x84, 0xbd, 0x85, 0x39, 0x04, 0x3e, 0xe5, 0xf1, 0xfd, 0x3d,
0xfe, 0x2a, 0xac, 0x3d, 0xf2, 0x09, 0x10, 0x3e, 0x84, 0x7f, 0xfa, 0xbc, 0xfb, 0x81, 0x28, 0x3e,
0x53, 0xf9, 0x8f, 0x3d, 0xc6, 0x8f, 0xb7, 0xbd, 0xb7, 0x4a, 0x68, 0x3e, 0x54, 0xff, 0x1a, 0x3e,
0x51, 0x0c, 0x53, 0xbd, 0x3b, 0xcc, 0x58, 0x3e, 0xb2, 0x17, 0xe3, 0x3c, 0xa6, 0x42, 0x4a, 0xbd,
0xd4, 0x6a, 0xc6, 0xbe, 0x69, 0x33, 0x4d, 0xbe, 0xfd, 0xde, 0xd6, 0xbd, 0x6c, 0xb6, 0x0f, 0x3e,
0x3a, 0xd8, 0x55, 0xbe, 0x57, 0xba, 0xd3, 0xbb, 0x81, 0x93, 0x22, 0x3d, 0x33, 0x5b, 0x6d, 0xbe,
0xdb, 0x3e, 0x1f, 0xbe, 0xa6, 0x5a, 0xab, 0x3d, 0x80, 0xee, 0x6f, 0x3d, 0xa4, 0x2d, 0x5f, 0x3d,
0xba, 0xfd, 0x4d, 0xbe, 0x5e, 0xe2, 0xe7, 0x3d, 0xfa, 0x21, 0xb3, 0x3d, 0x57, 0xaa, 0x09, 0xbe,
0x22, 0x5e, 0xbf, 0x3d, 0x4e, 0xb3, 0xef, 0x3d, 0xef, 0xf0, 0x76, 0xbe, 0x50, 0x27, 0x1a, 0xbe,
0x83, 0x84, 0x87, 0x3e, 0xa9, 0x0a, 0x00, 0xbf, 0x43, 0x98, 0x0d, 0x3e, 0xb0, 0x65, 0x1f, 0x3e,
0xc4, 0xb9, 0x1e, 0x3e, 0x14, 0x6a, 0x07, 0xbe, 0xc9, 0x6f, 0x90, 0xbe, 0xbc, 0x1a, 0xa6, 0xbd,
0x48, 0x13, 0xce, 0x3c, 0x5b, 0x0f, 0xa6, 0xbe, 0xc5, 0x8c, 0xc9, 0xbd, 0xfe, 0x52, 0x4b, 0x3d,
0x12, 0x00, 0x0e, 0xbe, 0xa7, 0x9c, 0x70, 0xbd, 0x67, 0xb9, 0xe4, 0xbd, 0xfa, 0x2a, 0x9d, 0x3d,
0x07, 0x5d, 0x64, 0xbe, 0x23, 0xa0, 0xb8, 0x3d, 0xcf, 0x18, 0x7c, 0xbd, 0x64, 0x9d, 0x2d, 0xbe,
0x44, 0xa3, 0xc1, 0x3d, 0xde, 0xdb, 0xc3, 0x3d, 0x77, 0xe8, 0x8f, 0xbd, 0x05, 0xe9, 0x8b, 0xbd,
0x60, 0x19, 0x54, 0xbe, 0x77, 0x88, 0xdd, 0xbd, 0xd1, 0xff, 0x67, 0x3c, 0x93, 0x6c, 0x97, 0xbd,
0xdc, 0xe7, 0x3c, 0xbe, 0x80, 0x36, 0x65, 0xbe, 0xfb, 0x4c, 0x3a, 0x3e, 0xe0, 0x8d, 0xe5, 0x3c,
0x7c, 0xa5, 0x42, 0x3c, 0x0a, 0xed, 0x01, 0xbd, 0xf7, 0x9a, 0x6c, 0x3c, 0x26, 0x05, 0x17, 0xbd,
0x6b, 0x01, 0x27, 0xbe, 0x9b, 0x25, 0xa6, 0xbd, 0x94, 0xd1, 0xd2, 0xbc, 0x3a, 0x33, 0x49, 0x3d,
0x7c, 0x73, 0xd5, 0x3d, 0xfd, 0xb7, 0x15, 0xbb, 0xd5, 0x87, 0xeb, 0x3d, 0x95, 0x95, 0x19, 0xbe,
0xf7, 0xf9, 0x18, 0x3e, 0x41, 0xac, 0xc7, 0x3c, 0x15, 0x0b, 0xc8, 0xbd, 0x59, 0x75, 0xcc, 0xbd,
0x68, 0x11, 0x55, 0x3e, 0x01, 0x2d, 0xbd, 0xbe, 0x08, 0x7c, 0x13, 0x3d, 0xa1, 0x40, 0x30, 0x3e,
0x62, 0x81, 0x96, 0x3d, 0x5e, 0x9a, 0xce, 0xbd, 0x68, 0xd9, 0x75, 0xbe, 0xa0, 0x4a, 0xc7, 0xbb,
0x31, 0xfe, 0x98, 0x3c, 0xfe, 0x62, 0xcd, 0xbd, 0x74, 0x74, 0xaa, 0xbd, 0x91, 0x36, 0xe3, 0x3c,
0x9d, 0x08, 0x28, 0x3d, 0x95, 0x43, 0xd5, 0xbd, 0x98, 0x16, 0x80, 0xbe, 0x73, 0x55, 0xc9, 0x3d,
0x02, 0x19, 0x0e, 0xbe, 0x23, 0xbd, 0x3b, 0x3d, 0x22, 0x02, 0xa5, 0xbd, 0xa8, 0x79, 0x1e, 0xbd,
0xe4, 0x0f, 0x1a, 0xbc, 0x55, 0x98, 0xc1, 0xbd, 0x5a, 0x77, 0xee, 0xbd, 0x22, 0xde, 0x8e, 0xbd,
0xd8, 0x27, 0x79, 0xbe, 0xd3, 0xf8, 0xf8, 0xbd, 0xa6, 0xca, 0xe1, 0xbc, 0xd9, 0xa9, 0x0e, 0x3c,
0xc6, 0x7d, 0x50, 0xbe, 0x66, 0x15, 0x79, 0xbe, 0xcb, 0x37, 0x34, 0x3e, 0x48, 0xa6, 0xa7, 0x3d,
0x24, 0x4e, 0xeb, 0x3d, 0x8d, 0x54, 0x66, 0xbc, 0x6b, 0x22, 0x66, 0xbd, 0x3e, 0x80, 0x09, 0x3a,
0xd3, 0xfa, 0x66, 0xbe, 0xb3, 0x4a, 0xee, 0xbd, 0xff, 0x7a, 0x8b, 0x3d, 0xf1, 0x6e, 0x6f, 0xbc,
0x3c, 0xe0, 0x22, 0x3e, 0x56, 0xd1, 0x11, 0x3e, 0xda, 0xbb, 0xcf, 0x3b, 0x2a, 0x29, 0x17, 0xbc,
0x83, 0x69, 0xc1, 0x3d, 0xbf, 0x1d, 0xc0, 0x3c, 0xfb, 0x32, 0x33, 0x3c, 0x79, 0x45, 0x2b, 0xbd,
0xaa, 0x2f, 0x4e, 0x3e, 0x4a, 0x88, 0x4b, 0xbe, 0x70, 0xe1, 0x2a, 0x3d, 0x4b, 0x0e, 0xa9, 0x3e,
0x42, 0x95, 0x66, 0x3e, 0x38, 0xd2, 0x89, 0xbd, 0x80, 0xcd, 0x5b, 0xbe, 0x8f, 0x81, 0xd0, 0xbd,
0x70, 0x57, 0x5d, 0x3e, 0x3d, 0xaa, 0x16, 0xbe, 0x2f, 0x74, 0xe6, 0xbc, 0xab, 0xc1, 0x6a, 0xbd,
0x91, 0x86, 0x85, 0x3c, 0xef, 0x6f, 0x53, 0xbd, 0x5f, 0x45, 0x4d, 0xbe, 0x1e, 0x83, 0x6f, 0xbd,
0x62, 0x16, 0xc4, 0x3d, 0x3d, 0xdf, 0xf8, 0xbd, 0x6c, 0xc4, 0xeb, 0xbd, 0xd8, 0x1c, 0x30, 0xbd,
0x7d, 0xb4, 0x25, 0x3e, 0xe8, 0xed, 0x30, 0xbe, 0x05, 0x28, 0xcc, 0xbd, 0xe5, 0x71, 0xec, 0xbd,
0x57, 0xfc, 0x51, 0xbe, 0xab, 0x86, 0x86, 0xbe, 0xa6, 0xfc, 0xbb, 0xbd, 0x23, 0x8d, 0xaa, 0xbd,
0x1e, 0xcd, 0x9d, 0xbe, 0x0d, 0x5a, 0x7d, 0xbc, 0x45, 0x78, 0xc1, 0x3d, 0xe9, 0x1c, 0x80, 0x3c,
0x84, 0x53, 0xd7, 0xbd, 0x9a, 0xb5, 0xaa, 0x39, 0xa4, 0xf1, 0x04, 0xbe, 0xda, 0xef, 0xe8, 0xbd,
0x80, 0x33, 0x1a, 0xbe, 0x2d, 0xb0, 0x20, 0xbc, 0x67, 0x0e, 0xd6, 0x3b, 0x2f, 0xca, 0xb9, 0x3d,
0x79, 0xd3, 0xc1, 0x3d, 0x14, 0xbc, 0x1d, 0x3d, 0xdc, 0x58, 0x51, 0x3b, 0x0c, 0x5c, 0x36, 0x3d,
0x7f, 0x91, 0x20, 0xbc, 0x15, 0x5e, 0xce, 0xbd, 0x19, 0x2a, 0x31, 0x3c, 0xf5, 0x32, 0xaf, 0x3d,
0x08, 0x8e, 0x55, 0x3e, 0x43, 0x8e, 0x5b, 0x3e, 0x4f, 0xcb, 0x0f, 0xbe, 0xc0, 0x74, 0xce, 0xbd,
0x7a, 0x55, 0x84, 0x3d, 0x62, 0x2b, 0x90, 0xbd, 0x38, 0x81, 0x49, 0x3e, 0x02, 0x6f, 0x0b, 0x3e,
0x20, 0xb5, 0x14, 0x3e, 0x7c, 0x96, 0x6c, 0x3c, 0xab, 0x6e, 0x9a, 0xbd, 0x1f, 0x85, 0xc1, 0xbd,
0xbb, 0xd0, 0x15, 0x3b, 0x0b, 0xe9, 0x15, 0xbb, 0x5b, 0x5d, 0x4b, 0x3d, 0xc9, 0x64, 0x1d, 0xbd,
0xc8, 0xfd, 0x0d, 0xbd, 0x43, 0xa5, 0xb7, 0x3d, 0x1f, 0xee, 0x80, 0xbe, 0x23, 0xc0, 0xe6, 0x3d,
0x3c, 0x5f, 0x1a, 0xbe, 0x02, 0xc0, 0x80, 0xbd, 0xb2, 0x6f, 0x9e, 0x3e, 0x4a, 0xbf, 0xe9, 0xbd,
0xaf, 0x04, 0xda, 0x3d, 0x7d, 0x4d, 0x8e, 0x3d, 0x57, 0x0c, 0x83, 0x3c, 0x21, 0x16, 0x33, 0xbe,
0xa8, 0x73, 0x07, 0x3b, 0xab, 0xda, 0x20, 0x3e, 0xd7, 0x4e, 0x20, 0xbd, 0xa4, 0x54, 0x58, 0xbd,
0x9e, 0xd1, 0x2f, 0xbe, 0xea, 0x2d, 0xd6, 0xbc, 0xd2, 0x87, 0x5e, 0xbc, 0xe0, 0x98, 0x2d, 0x3e,
0xd2, 0xf9, 0xe1, 0x3d, 0x68, 0x26, 0x31, 0xbe, 0xe9, 0xca, 0x12, 0xbc, 0xec, 0x5c, 0xb5, 0xbc,
0x86, 0x3c, 0x35, 0xbc, 0x2a, 0x77, 0xeb, 0xba, 0x32, 0x89, 0x33, 0xbd, 0x74, 0x9d, 0x74, 0xbd,
0x27, 0xe3, 0xc9, 0x3b, 0x38, 0x25, 0xbf, 0xbc, 0x80, 0x41, 0x0b, 0xbc, 0xb9, 0x4e, 0x0d, 0xbe,
0x2c, 0x88, 0x7f, 0x3e, 0x69, 0x88, 0x24, 0xbd, 0x72, 0x9f, 0x85, 0xbe, 0x9f, 0xda, 0x49, 0x3d,
0x28, 0x56, 0x1d, 0xbe, 0x11, 0xeb, 0x6b, 0xba, 0xc4, 0x1c, 0xf8, 0x3d, 0xfd, 0xd7, 0xf4, 0x3c,
0x31, 0x4a, 0x42, 0x3e, 0xf7, 0xd8, 0x0d, 0x3e, 0x02, 0x37, 0x3b, 0x3d, 0x7b, 0x62, 0x74, 0xbc,
0x8c, 0x9a, 0xfb, 0x3c, 0xd7, 0xa4, 0x81, 0x3d, 0x89, 0xa6, 0xa9, 0x3d, 0x3d, 0x9f, 0x46, 0xbe,
0x2b, 0xc7, 0xb9, 0xbd, 0xb4, 0x16, 0xa4, 0xbd, 0x2e, 0x9e, 0x7c, 0xbd, 0xfc, 0x42, 0xe8, 0x3d,
0x20, 0xb0, 0x59, 0xbe, 0x3d, 0x16, 0xe6, 0xbd, 0x7d, 0xb6, 0x88, 0x3d, 0x2a, 0x5f, 0x07, 0xbe,
0x89, 0xe9, 0x9e, 0xbc, 0x93, 0xb5, 0x8a, 0x3d, 0xa0, 0x44, 0x0a, 0xbe, 0xbc, 0x62, 0xbf, 0xbd,
0xee, 0x90, 0xa9, 0xbb, 0x40, 0x53, 0x66, 0x3d, 0xe8, 0x17, 0x3e, 0xbd, 0xf5, 0x00, 0x08, 0xbe,
0xd7, 0x08, 0xb2, 0xbd, 0x39, 0x68, 0x9b, 0xbd, 0xbd, 0x26, 0x37, 0x3e, 0x02, 0x1b, 0x39, 0x3e,
0x00, 0x2c, 0x6f, 0x3d, 0x64, 0xa9, 0x45, 0x3d, 0x84, 0x90, 0x89, 0xbd, 0x7c, 0xbf, 0x12, 0xbe,
0x7e, 0x63, 0x1d, 0x3c, 0x17, 0x85, 0x89, 0xbb, 0x85, 0x2c, 0x0e, 0x3d, 0x22, 0x4d, 0x21, 0xbe,
0x18, 0xe9, 0x99, 0xbc, 0x1e, 0x7b, 0x64, 0xbe, 0xe6, 0x3c, 0xaa, 0x3c, 0x6d, 0xbb, 0x62, 0xbd,
0x77, 0x2b, 0x15, 0x3e, 0x45, 0xfe, 0xd7, 0x3d, 0xae, 0x53, 0x81, 0xbe, 0xef, 0x24, 0x30, 0x3d,
0x4f, 0xae, 0x1f, 0xbe, 0x25, 0xa5, 0xc7, 0xbd, 0x40, 0x8c, 0x0d, 0x3d, 0x12, 0x63, 0x28, 0xbe,
0x14, 0xbf, 0x68, 0x3e, 0x5a, 0x2d, 0x57, 0xbc, 0x56, 0x7c, 0xff, 0xbd, 0xbc, 0x8f, 0x82, 0xbe,
0x11, 0x63, 0x44, 0x3d, 0xd8, 0x3e, 0xa4, 0xbc, 0x3e, 0x48, 0x09, 0xbe, 0xcf, 0xd1, 0x6a, 0xbe,
0x6e, 0x50, 0xdf, 0xbc, 0xe6, 0x39, 0x27, 0xbd, 0x1d, 0x15, 0xb0, 0xbd, 0xd9, 0x36, 0x8e, 0x3d,
0xb5, 0x3a, 0x89, 0xbd, 0x2c, 0x48, 0x4a, 0x3d, 0x00, 0xb7, 0x82, 0x3c, 0xa1, 0x98, 0xe3, 0xbd,
0xa1, 0x70, 0xad, 0x3c, 0xc7, 0x75, 0xb7, 0x3c, 0x79, 0x01, 0xdd, 0xbd, 0x75, 0x04, 0x44, 0xbe,
0x33, 0x43, 0xaf, 0x3d, 0xb4, 0x9e, 0x4c, 0x3e, 0x1b, 0x0f, 0xcb, 0xbc, 0x5d, 0x86, 0x2a, 0xbe,
0x70, 0xac, 0x01, 0xbe, 0x76, 0xb5, 0x00, 0x3d, 0xc8, 0x73, 0x99, 0x3c, 0x6e, 0x1b, 0x47, 0x3d,
0x1b, 0xe8, 0xc2, 0x3d, 0x5f, 0x06, 0x3d, 0x3c, 0x43, 0x41, 0x45, 0xbd, 0xfd, 0x9e, 0xb0, 0xbd,
0x21, 0x1e, 0x08, 0xbe, 0xa2, 0x53, 0x96, 0xbd, 0x1a, 0xe6, 0xac, 0x3c, 0x7e, 0x0d, 0x45, 0x3d,
0x31, 0xfc, 0x16, 0xbe, 0x2d, 0x75, 0x3b, 0x3e, 0x04, 0x61, 0xc0, 0xbd, 0x5b, 0x7c, 0xeb, 0x3d,
0x7d, 0x73, 0x00, 0xbe, 0xb3, 0xf4, 0x26, 0x3c, 0xb0, 0xac, 0x22, 0x3e, 0x70, 0xc8, 0x13, 0x3e,
0xc9, 0xe3, 0x56, 0xbe, 0x4a, 0x2b, 0x24, 0xbd, 0x0a, 0x46, 0x51, 0xbe, 0xdf, 0x2c, 0x1a, 0xbd,
0xd1, 0xfb, 0x26, 0xbe, 0x81, 0x5c, 0x80, 0x3b, 0xfd, 0x18, 0xac, 0x3c, 0x80, 0xa3, 0x9c, 0x3d,
0x1e, 0x3f, 0xe4, 0x3d, 0x3f, 0x44, 0x4d, 0x3e, 0xb7, 0xdd, 0x12, 0xbc, 0x69, 0x85, 0x20, 0x3d,
0x41, 0xdf, 0xec, 0xbd, 0x6d, 0xc0, 0x33, 0xbc, 0xab, 0x46, 0x14, 0x3e, 0x71, 0xb4, 0x11, 0xbe,
0xe6, 0x1a, 0x48, 0x3b, 0x43, 0xe5, 0x0a, 0xbd, 0x43, 0x86, 0x10, 0xbe, 0xe0, 0x88, 0xcb, 0x3c,
0x28, 0xc7, 0x47, 0x3b, 0xc1, 0x9e, 0x0d, 0xbe, 0x6f, 0xc0, 0xc9, 0xbd, 0x94, 0x04, 0xc0, 0x3d,
0x45, 0xc8, 0x01, 0x3e, 0x66, 0x81, 0x01, 0x3c, 0x37, 0x3c, 0xd0, 0xbc, 0xaf, 0xc6, 0x62, 0x3d,
0x75, 0x10, 0xbe, 0x3d, 0x91, 0xc8, 0xcd, 0xbc, 0x8c, 0x3e, 0x3a, 0xbe, 0x6f, 0x0b, 0x07, 0xbd,
0xd2, 0x15, 0x14, 0x3d, 0x26, 0xe4, 0x0d, 0xbd, 0x6e, 0x75, 0xba, 0xbd, 0x0c, 0xe2, 0xfa, 0x3d,
0x20, 0xb5, 0x0e, 0xbe, 0x87, 0xcd, 0xda, 0x3b, 0x56, 0xed, 0x61, 0xbd, 0x9d, 0x00, 0x7f, 0x3d,
0x30, 0x6a, 0xea, 0xbd, 0xa7, 0x74, 0x1f, 0x3e, 0x3a, 0xe5, 0x64, 0xbe, 0x4c, 0xfc, 0x82, 0x3d,
0x2d, 0x7f, 0x31, 0xbe, 0x02, 0x36, 0x09, 0xbe, 0x29, 0x38, 0x3a, 0x3e, 0xf6, 0x77, 0x5f, 0x3e,
0x9a, 0x35, 0xb1, 0xbd, 0x98, 0xd8, 0xc2, 0x3d, 0xf0, 0x29, 0x92, 0xbe, 0xc5, 0xca, 0x07, 0xbb,
0x35, 0xc0, 0x6b, 0xbd, 0x51, 0x5b, 0x05, 0xbe, 0x6a, 0xd4, 0x44, 0x3d, 0xbb, 0x98, 0xae, 0x3c,
0xc4, 0x8a, 0x32, 0x3d, 0x78, 0xd4, 0x56, 0x3e, 0x6b, 0xb5, 0x75, 0xbc, 0x55, 0xda, 0xac, 0x3c,
0x5f, 0x85, 0x92, 0xbd, 0xea, 0xd3, 0x48, 0x3c, 0xd7, 0x42, 0x66, 0x3e, 0x89, 0x3b, 0x45, 0xbe,
0x20, 0x60, 0xd6, 0xbc, 0xd8, 0x03, 0x70, 0x3a, 0x6e, 0xd1, 0x80, 0xbd, 0x25, 0x95, 0x00, 0x3d,
0x15, 0x39, 0xd4, 0x3c, 0x24, 0x84, 0xa6, 0xbd, 0x37, 0x81, 0x88, 0xbd, 0x59, 0x84, 0x08, 0x3e,
0x35, 0x6f, 0x4a, 0x3e, 0xcf, 0x6d, 0x5d, 0x3d, 0x16, 0x84, 0x01, 0x3e, 0x7e, 0x79, 0x01, 0x3d,
0x50, 0xae, 0x7c, 0x3e, 0x9e, 0xeb, 0x0f, 0x3e, 0xfd, 0x7e, 0xe5, 0xbd, 0x14, 0x5a, 0xee, 0x3d,
0x76, 0x60, 0x9c, 0xbd, 0x8b, 0x45, 0x95, 0xbb, 0xb2, 0x40, 0x07, 0xbe, 0x20, 0xd0, 0xd4, 0x3d,
0xc5, 0x2e, 0xa9, 0xbd, 0x34, 0x03, 0x30, 0xbc, 0x56, 0x25, 0x9a, 0xbd, 0xb2, 0xbc, 0x9b, 0x3d,
0xec, 0xe7, 0x6b, 0x3d, 0xb1, 0x7d, 0x04, 0x3e, 0xeb, 0x0c, 0x96, 0xbe, 0x0c, 0x91, 0x8b, 0xbc,
0x66, 0x51, 0x94, 0xbd, 0x1c, 0xc6, 0x16, 0xbe, 0x5b, 0x10, 0x1e, 0x3e, 0x44, 0x3d, 0xaa, 0x3d,
0x82, 0x36, 0x23, 0xbd, 0x3d, 0xb9, 0x1d, 0xbd, 0xc9, 0x2e, 0x64, 0xbe, 0x17, 0x1e, 0xe7, 0x3d,
0xcc, 0x99, 0x19, 0xbe, 0xaf, 0x4d, 0x33, 0xbd, 0xc9, 0x1d, 0x32, 0xbd, 0x29, 0x23, 0xbb, 0xbc,
0x3f, 0x8f, 0xa2, 0xbd, 0xaa, 0x96, 0xcc, 0x3d, 0x42, 0x75, 0x82, 0xbd, 0x82, 0x51, 0x57, 0xbc,
0x93, 0xb8, 0x4e, 0xbd, 0x7c, 0xb8, 0x43, 0x3d, 0xdb, 0xfe, 0x17, 0x3e, 0xa8, 0x9c, 0x4a, 0xbe,
0x3d, 0xd1, 0x97, 0xb9, 0x9a, 0x4b, 0x1e, 0xbd, 0xa3, 0xdd, 0xc8, 0x3a, 0xff, 0x92, 0x78, 0x3c,
0x36, 0x27, 0xac, 0xbd, 0x59, 0x2b, 0xb7, 0x3a, 0xeb, 0xcc, 0x05, 0xbe, 0xbc, 0xf2, 0x7e, 0xbd,
0x48, 0x74, 0xae, 0x3e, 0xb2, 0xb9, 0xa7, 0xbd, 0xea, 0x90, 0xee, 0x3d, 0x22, 0xae, 0x4e, 0x3d,
0x6b, 0x23, 0x2b, 0x3e, 0x66, 0x3a, 0xf1, 0xbd, 0xdc, 0xc3, 0x81, 0xbe, 0x34, 0xd8, 0xbd, 0x3c,
0x00, 0x8c, 0x8a, 0x3d, 0x57, 0x21, 0xba, 0x3b, 0xd3, 0xd5, 0x5c, 0xbb, 0x39, 0x20, 0x9c, 0xbd,
0x2e, 0x7a, 0x11, 0xbd, 0xc3, 0xed, 0x2d, 0xbe, 0xd8, 0x33, 0xdf, 0xbc, 0x48, 0x92, 0x08, 0x3d,
0x5c, 0x98, 0xaf, 0x3c, 0x07, 0x9f, 0x0b, 0xbe, 0xa7, 0x5b, 0x24, 0x3e, 0xcf, 0x30, 0x1b, 0x3e,
0xd2, 0xda, 0x4b, 0xbe, 0xda, 0x81, 0x46, 0x3e, 0x3b, 0x84, 0x4a, 0xbe, 0x40, 0x5d, 0x50, 0xbe,
0x2c, 0x78, 0xfd, 0x3b, 0x63, 0x74, 0x24, 0x3e, 0x1d, 0x2f, 0x01, 0x3e, 0x5d, 0x59, 0x39, 0x3e,
0x06, 0xf9, 0x96, 0xbb, 0x7b, 0x4c, 0x75, 0x3e, 0x1f, 0x01, 0x7b, 0x3d, 0x97, 0x2d, 0xac, 0x3d,
0x5a, 0xbc, 0x28, 0x3e, 0xd5, 0x38, 0xd6, 0xbd, 0x7a, 0xdb, 0x37, 0x3e, 0x77, 0x3d, 0xe6, 0x3d,
0xb3, 0x7e, 0xc0, 0xbc, 0x4f, 0x6a, 0xb6, 0x3d, 0xf6, 0x8d, 0xe4, 0xbd, 0x4a, 0x60, 0x89, 0xbd,
0x93, 0x37, 0x3f, 0x3e, 0x7b, 0xd1, 0x39, 0x3e, 0x26, 0xf6, 0xf7, 0x3d, 0xc7, 0xef, 0x39, 0x3d,
0x54, 0x08, 0x49, 0x3d, 0xc6, 0x74, 0x34, 0x3d, 0xa2, 0xe2, 0x27, 0xbe, 0xe7, 0xee, 0x2c, 0x3d,
0xd4, 0x92, 0x9e, 0x3c, 0x26, 0xb6, 0x80, 0x3d, 0xd0, 0x46, 0xdc, 0x3d, 0x6b, 0xd2, 0x74, 0x3d,
0x82, 0xfa, 0x10, 0x3e, 0x47, 0xaf, 0xae, 0xbd, 0x1a, 0xe0, 0xd1, 0x3b, 0x3d, 0x49, 0x1d, 0xbb,
0xad, 0xfa, 0x0f, 0x3e, 0xa9, 0x31, 0x89, 0x3b, 0x51, 0xaf, 0x93, 0x3d, 0x71, 0x37, 0xb8, 0x3d,
0x5f, 0x1f, 0x4d, 0x3e, 0x63, 0x44, 0xc5, 0x3d, 0x13, 0xf3, 0xa5, 0x3d, 0x8d, 0x07, 0x08, 0x3e,
0x4e, 0x06, 0xec, 0xbd, 0xcc, 0x32, 0x82, 0xbd, 0x85, 0x5a, 0xb9, 0x3d, 0xcb, 0x60, 0xca, 0x3d,
0x76, 0xe7, 0x92, 0xbe, 0x44, 0xb5, 0x62, 0x3d, 0x33, 0xd4, 0x8b, 0xbd, 0xc4, 0x96, 0xb1, 0xbd,
0x63, 0xb4, 0x9b, 0xbc, 0xc1, 0x12, 0xc5, 0xbb, 0x0e, 0x48, 0x4c, 0x3e, 0x80, 0xbc, 0xc9, 0xbc,
0xd7, 0x99, 0x5f, 0xbd, 0x8a, 0xb9, 0x38, 0x3e, 0x9d, 0xbd, 0x29, 0x3c, 0x38, 0x56, 0x23, 0x3e,
0x49, 0xfc, 0x04, 0x3e, 0xb9, 0xce, 0x3c, 0xbd, 0xc8, 0x4c, 0xf8, 0x3d, 0xa3, 0xda, 0x87, 0x3e,
0x95, 0xcd, 0x2b, 0xbe, 0x63, 0x1a, 0x3c, 0x3e, 0x48, 0x93, 0x3b, 0xbc, 0x3d, 0x22, 0x09, 0xbe,
0xbb, 0x68, 0x1b, 0x3e, 0x7f, 0xbc, 0x57, 0x3e, 0xec, 0x84, 0x8b, 0x3d, 0x01, 0x65, 0xb6, 0x3d,
0xc0, 0x3a, 0x83, 0x3d, 0xee, 0xd8, 0x97, 0x3d, 0x38, 0x35, 0xf9, 0xbd, 0x1c, 0x4d, 0x01, 0xbd,
0xf5, 0x6b, 0xcf, 0x3d, 0xb7, 0x52, 0x4b, 0x3e, 0x45, 0xbb, 0x22, 0x3e, 0xef, 0x31, 0xc8, 0x3d,
0x30, 0x80, 0xf4, 0x3d, 0xad, 0x15, 0x5b, 0x3d, 0xfc, 0xcd, 0xfe, 0xbc, 0x0f, 0x8f, 0x3e, 0x3c,
0xcc, 0x45, 0x8c, 0x3b, 0x44, 0x0c, 0xd4, 0x3d, 0x74, 0x9c, 0x04, 0x3c, 0x92, 0xa2, 0x29, 0x3e,
0x39, 0x52, 0x25, 0x3e, 0x17, 0x2a, 0xc5, 0x3c, 0xc0, 0xa9, 0x4c, 0xbd, 0x15, 0x3d, 0x40, 0x3d,
0xa2, 0x33, 0x3e, 0x3d, 0x1f, 0x7f, 0x9b, 0xbc, 0x82, 0x0e, 0xc7, 0xbc, 0x64, 0x12, 0x8f, 0x3c,
0xad, 0x2d, 0x82, 0xbe, 0xe7, 0xf1, 0xc8, 0xbb, 0x8f, 0xce, 0xa1, 0xbc, 0x82, 0xd2, 0x06, 0xbe,
0x12, 0xd2, 0x44, 0x3d, 0x4f, 0x1b, 0x29, 0x3c, 0xc0, 0x8a, 0xf7, 0x3d, 0x27, 0x48, 0xe3, 0xbc,
0xda, 0x37, 0x6a, 0xbd, 0x00, 0x9d, 0x09, 0xbe, 0xe0, 0x95, 0x1f, 0x3d, 0x79, 0x29, 0x2e, 0x3e,
0xef, 0xc0, 0x53, 0x3d, 0x84, 0x94, 0x89, 0x3d, 0xfe, 0x2c, 0x47, 0x3e, 0xa7, 0xba, 0xae, 0x3e,
0xdd, 0x94, 0x91, 0xbe, 0x83, 0x68, 0x4e, 0x3e, 0x98, 0xc7, 0xc7, 0xbd, 0x31, 0xb0, 0xc2, 0xbc,
0x33, 0x3c, 0xd8, 0x3d, 0x8d, 0x2e, 0x29, 0x3e, 0x34, 0xd6, 0x4a, 0xbb, 0x58, 0x84, 0x6a, 0x3d,
0x5f, 0x54, 0xb1, 0xbd, 0x34, 0x40, 0xb1, 0xbc, 0x85, 0xed, 0xcc, 0xbc, 0x89, 0x1e, 0x10, 0x3c,
0x5e, 0xe3, 0x0c, 0x3d, 0x85, 0x15, 0xfe, 0x3d, 0x87, 0x83, 0x48, 0x3e, 0x6a, 0xf5, 0x06, 0x3e,
0x1a, 0x1a, 0x55, 0x3e, 0x69, 0x44, 0x5c, 0x3c, 0xc4, 0xf4, 0xf0, 0xbc, 0x66, 0xb7, 0xf8, 0x3c,
0x19, 0xa0, 0xae, 0xbc, 0xa5, 0x9a, 0x30, 0x3d, 0xf8, 0xc2, 0x0a, 0x3e, 0xb6, 0xf4, 0x86, 0x3d,
0xe4, 0x1a, 0x2f, 0x3e, 0x90, 0xd1, 0xe8, 0x3d, 0xae, 0xf8, 0xb2, 0x3d, 0x3c, 0x17, 0x9b, 0x3d,
0x4f, 0x73, 0x4c, 0xbd, 0x2d, 0x4a, 0xd4, 0x3d, 0x0f, 0x49, 0x15, 0xbe, 0x04, 0xbd, 0x01, 0x3e,
0x1d, 0x0b, 0xd6, 0xbd, 0xe3, 0xd5, 0x95, 0xbd, 0x6b, 0xd2, 0x76, 0x3e, 0x4f, 0x14, 0x41, 0x3d,
0xfe, 0x91, 0x8f, 0xbe, 0x76, 0x5a, 0xbb, 0x3d, 0x3c, 0xae, 0x61, 0xbe, 0xdd, 0xee, 0x0b, 0xbd,
0xb4, 0xb3, 0xe5, 0x3b, 0x65, 0x1d, 0x89, 0xbe, 0x72, 0xc5, 0x20, 0x3d, 0x8e, 0xf7, 0x4c, 0x3b,
0x94, 0xcb, 0xac, 0xbd, 0x58, 0x09, 0x0a, 0x3e, 0x99, 0x37, 0x68, 0xbe, 0xfb, 0x1a, 0x7a, 0x3d,
0x0f, 0x70, 0x33, 0x3c, 0xbf, 0xa6, 0x42, 0x3d, 0xbe, 0x42, 0xa3, 0x3e, 0xc4, 0x07, 0x27, 0xbe,
0xb2, 0x6b, 0xe8, 0x3c, 0x0d, 0x2b, 0x77, 0x3d, 0x66, 0x2e, 0xfe, 0xbd, 0x92, 0x9d, 0xd5, 0x3d,
0x8b, 0xf8, 0x92, 0xbc, 0x27, 0x51, 0x89, 0xbc, 0xa6, 0xb5, 0xa2, 0x3c, 0xc5, 0xba, 0x1a, 0x3e,
0x61, 0xe9, 0x44, 0xbd, 0x21, 0x0c, 0x6d, 0x3d, 0xca, 0x8f, 0xe0, 0xbd, 0xf6, 0x09, 0xd9, 0x3d,
0x48, 0xf6, 0x84, 0xbe, 0xb5, 0x0a, 0x67, 0x3d, 0xca, 0x8c, 0x94, 0x3d, 0xad, 0xb3, 0x5f, 0xbe,
0x49, 0xc5, 0x11, 0x3e, 0x29, 0x6c, 0x93, 0xbb, 0x4b, 0xa2, 0x8a, 0x3d, 0x74, 0xfa, 0xe5, 0x3d,
0x7a, 0x90, 0x89, 0xbe, 0x7d, 0x81, 0xa0, 0x3d, 0x3e, 0xd8, 0xe7, 0x3d, 0xa1, 0xa6, 0xd0, 0x3d,
0x21, 0xa7, 0x0c, 0xbe, 0x07, 0x35, 0xcb, 0x3d, 0x9b, 0x78, 0xb5, 0xbd, 0x41, 0x2d, 0x09, 0x3e,
0x95, 0xba, 0xa7, 0xbd, 0xcf, 0xad, 0x82, 0x3c, 0x81, 0x29, 0x2e, 0x3e, 0x1f, 0x12, 0xab, 0x3d,
0x24, 0xef, 0xa2, 0xbd, 0xfd, 0x7c, 0x23, 0x3d, 0x4e, 0x84, 0xae, 0xbd, 0xd0, 0x76, 0x46, 0xb6,
0xac, 0xa4, 0x62, 0x3d, 0x2e, 0x00, 0x35, 0xbe, 0xa6, 0x3f, 0xb5, 0xbc, 0xff, 0x5d, 0x79, 0x3d,
0xe1, 0xeb, 0x10, 0xbd, 0xa5, 0x5a, 0x2f, 0xbc, 0xde, 0xea, 0x13, 0xbd, 0xff, 0x0e, 0x18, 0x3e,
0xe9, 0x9d, 0x04, 0x3e, 0x14, 0xba, 0xd6, 0x3d, 0xb5, 0x6a, 0x9c, 0x3e, 0x17, 0x4b, 0x55, 0xbe,
0x89, 0xce, 0x75, 0xbc, 0x0d, 0x27, 0xe3, 0x3c, 0x23, 0xae, 0xc0, 0x3d, 0x5b, 0x48, 0x81, 0x3d,
0xe5, 0x25, 0x04, 0xbe, 0xa4, 0x9a, 0x07, 0x3d, 0x1c, 0xba, 0x23, 0xbd, 0x50, 0x6e, 0x63, 0x3d,
0xd4, 0xa1, 0xba, 0x3c, 0x7b, 0x52, 0x77, 0x3d, 0x0e, 0x5b, 0x12, 0xbe, 0x71, 0x86, 0x3a, 0x3e,
0x5a, 0x4b, 0x1c, 0xbe, 0xbd, 0x35, 0xe3, 0xbc, 0x66, 0x37, 0x4f, 0x3d, 0xd3, 0x03, 0x1d, 0xbe,
0x33, 0x14, 0x84, 0xbd, 0x15, 0xc5, 0x17, 0x3c, 0x25, 0x3f, 0x30, 0x3e, 0xe6, 0x59, 0xf9, 0x3d,
0x2b, 0xd0, 0x85, 0xbe, 0x32, 0x81, 0xe5, 0x3a, 0xb8, 0xb7, 0xbd, 0xbc, 0xf9, 0xd8, 0x1e, 0x3e,
0x0b, 0x96, 0xa2, 0xbd, 0x41, 0xba, 0x2f, 0x3d, 0xf1, 0xa6, 0xbf, 0x3d, 0x79, 0x3e, 0x9a, 0x3d,
0x40, 0x4b, 0x86, 0x3d, 0xe9, 0x69, 0x43, 0x3e, 0x28, 0x8a, 0x68, 0x3e, 0x45, 0xa6, 0x86, 0xbd,
0x1a, 0xa4, 0x11, 0x3e, 0x20, 0xe0, 0x93, 0x3d, 0x7d, 0x87, 0x90, 0x3e, 0xad, 0x1e, 0x8e, 0x3d,
0x72, 0x5d, 0xd6, 0x3d, 0xad, 0x5c, 0x25, 0x3d, 0x96, 0x7e, 0x2f, 0x3e, 0x69, 0x04, 0x20, 0x3d,
0x4f, 0x4c, 0x8e, 0xbd, 0xc3, 0x76, 0x70, 0x3d, 0xa0, 0x5f, 0xb6, 0xbd, 0xb8, 0xad, 0x51, 0x3d,
0x05, 0x4d, 0x0b, 0x3e, 0xc8, 0x4a, 0x38, 0x3e, 0xeb, 0x19, 0xf4, 0x3d, 0x3a, 0x62, 0xc7, 0xbd,
0xeb, 0xa5, 0xab, 0x3d, 0x3a, 0x19, 0x9c, 0x3d, 0x4a, 0x42, 0xb9, 0x3e, 0xcb, 0xd0, 0x89, 0x3e,
0x88, 0x87, 0xa7, 0xb8, 0xce, 0x0d, 0x5f, 0x3e, 0x37, 0xe9, 0x71, 0x3d, 0x50, 0xa2, 0x52, 0x3d,
0x85, 0xf1, 0x37, 0x3e, 0x0d, 0x49, 0x94, 0xbc, 0x08, 0xc5, 0x3c, 0xbe, 0x5e, 0x26, 0x9d, 0x3d,
0x84, 0x6a, 0x2d, 0xbe, 0xb5, 0x37, 0xe4, 0x3d, 0xff, 0xb1, 0xb4, 0x3b, 0xb5, 0xf2, 0xdc, 0xbd,
0x14, 0x5d, 0x10, 0x3e, 0x81, 0x0a, 0x30, 0x3d, 0x4f, 0xf6, 0xf1, 0x3d, 0xb2, 0x31, 0x32, 0xbd,
0x63, 0xeb, 0x54, 0xbe, 0x7e, 0xdd, 0xed, 0x3d, 0x6f, 0x95, 0x99, 0x3d, 0xd6, 0xfb, 0xe9, 0x3d,
0x41, 0xa6, 0xcb, 0xbc, 0xb5, 0xb6, 0xa9, 0xbc, 0x52, 0x40, 0xf0, 0x3b, 0x17, 0x66, 0xdd, 0x3c,
0x33, 0x17, 0x0e, 0xbe, 0x16, 0xfb, 0x76, 0x3e, 0xc3, 0x83, 0x83, 0xbe, 0x97, 0x65, 0x00, 0x3d,
0xa9, 0xfd, 0xeb, 0xbd, 0x6a, 0xa0, 0x5a, 0x3b, 0xa9, 0x8a, 0xd2, 0x3d, 0x7c, 0x60, 0x08, 0x3e,
0x51, 0xfe, 0x0c, 0x3e, 0xe9, 0x75, 0x85, 0x3e, 0xa2, 0x24, 0x2b, 0x3e, 0x1d, 0x3e, 0xbf, 0x3d,
0x94, 0x72, 0xbb, 0xba, 0xbb, 0xae, 0xb6, 0x3c, 0x8a, 0x82, 0x1d, 0x3d, 0x30, 0xbb, 0x3f, 0x3e,
0x30, 0x81, 0xdc, 0xbd, 0x8e, 0x4a, 0xee, 0x3d, 0x78, 0x9e, 0xf1, 0xbd, 0xf9, 0xe1, 0x04, 0x3e,
0xc7, 0x47, 0x41, 0xbd, 0x29, 0x92, 0x3d, 0x3e, 0x59, 0x3e, 0x2e, 0x3e, 0x60, 0x23, 0xda, 0x3c,
0xf0, 0x5a, 0x87, 0x3d, 0x0a, 0x9a, 0x07, 0x3e, 0xdd, 0x98, 0xec, 0x3d, 0x4c, 0xf8, 0x83, 0xbd,
0x2a, 0x80, 0xf2, 0xbd, 0x3d, 0x9a, 0x39, 0x3e, 0x3d, 0x6e, 0xd8, 0x3d, 0x62, 0x03, 0x75, 0xbd,
0x1a, 0x66, 0x23, 0x3e, 0x89, 0x89, 0x24, 0xbd, 0x22, 0xda, 0x03, 0x3e, 0xcd, 0x74, 0xd9, 0x3d,
0xdd, 0x41, 0xb4, 0xbc, 0x87, 0xb6, 0xe7, 0x3d, 0xc3, 0xb4, 0xe5, 0x3d, 0x99, 0x31, 0xc5, 0x3d,
0x06, 0xa4, 0xe7, 0x3d, 0x51, 0x75, 0x5e, 0x3d, 0xc4, 0x2f, 0x4d, 0x3e, 0x36, 0x52, 0xb4, 0x3d,
0xff, 0x14, 0x7a, 0x3d, 0x81, 0x67, 0x50, 0x3d, 0xab, 0x26, 0x0a, 0x3d, 0x6a, 0x88, 0x76, 0x3e,
0x03, 0x26, 0x22, 0xbe, 0x9e, 0x92, 0x37, 0x3e, 0x0f, 0x2d, 0x85, 0xbe, 0x80, 0xa9, 0xde, 0x3d,
0x63, 0x54, 0x8d, 0x3b, 0x2a, 0xef, 0x2f, 0x3e, 0x01, 0xb9, 0x5c, 0x3e, 0xae, 0xe1, 0x80, 0x3d,
0x76, 0x9c, 0x07, 0x3e, 0x00, 0xf2, 0x6e, 0x3e, 0x50, 0x76, 0x91, 0x3d, 0x2e, 0xaa, 0x21, 0x3e,
0xc2, 0xef, 0x1e, 0xbd, 0x43, 0x45, 0x7f, 0x3d, 0xad, 0x19, 0x87, 0x3d, 0x21, 0x34, 0x11, 0x3e,
0x20, 0xd9, 0xba, 0x3c, 0x6b, 0x43, 0xae, 0x3e, 0x77, 0x6a, 0x84, 0xbd, 0x81, 0x65, 0x0e, 0xbc,
0x44, 0xea, 0x1b, 0x3d, 0x0a, 0x12, 0x6a, 0x3d, 0x12, 0x8a, 0x0d, 0x3e, 0xfb, 0x1e, 0x9f, 0x3d,
0x36, 0x15, 0x45, 0x3c, 0xf0, 0x93, 0x0a, 0x3e, 0xa3, 0x39, 0x96, 0x3d, 0x47, 0x7e, 0x92, 0x3d,
0x5b, 0x5a, 0xec, 0xbd, 0x02, 0x14, 0x02, 0x3d, 0x90, 0x83, 0x0c, 0x3e, 0x99, 0x0b, 0x32, 0x3e,
0x51, 0x1f, 0x50, 0x3d, 0x0a, 0x79, 0xd9, 0x3c, 0x2b, 0xa4, 0x99, 0x3d, 0xdb, 0x75, 0x3d, 0x3e,
0x0a, 0x06, 0x04, 0xbe, 0x06, 0x6c, 0x0a, 0x3e, 0xa6, 0x06, 0xbb, 0x3c, 0xd9, 0xbb, 0xfd, 0xbc,
0x31, 0x24, 0x0a, 0x3e, 0xab, 0xa3, 0xd2, 0xbb, 0x84, 0xcd, 0x01, 0x3e, 0x75, 0x81, 0xf1, 0x3d,
0xc4, 0x57, 0xee, 0xbd, 0x5b, 0x03, 0xee, 0xbc, 0x8a, 0x38, 0xb5, 0xbd, 0x74, 0x6e, 0x9c, 0x3e,
0xfd, 0xbc, 0x9a, 0xbe, 0xad, 0x79, 0x74, 0x3e, 0xde, 0xaf, 0x17, 0xbe, 0xff, 0xc2, 0x38, 0xbd,
0x6e, 0xcc, 0x2c, 0xbd, 0x29, 0x72, 0x36, 0x3e, 0x34, 0xc2, 0x3d, 0x3e, 0x52, 0x03, 0x0d, 0x3e,
0x2d, 0xfe, 0xb9, 0xbb, 0x4e, 0xf1, 0xf9, 0x3d, 0x7d, 0xcd, 0x60, 0x3e, 0x73, 0x72, 0x0d, 0x3e,
0xe1, 0x79, 0x55, 0xbd, 0x9b, 0xc2, 0x63, 0x3d, 0xc5, 0xff, 0x30, 0x3d, 0x0f, 0xcb, 0x44, 0x3e,
0x40, 0x58, 0xcc, 0xbd, 0xe6, 0x64, 0x60, 0x3e, 0xef, 0x33, 0x92, 0xbd, 0x19, 0x3a, 0xd8, 0x3c,
0x07, 0xb2, 0x7c, 0x3d, 0x5c, 0xf9, 0xfd, 0x3d, 0x8d, 0xa7, 0xfe, 0x3d, 0x73, 0x75, 0xa4, 0x3d,
0xd3, 0x1b, 0x37, 0xbd, 0x83, 0x09, 0xf6, 0x3d, 0x84, 0x89, 0xaa, 0x3c, 0x7e, 0xbe, 0x3e, 0x3d,
0x47, 0xb6, 0x0c, 0xbe, 0x67, 0x71, 0x11, 0x3e, 0x9b, 0xf0, 0x11, 0x3c, 0xd6, 0x2b, 0xf8, 0x3d,
0x66, 0x33, 0x9c, 0x3d, 0xc6, 0xb7, 0xf8, 0x3c, 0x05, 0x32, 0x09, 0xbc, 0x4d, 0x9c, 0x10, 0x3e,
0x2c, 0x31, 0x70, 0xbd, 0xa8, 0x5f, 0x0f, 0x3d, 0x99, 0x27, 0xe6, 0x3c, 0xc6, 0x42, 0x3a, 0x3d,
0xfa, 0xbf, 0xd9, 0x3d, 0x6c, 0x33, 0x3f, 0x3e, 0xd0, 0x32, 0xf8, 0x3d, 0x68, 0x6b, 0xe7, 0x3d,
0x84, 0x4c, 0x51, 0x3d, 0xfa, 0xab, 0x84, 0xbc, 0x3c, 0x42, 0x5b, 0x3d, 0xbb, 0x12, 0x87, 0xbc,
0x7c, 0x73, 0x37, 0x3e, 0xbb, 0x81, 0x4b, 0x3e, 0xe3, 0x86, 0x47, 0x3e, 0x96, 0x5f, 0x8a, 0xbd,
0xfe, 0xe0, 0x5c, 0x3e, 0x2b, 0x61, 0x51, 0x3d, 0x21, 0xbc, 0x01, 0x3e, 0x86, 0x36, 0xb6, 0xba,
0xd1, 0xfb, 0xdd, 0xbc, 0x92, 0x75, 0x0a, 0x3e, 0xb4, 0x94, 0x13, 0x3e, 0x70, 0x28, 0xb1, 0x3d,
0x39, 0x9f, 0x43, 0x3e, 0x5e, 0x1f, 0x54, 0xbd, 0x0e, 0xbb, 0x98, 0xbd, 0x6c, 0xc7, 0x9e, 0x3c,
0x95, 0x87, 0xc7, 0x3c, 0x24, 0xac, 0xef, 0xbc, 0x2e, 0xc7, 0x05, 0xbd, 0x49, 0x7c, 0x28, 0x3d,
0x7d, 0xb1, 0xf1, 0x3d, 0xde, 0xc0, 0xb2, 0x3d, 0x29, 0xe7, 0x8f, 0xbd, 0xe4, 0xfc, 0x58, 0x3c,
0x27, 0x5f, 0xe6, 0x3b, 0xbc, 0x5e, 0xf8, 0xbc, 0x73, 0xb3, 0x91, 0xbd, 0x0a, 0x74, 0x2d, 0x3c,
0xe1, 0x53, 0x96, 0xbc, 0x61, 0xfc, 0xe9, 0x3b, 0x36, 0x48, 0x87, 0xbe, 0xc0, 0x5a, 0x09, 0x3e,
0x7d, 0xc5, 0x2f, 0xbe, 0xc2, 0x9d, 0x08, 0x3d, 0x40, 0xb8, 0x54, 0xbd, 0x9e, 0x7e, 0x4a, 0xbe,
0xc0, 0x41, 0xd6, 0xbd, 0x2f, 0xb0, 0x06, 0xbc, 0x03, 0x42, 0xb2, 0xbd, 0xc2, 0x50, 0x81, 0x3c,
0xee, 0x44, 0x02, 0xbe, 0x2e, 0xcf, 0x09, 0x3d, 0x17, 0xfb, 0x9c, 0x3c, 0xec, 0x52, 0x0b, 0xbd,
0x8a, 0x37, 0x25, 0x3d, 0x30, 0x62, 0x5e, 0x3d, 0x3b, 0x0a, 0xaf, 0x3d, 0x3b, 0xe9, 0xe8, 0xbd,
0x10, 0xe3, 0x1c, 0x3e, 0xe3, 0x93, 0x92, 0x3c, 0x01, 0xb9, 0x2e, 0x3e, 0x1c, 0xfb, 0xdb, 0xbd,
0x14, 0x5d, 0xc7, 0x3d, 0x72, 0xdb, 0xd5, 0x3d, 0x89, 0xce, 0x3d, 0x3e, 0x8c, 0x02, 0x24, 0xbd,
0xd6, 0xd1, 0x18, 0x3e, 0xe2, 0xe0, 0x1d, 0xbc, 0x29, 0xa1, 0xda, 0x3b, 0x47, 0x8c, 0x98, 0x3d,
0xdb, 0xc2, 0xcd, 0x3d, 0x00, 0xee, 0xa5, 0xbd, 0x63, 0x2d, 0xdc, 0x3d, 0x13, 0xe6, 0xd9, 0x3d,
0x74, 0x6c, 0xaa, 0xbc, 0xbe, 0xea, 0x32, 0x3d, 0x94, 0x08, 0x1e, 0x3d, 0x3c, 0x09, 0xc5, 0x3d,
0x31, 0xbc, 0x55, 0x3e, 0x28, 0xe3, 0xc7, 0xbb, 0x67, 0x68, 0xc3, 0x3c, 0x1a, 0x87, 0x2b, 0xbd,
0x2a, 0xb4, 0xe8, 0xbd, 0x35, 0x57, 0xf5, 0xbd, 0x30, 0xa1, 0xd8, 0xbd, 0xd1, 0x26, 0x13, 0x3e,
0x17, 0xf5, 0xa4, 0x3d, 0x77, 0x00, 0xea, 0x3c, 0x3c, 0xac, 0x47, 0xbe, 0x90, 0x0e, 0x08, 0x3d,
0x19, 0xa8, 0x89, 0xbe, 0xb1, 0x6c, 0xbe, 0xbc, 0x0c, 0xbc, 0x76, 0xbd, 0x8c, 0xca, 0x60, 0xbe,
0xa5, 0xc0, 0xcf, 0xbb, 0x35, 0xc9, 0xdb, 0xbd, 0xab, 0x53, 0xc8, 0xbc, 0x0c, 0xec, 0x39, 0x3e,
0xbf, 0xa2, 0x4e, 0xbe, 0xb0, 0x1d, 0x5c, 0xbd, 0xe6, 0x89, 0xa4, 0x3c, 0xe5, 0xa3, 0x81, 0xbd,
0x9c, 0xf5, 0xb2, 0x3d, 0xca, 0x36, 0x77, 0xbe, 0xef, 0x99, 0xcb, 0xbb, 0xd5, 0x69, 0x05, 0xbe,
0xb5, 0xb1, 0xa5, 0x3d, 0xb0, 0x77, 0xde, 0xbd, 0x4f, 0x87, 0xba, 0xbd, 0xf4, 0xd4, 0x45, 0x3c,
0x03, 0x71, 0x0f, 0x3e, 0x35, 0xec, 0xbc, 0xbd, 0x8d, 0x02, 0x6c, 0x3d, 0xe5, 0xfc, 0xa6, 0x3c,
0xbc, 0x09, 0x15, 0x3e, 0x2a, 0x31, 0x06, 0x3e, 0x6e, 0x73, 0x9a, 0xbc, 0x11, 0xf3, 0xff, 0x3d,
0x48, 0x15, 0xf7, 0x3d, 0xf0, 0xc4, 0xb9, 0x3d, 0xc4, 0xcd, 0x16, 0x3e, 0xc0, 0x63, 0x15, 0xba,
0x00, 0x8e, 0x13, 0x3d, 0xd9, 0xf5, 0x40, 0x3e, 0xb4, 0xaa, 0x4b, 0x3e, 0xa0, 0x8f, 0x9b, 0xbd,
0xdf, 0x3c, 0xd3, 0x3d, 0x8e, 0x30, 0x58, 0x3d, 0x2e, 0x83, 0x1d, 0x3e, 0x35, 0x6e, 0x88, 0x3c,
0xab, 0x05, 0x49, 0x3e, 0xd3, 0xfa, 0x25, 0x3d, 0x23, 0xa3, 0x5f, 0x3c, 0xda, 0xd2, 0x8e, 0xbc,
0xb8, 0xb7, 0xd0, 0xbc, 0x5d, 0x71, 0xcc, 0x3d, 0x5f, 0xc2, 0x57, 0xbe, 0xdb, 0xca, 0x37, 0x3d,
0x8c, 0x28, 0x45, 0xbd, 0x2a, 0x6c, 0xef, 0x3d, 0xaf, 0xc7, 0x0c, 0xbd, 0x01, 0x87, 0xa8, 0x3c,
0x21, 0x6e, 0x45, 0xbd, 0x62, 0x9c, 0xf1, 0x3d, 0x4e, 0x71, 0xcb, 0x3c, 0xc4, 0xb2, 0x5a, 0x3d,
0x8a, 0x7e, 0x49, 0xbe, 0xed, 0x3b, 0x83, 0x3d, 0xfe, 0x84, 0x33, 0xbd, 0xec, 0xf5, 0xb9, 0x3d,
0x21, 0x55, 0x94, 0x3b, 0x02, 0xa5, 0x1a, 0x3e, 0x10, 0x81, 0xb6, 0xbe, 0x79, 0x73, 0x96, 0x3e,
0x75, 0x05, 0xc5, 0x3d, 0x5b, 0xba, 0x46, 0x3e, 0xcc, 0x95, 0x13, 0x3d, 0xd1, 0x3d, 0xf1, 0x3d,
0xd0, 0x29, 0xf6, 0xbd, 0xa6, 0xb0, 0xe6, 0x3d, 0x31, 0x87, 0x07, 0x3e, 0xad, 0x05, 0x28, 0x3d,
0x95, 0xbe, 0x60, 0xbe, 0xe5, 0xe1, 0xae, 0xbd, 0x2e, 0x7b, 0x26, 0x3e, 0x83, 0x1b, 0x08, 0x3d,
0x2b, 0x8a, 0x15, 0xbe, 0x76, 0x2b, 0x73, 0x3e, 0x1a, 0x3b, 0x5f, 0xbe, 0xf0, 0x6f, 0x1e, 0x3e,
0x3b, 0xdc, 0x04, 0xbd, 0xcd, 0x77, 0x46, 0x3d, 0xdb, 0x78, 0x6e, 0x3e, 0x64, 0x17, 0xd5, 0xbd,
0x00, 0x23, 0x07, 0xbe, 0x00, 0x5a, 0xf6, 0x3d, 0x8e, 0xb9, 0xf9, 0x3d, 0x95, 0x85, 0xeb, 0x3a,
0x5b, 0xeb, 0xf5, 0xbd, 0x2a, 0x28, 0xbc, 0xbd, 0x8b, 0x2a, 0x3b, 0x3e, 0x55, 0x5e, 0xa8, 0xbb,
0x32, 0x31, 0x8f, 0xbe, 0x36, 0x3e, 0xcf, 0x3c, 0xa3, 0x96, 0x7c, 0xbe, 0x0e, 0xf0, 0x1a, 0x3e,
0x4c, 0x53, 0x74, 0xbe, 0xb6, 0x66, 0x4b, 0x3e, 0x9a, 0x80, 0xe2, 0x3d, 0x8d, 0xd9, 0x69, 0xbe,
0x68, 0xe6, 0x8e, 0xba, 0x2e, 0xed, 0xb5, 0x3d, 0x66, 0x92, 0x2d, 0x3c, 0xd8, 0xff, 0x9e, 0x3d,
0x2d, 0x33, 0x31, 0xbe, 0x61, 0x57, 0x12, 0x3e, 0x85, 0xa2, 0xe7, 0x3d, 0x7d, 0xf8, 0x92, 0x3d,
0x07, 0x08, 0xe8, 0x3d, 0xdf, 0xe8, 0x52, 0x3e, 0xa0, 0xfe, 0x41, 0xbe, 0x4c, 0x57, 0x46, 0x3e,
0x38, 0x72, 0xb6, 0x3e, 0xb0, 0x7f, 0x62, 0x3e, 0x03, 0x03, 0x36, 0x3e, 0x74, 0x29, 0x61, 0x3e,
0xb5, 0x18, 0x3c, 0xbe, 0x14, 0xbb, 0xbe, 0x3d, 0x62, 0x15, 0x9e, 0x3c, 0x7e, 0x00, 0x44, 0x3e,
0xc5, 0xae, 0x2d, 0xbd, 0x9c, 0x3a, 0x33, 0xbc, 0x02, 0x43, 0x27, 0x3d, 0x9b, 0x6e, 0x9d, 0x3c,
0x85, 0x26, 0x21, 0xbe, 0x1e, 0x80, 0x54, 0x3e, 0x1c, 0xe9, 0x39, 0xbe, 0x8a, 0x08, 0x32, 0xbd,
0x2b, 0x24, 0x04, 0x3e, 0x65, 0x12, 0x8e, 0x3d, 0xf9, 0x96, 0xec, 0x3d, 0x4a, 0xde, 0x68, 0xbc,
0x6c, 0xcf, 0x26, 0xbc, 0x6f, 0xf2, 0xbc, 0x3d, 0x1d, 0x84, 0x23, 0x3e, 0x2a, 0xf9, 0x7a, 0x3d,
0x74, 0x42, 0x6f, 0xbd, 0xf1, 0xfd, 0x30, 0x3e, 0x04, 0x10, 0x3b, 0x3e, 0x80, 0x48, 0x06, 0x3d,
0xb6, 0x43, 0x9e, 0xbd, 0xec, 0x55, 0x05, 0x3e, 0xf3, 0xef, 0xda, 0xbd, 0x28, 0x75, 0xd9, 0x3d,
0x27, 0x67, 0x0e, 0xbe, 0x35, 0xfb, 0x11, 0x3e, 0xfa, 0xda, 0xf6, 0x3d, 0x06, 0xac, 0x44, 0x3c,
0xdd, 0x0c, 0xd1, 0x3d, 0xfb, 0x62, 0x8e, 0x3d, 0xe8, 0x5a, 0xe8, 0x3c, 0x37, 0x42, 0x85, 0x3d,
0x94, 0x88, 0xa9, 0xbe, 0x2d, 0x03, 0xc6, 0x3d, 0xaa, 0x17, 0xd9, 0x3d, 0x5a, 0xb9, 0xca, 0x3d,
0x5f, 0xc6, 0x46, 0x3e, 0xdd, 0x09, 0x3d, 0x3e, 0x74, 0x2a, 0x98, 0x3d, 0x67, 0x0a, 0x81, 0x3d,
0x87, 0x49, 0xcb, 0x3e, 0x15, 0xb6, 0x3b, 0x3d, 0x0b, 0xc6, 0xba, 0xbd, 0x51, 0xf5, 0x88, 0x3e,
0x4f, 0x8f, 0xfa, 0xbd, 0x64, 0x8c, 0xa2, 0x3d, 0x48, 0x0b, 0x30, 0x3e, 0xbb, 0xc0, 0x4f, 0x3e,
0x07, 0xc5, 0xe2, 0x3d, 0x3e, 0x26, 0x5a, 0x3e, 0x34, 0x93, 0xd8, 0x3d, 0xc9, 0xd3, 0xca, 0xbc,
0xd0, 0xd3, 0x9c, 0xbd, 0x72, 0xe7, 0xfc, 0x3d, 0x90, 0x44, 0x9e, 0x3d, 0x4d, 0x3c, 0x06, 0xbd,
0xad, 0xcc, 0x0e, 0x3e, 0xf8, 0x4d, 0x74, 0x3e, 0x25, 0xa9, 0x55, 0x3d, 0x63, 0x78, 0x0e, 0x3e,
0xd0, 0x22, 0x6e, 0xbd, 0xd4, 0x3f, 0x0b, 0x3d, 0xcf, 0x46, 0x69, 0x3e, 0x8e, 0x27, 0x0f, 0x3e,
0xe9, 0x3d, 0xd4, 0xbd, 0x36, 0x92, 0x1c, 0x3e, 0xc6, 0xec, 0x62, 0x3e, 0x92, 0xda, 0xc3, 0xbc,
0x8d, 0x27, 0xa1, 0xbc, 0x18, 0x90, 0xda, 0x3b, 0xdd, 0x5c, 0x17, 0xbe, 0x58, 0x07, 0x07, 0xbc,
0xb2, 0x35, 0x1f, 0xbe, 0x69, 0xac, 0x20, 0x3e, 0x6d, 0x4d, 0xd7, 0x3d, 0x93, 0x44, 0x23, 0x3e,
0x45, 0x87, 0x31, 0x3e, 0xb3, 0xbe, 0xbe, 0x3d, 0x22, 0x7c, 0x52, 0x3e, 0x57, 0xf3, 0x8e, 0x3d,
0x55, 0xb7, 0x69, 0xbe, 0xe9, 0x93, 0xf7, 0x3d, 0x51, 0x9c, 0x62, 0x3e, 0x20, 0x4a, 0x21, 0xbe,
0x59, 0x67, 0x53, 0xba, 0x66, 0x61, 0xb9, 0xbc, 0xf2, 0x16, 0xab, 0x3c, 0x54, 0x88, 0x5b, 0xbe,
0x9c, 0x48, 0xe1, 0x3d, 0x26, 0xa8, 0xfc, 0xbe, 0x7d, 0x60, 0xb6, 0x3c, 0x71, 0x5a, 0xbe, 0x3d,
0xa0, 0x4e, 0x1c, 0x3e, 0x50, 0x35, 0x69, 0xbc, 0x09, 0x5e, 0x91, 0xbe, 0x5a, 0x1f, 0x13, 0xbe,
0x24, 0xba, 0xd1, 0xbd, 0xb8, 0x27, 0x9d, 0xbe, 0x4a, 0x89, 0x92, 0x3d, 0x32, 0xbf, 0xf8, 0xbc,
0x18, 0x7d, 0xad, 0x3c, 0xe6, 0x6d, 0x10, 0xbe, 0x69, 0xe1, 0xa7, 0xbd, 0x60, 0x41, 0x97, 0x3c,
0xc8, 0x7c, 0xc0, 0x3c, 0x81, 0xeb, 0x28, 0xbe, 0xf5, 0x7e, 0xbc, 0x3d, 0xe0, 0x8d, 0x26, 0xbd,
0x79, 0xd6, 0x2e, 0x3e, 0xfa, 0xaf, 0x82, 0xbd, 0x61, 0x04, 0x5a, 0xbd, 0x1c, 0xd8, 0x67, 0xbe,
0xf3, 0x62, 0x38, 0xbd, 0x59, 0x7b, 0xf9, 0xbc, 0x92, 0x25, 0x27, 0x3c, 0x74, 0x3a, 0x9f, 0x3c,
0xd8, 0x16, 0x7f, 0xbe, 0xa4, 0x4d, 0x4d, 0xbc, 0x83, 0xec, 0xfe, 0xbd, 0x03, 0x92, 0x96, 0x3d,
0x0b, 0x07, 0x48, 0xbd, 0xca, 0x44, 0xa9, 0xbd, 0x7c, 0x3e, 0x2b, 0x3d, 0x88, 0x82, 0x8e, 0xbd,
0xbe, 0x6f, 0x5f, 0xbe, 0x15, 0x42, 0xc4, 0xbc, 0xc3, 0x9e, 0x20, 0x3c, 0x2d, 0x75, 0x67, 0x3a,
0x8a, 0x1e, 0xd2, 0x3d, 0x5d, 0x18, 0xd2, 0x3a, 0x42, 0xd4, 0xe5, 0xbd, 0x65, 0x29, 0x03, 0xbe,
0x2e, 0x0b, 0xae, 0x3b, 0x38, 0x64, 0x53, 0x3d, 0xc2, 0x1c, 0xe9, 0xbd, 0x58, 0x7b, 0x68, 0xbd,
0x4f, 0x1b, 0xc6, 0x3d, 0x39, 0x9b, 0x94, 0xbe, 0x03, 0x89, 0x48, 0x3d, 0xac, 0x8e, 0x5d, 0xbc,
0xd1, 0xb2, 0xf6, 0x3d, 0x73, 0xb0, 0xdb, 0xbc, 0x6f, 0x93, 0x9d, 0xbe, 0xd9, 0x23, 0x0b, 0xbe,
0xbe, 0xd0, 0x1e, 0xbd, 0x4e, 0x88, 0x59, 0xbe, 0x15, 0x59, 0xda, 0x3c, 0x2d, 0x8c, 0xd9, 0x3c,
0x6e, 0x2a, 0x69, 0x3d, 0x8e, 0x0a, 0x3e, 0xbe, 0xea, 0x24, 0x67, 0xbd, 0xbb, 0x98, 0x89, 0xbd,
0x91, 0x70, 0xae, 0xbd, 0x8a, 0x02, 0xdd, 0xbd, 0xbd, 0x94, 0x0a, 0x3d, 0xa1, 0x00, 0x00, 0xbe,
0x57, 0xf8, 0x3f, 0x3e, 0xf6, 0xf8, 0xde, 0x3a, 0x66, 0x34, 0x8e, 0xbd, 0x51, 0xf2, 0xd3, 0xbd,
0xcf, 0x32, 0x53, 0x3c, 0x8e, 0x4d, 0x97, 0x3b, 0x35, 0x58, 0x4d, 0xbd, 0x63, 0x6f, 0xf5, 0x3c,
0x2a, 0x1a, 0x36, 0xbe, 0x53, 0x3a, 0xce, 0x3d, 0xa6, 0xa8, 0x2f, 0x3d, 0x29, 0xbb, 0x17, 0x3d,
0x2f, 0x31, 0xe0, 0xbd, 0x73, 0x0c, 0xff, 0x3c, 0x02, 0xb4, 0x23, 0xbc, 0xb2, 0x67, 0xf5, 0xbc,
0x7a, 0x7f, 0xa2, 0x3c, 0xa7, 0x57, 0x33, 0xbe, 0x78, 0x64, 0xd0, 0xbd, 0xbf, 0xd6, 0x0c, 0xbe,
0xa6, 0x51, 0xa4, 0x3d, 0xaa, 0x3b, 0xf8, 0xbb, 0xb6, 0x0a, 0xfc, 0xbd, 0x5e, 0x7d, 0xdd, 0xbd,
0xae, 0xc1, 0xf2, 0x3d, 0x20, 0xdf, 0xd5, 0xbb, 0xc3, 0x0d, 0xa7, 0x3c, 0x5c, 0x26, 0x8b, 0xbc,
0x26, 0xa9, 0xaa, 0x3d, 0x38, 0x7f, 0x99, 0xbe, 0x76, 0x0c, 0xbe, 0x3d, 0x21, 0x9e, 0x27, 0x3e,
0x47, 0xda, 0x25, 0x3e, 0xea, 0xf1, 0xb3, 0xbd, 0xc7, 0x08, 0x68, 0xbe, 0x8f, 0x4a, 0x0f, 0xbe,
0xfe, 0x96, 0xba, 0x3c, 0xdd, 0x1e, 0x48, 0xbe, 0x29, 0x9c, 0x0f, 0xbd, 0x7b, 0x88, 0x85, 0x3c,
0x1b, 0x0b, 0xc0, 0xbd, 0x85, 0x8c, 0x0d, 0xbe, 0x7b, 0x9e, 0x5a, 0xbd, 0x7e, 0x5a, 0xae, 0xbd,
0x97, 0xa9, 0x77, 0xbc, 0x5b, 0x75, 0x6b, 0xbe, 0x3b, 0x21, 0xdd, 0x3d, 0x8a, 0xf8, 0xfd, 0x3d,
0x69, 0x6f, 0x00, 0x3d, 0xa0, 0xcd, 0xd7, 0xbd, 0xc8, 0xab, 0x21, 0xbe, 0x23, 0x8f, 0x1e, 0xbe,
0x0a, 0x81, 0xba, 0x3d, 0x68, 0xc2, 0x21, 0xbc, 0xa4, 0x88, 0x3e, 0xbc, 0x81, 0x78, 0x63, 0xba,
0x29, 0x4b, 0xa0, 0xbe, 0x98, 0x5d, 0xd1, 0xbd, 0x89, 0x2a, 0x8f, 0xbd, 0x10, 0x08, 0x9a, 0xbc,
0x31, 0x9c, 0xd0, 0xbc, 0xbd, 0xff, 0x2d, 0x3b, 0xc4, 0xc6, 0x89, 0xbd, 0x0c, 0xf9, 0x16, 0x3d,
0x16, 0x41, 0x7b, 0xbe, 0xc0, 0x0a, 0x15, 0x3d, 0x12, 0x8d, 0x6b, 0x3d, 0xf9, 0xf6, 0x64, 0x3c,
0x80, 0xec, 0x05, 0x3c, 0x0b, 0xef, 0xda, 0x3d, 0x90, 0xb7, 0x8a, 0x3c, 0xb5, 0xc8, 0xaa, 0xbe,
0xbe, 0x40, 0x60, 0xbd, 0x54, 0x0c, 0x94, 0xbd, 0xb8, 0x28, 0xe7, 0xba, 0x40, 0x84, 0x83, 0xbe,
0xdc, 0xed, 0xc4, 0x3d, 0x4b, 0x1e, 0x30, 0xbf, 0x24, 0x24, 0xd2, 0x3d, 0x5c, 0x42, 0x2b, 0x3d,
0x67, 0x71, 0x1b, 0x3e, 0x8a, 0xc5, 0x61, 0xbe, 0xf3, 0x13, 0x3c, 0xbf, 0x36, 0x65, 0xaf, 0xbe,
0x1a, 0xdd, 0x92, 0xbd, 0x9b, 0x25, 0x2a, 0xbf, 0x7a, 0x5f, 0x9d, 0xbe, 0x02, 0x96, 0x27, 0xbe,
0xdc, 0xfc, 0x99, 0xbc, 0x24, 0x8d, 0x89, 0x3d, 0x9e, 0x9a, 0x4d, 0xbc, 0x58, 0x27, 0x1d, 0xbe,
0xf1, 0x9b, 0xfb, 0x3d, 0xa9, 0xba, 0x8f, 0xbe, 0xc5, 0xc1, 0x07, 0x3d, 0xcb, 0x7d, 0x17, 0xbd,
0x99, 0xab, 0x27, 0xbe, 0x7e, 0x42, 0x5e, 0xbe, 0xe9, 0x48, 0xb3, 0xbe, 0xa7, 0x12, 0x81, 0xbe,
0xf8, 0x80, 0x12, 0x3d, 0x67, 0x50, 0x8f, 0xbe, 0x91, 0xb1, 0xe0, 0xbd, 0x03, 0xe0, 0x66, 0xbd,
0xc7, 0x3e, 0x42, 0xbe, 0xd8, 0x5d, 0x26, 0xbe, 0x72, 0x9e, 0x31, 0x3d, 0x23, 0x81, 0x5f, 0xbb,
0xf6, 0xe9, 0xdb, 0xbd, 0x9c, 0x21, 0xc2, 0x3b, 0x12, 0xce, 0x21, 0xbe, 0x08, 0xad, 0x07, 0xbc,
0xed, 0x16, 0xf5, 0xbd, 0x7c, 0x98, 0x30, 0xbe, 0x62, 0x9c, 0x6a, 0xbd, 0x34, 0xf3, 0x12, 0xbd,
0x37, 0xac, 0x66, 0x3d, 0x0f, 0x1b, 0xa7, 0xbd, 0x48, 0x19, 0xcf, 0xbd, 0xf2, 0x00, 0x92, 0xbe,
0xd3, 0x23, 0x25, 0x3c, 0x62, 0x82, 0x39, 0xbd, 0xdd, 0x49, 0x99, 0x3d, 0xbf, 0x9a, 0x19, 0xbe,
0x37, 0x0a, 0xad, 0x3e, 0x1b, 0x9a, 0x07, 0xbf, 0xa9, 0x13, 0xf5, 0x3d, 0x66, 0x15, 0xaa, 0xbb,
0x12, 0x7f, 0x58, 0x3e, 0x14, 0x53, 0x9d, 0xbe, 0xd4, 0x93, 0xed, 0xbe, 0x94, 0xda, 0x93, 0xbe,
0x70, 0x39, 0x51, 0xbd, 0xaf, 0xfa, 0xf2, 0xbe, 0x42, 0x52, 0x99, 0xbe, 0x95, 0x45, 0x1b, 0xbe,
0x26, 0xe3, 0xb0, 0xbd, 0xee, 0xa7, 0x8f, 0x3d, 0x29, 0x9e, 0x8f, 0x3b, 0x8f, 0xe8, 0x22, 0xbe,
0xc8, 0x2c, 0x61, 0x3e, 0x79, 0xa4, 0x44, 0xbe, 0x15, 0x85, 0xa3, 0x3d, 0x12, 0xd5, 0x07, 0x3e,
0xcd, 0x41, 0xfb, 0xba, 0x8f, 0x30, 0x8f, 0xbe, 0x7c, 0xe0, 0x9f, 0xbe, 0xfa, 0x37, 0x04, 0xbe,
0xc0, 0x4d, 0xce, 0xbd, 0x6c, 0xb4, 0x4b, 0xbe, 0xbf, 0xc2, 0xb9, 0xbc, 0xa5, 0xdd, 0xd6, 0x3c,
0x11, 0x82, 0x04, 0x3e, 0x37, 0x41, 0xd0, 0xbd, 0xf2, 0x87, 0xc2, 0x39, 0xc2, 0x73, 0xc4, 0xbc,
0x40, 0xe0, 0x19, 0x3e, 0x64, 0x81, 0xb8, 0xbd, 0x1a, 0x86, 0xff, 0x3b, 0xed, 0xf6, 0xfd, 0x3c,
0xd7, 0xff, 0xfc, 0xbd, 0xda, 0x4f, 0x4e, 0xbe, 0x8a, 0x27, 0x49, 0xbe, 0x29, 0x3a, 0xe9, 0xbc,
0x88, 0xb9, 0xde, 0xbd, 0x19, 0xc6, 0x07, 0xbe, 0xac, 0x52, 0xa8, 0xbc, 0xbc, 0xd7, 0xcc, 0xbe,
0x1c, 0x33, 0x68, 0x3d, 0x91, 0x03, 0x2b, 0x3d, 0xea, 0x9d, 0x32, 0x3d, 0xb9, 0x51, 0xbb, 0xbe,
0x34, 0x9e, 0x8a, 0x3e, 0x23, 0x30, 0x03, 0xbf, 0xf5, 0x08, 0xc3, 0xbc, 0x7d, 0xd8, 0x94, 0xbd,
0xf8, 0xe3, 0x43, 0x3e, 0x9b, 0x90, 0x9b, 0xbe, 0xfa, 0xd8, 0x0c, 0xbf, 0x88, 0x1f, 0x6b, 0xbe,
0x54, 0x72, 0x40, 0x3d, 0x13, 0xf2, 0x92, 0xbe, 0x13, 0x40, 0x2a, 0xbe, 0xc9, 0x03, 0xd7, 0xbd,
0x2d, 0xf9, 0x9e, 0xbd, 0x49, 0x89, 0x0a, 0xbd, 0x86, 0x9a, 0x93, 0x3d, 0xf7, 0x07, 0x54, 0xbe,
0xfa, 0x0a, 0xe1, 0x3d, 0x7e, 0xad, 0xa6, 0xbe, 0x7d, 0x6d, 0x30, 0x3c, 0xed, 0xfa, 0xc4, 0x3d,
0x68, 0x8f, 0x8f, 0xba, 0x6f, 0x77, 0x59, 0xbe, 0x07, 0x74, 0x23, 0xbe, 0x65, 0x4e, 0x1a, 0xbe,
0x50, 0xfb, 0x28, 0x3e, 0x73, 0xdf, 0x83, 0xbd, 0xf0, 0x4a, 0x8b, 0xbd, 0x0b, 0x3a, 0x67, 0xbd,
0xbf, 0xf2, 0x05, 0x3d, 0x76, 0x92, 0x80, 0xbd, 0xf8, 0x68, 0xc4, 0xbc, 0x67, 0xd6, 0x93, 0xbc,
0x4e, 0x16, 0xaf, 0x3d, 0xd4, 0x49, 0xd2, 0xbc, 0x91, 0xea, 0xc6, 0xbd, 0xf8, 0x83, 0x83, 0x3d,
0xe7, 0xf1, 0x11, 0xbd, 0x50, 0x68, 0xa2, 0xbc, 0xc6, 0xa7, 0x78, 0xbd, 0x87, 0xb2, 0x9a, 0xbd,
0x95, 0xfd, 0x0c, 0xbe, 0xc3, 0x54, 0x0c, 0xbe, 0x08, 0x2c, 0x30, 0x3d, 0x81, 0x3a, 0xce, 0xbc,
0xdb, 0x30, 0xda, 0xbd, 0x48, 0x13, 0xa7, 0x3c, 0xde, 0x2b, 0x3d, 0xbe, 0x62, 0xd4, 0x0e, 0x3e,
0x68, 0x13, 0x7b, 0xbc, 0x45, 0x3a, 0x2d, 0x3c, 0xed, 0xeb, 0x6d, 0x3d, 0xd2, 0x27, 0x2e, 0x3e,
0xdc, 0xa3, 0x40, 0xbd, 0xa9, 0x70, 0x65, 0x3d, 0x9c, 0xa6, 0x67, 0xbe, 0xf1, 0xa5, 0xc0, 0x3b,
0xfb, 0x49, 0x15, 0xbd, 0xc5, 0xac, 0xc7, 0xbd, 0x08, 0xb8, 0x84, 0xbd, 0x15, 0x56, 0x86, 0xbd,
0xe2, 0x85, 0xdf, 0x3d, 0xe6, 0x23, 0x37, 0x3d, 0x99, 0xde, 0x74, 0x3d, 0x27, 0x86, 0xa6, 0x3b,
0x24, 0xc1, 0xaa, 0x3d, 0xf7, 0x41, 0xda, 0x3d, 0x5f, 0xa3, 0x64, 0xbc, 0x59, 0xff, 0xa4, 0xbc,
0xcd, 0xb9, 0xe9, 0x3c, 0xd0, 0x4f, 0x46, 0xbd, 0xa2, 0xeb, 0xe9, 0x3c, 0x5f, 0x14, 0x66, 0x3d,
0x36, 0xab, 0x08, 0x3e, 0xf9, 0x5f, 0x85, 0x3d, 0xe1, 0x00, 0x29, 0xbe, 0xb3, 0xc9, 0x0e, 0x3c,
0x28, 0x87, 0x2b, 0x3e, 0xa1, 0x63, 0x2f, 0xbd, 0x42, 0x28, 0x16, 0x3e, 0x4a, 0xa6, 0xc8, 0x3d,
0xaf, 0x6b, 0x5f, 0x3c, 0xee, 0x39, 0xf9, 0xbc, 0x45, 0xa8, 0x40, 0xbd, 0xa3, 0x11, 0x43, 0x3d,
0x82, 0xf1, 0x66, 0x3e, 0x34, 0x15, 0x19, 0xbd, 0x88, 0x31, 0x57, 0x3b, 0x40, 0xe1, 0x61, 0x3d,
0xcf, 0x46, 0x26, 0x3d, 0xb3, 0x37, 0xe0, 0xbd, 0xb2, 0x71, 0xab, 0xbd, 0xe4, 0xf2, 0xf6, 0xbc,
0x88, 0x85, 0xdc, 0x3c, 0x4e, 0x61, 0x29, 0x3e, 0x21, 0x1f, 0x0b, 0xbe, 0x81, 0xad, 0xd7, 0x3d,
0xdf, 0xa7, 0x3d, 0xbd, 0x2f, 0x61, 0x8b, 0xbd, 0xfb, 0xc5, 0xdf, 0x3d, 0x03, 0x06, 0x13, 0x3e,
0xf0, 0x64, 0x96, 0xbd, 0x38, 0xc0, 0x4c, 0x3c, 0xc0, 0x7b, 0x89, 0xbe, 0xf8, 0x67, 0x78, 0x3d,
0xad, 0x44, 0x8d, 0xbd, 0x02, 0x82, 0x21, 0xbe, 0x7c, 0x36, 0xba, 0xbc, 0xf4, 0x73, 0x89, 0x3d,
0x12, 0xcc, 0x54, 0x3d, 0x8a, 0x83, 0x05, 0x3d, 0x99, 0x80, 0xae, 0xbd, 0x0d, 0x83, 0x92, 0x3d,
0x14, 0xb3, 0x03, 0xbe, 0x33, 0xb6, 0x88, 0x3d, 0x76, 0xcb, 0x4d, 0x3d, 0xb4, 0x80, 0x23, 0xbe,
0x82, 0xac, 0x0e, 0xbd, 0x0b, 0x97, 0x6b, 0x3d, 0x6e, 0xcf, 0x80, 0xbd, 0xab, 0x93, 0x94, 0x3d,
0xc1, 0x74, 0x9a, 0xbd, 0xdc, 0x57, 0xa5, 0xbd, 0x25, 0x40, 0xc4, 0xbd, 0x8d, 0xc0, 0x0e, 0xbd,
0xaa, 0xad, 0x15, 0x3e, 0xc3, 0xe2, 0x91, 0x3d, 0x13, 0x7d, 0x63, 0x3e, 0x08, 0x31, 0xa5, 0x3c,
0xf0, 0x57, 0xb9, 0x3d, 0x77, 0x0b, 0x0b, 0x3d, 0xdd, 0x86, 0x13, 0xbe, 0xc5, 0x44, 0xc5, 0x3d,
0x47, 0x93, 0xab, 0x3d, 0x49, 0xc2, 0x47, 0x3d, 0x9b, 0x3f, 0x0b, 0xbe, 0xa2, 0x4f, 0x39, 0x3d,
0xc3, 0x16, 0xf7, 0x3d, 0xed, 0xe9, 0x88, 0x3c, 0x29, 0x7c, 0x2e, 0xbe, 0xd7, 0x49, 0x04, 0xbd,
0x76, 0xea, 0xbb, 0xbc, 0x8d, 0x80, 0x57, 0x3d, 0x83, 0xcc, 0xb3, 0xbd, 0xc5, 0xa8, 0x97, 0x3d,
0xa7, 0x27, 0xb0, 0x3d, 0x8b, 0x20, 0x17, 0xbd, 0x9b, 0x68, 0x5d, 0x3e, 0x93, 0xde, 0x3b, 0x3e,
0x3d, 0xbf, 0x3f, 0x3d, 0xba, 0x0d, 0x0c, 0x3d, 0xb7, 0xfc, 0x5b, 0xbe, 0x09, 0x49, 0x5f, 0x3d,
0x23, 0xb2, 0x02, 0x3d, 0xb9, 0x15, 0x91, 0xbd, 0xc7, 0xce, 0x28, 0xbc, 0x0f, 0xe7, 0xa3, 0x3c,
0x8c, 0xe6, 0xab, 0xbc, 0x14, 0x4a, 0x69, 0x3d, 0xec, 0x8f, 0x2b, 0xbe, 0x25, 0xc6, 0x75, 0x3d,
0xf5, 0x38, 0x52, 0xbe, 0x74, 0x41, 0x85, 0x3d, 0xae, 0xfa, 0xec, 0xbc, 0xb0, 0x73, 0x1e, 0xbe,
0x4c, 0xde, 0x19, 0xbe, 0x7b, 0xbf, 0x59, 0x3d, 0xb3, 0x04, 0x75, 0xbd, 0xbc, 0xa6, 0xcd, 0xbc,
0x30, 0xe1, 0x32, 0xbe, 0x4c, 0xd6, 0x9b, 0x3c, 0x49, 0x7b, 0x1c, 0xbe, 0xdb, 0xb1, 0x90, 0x3d,
0x07, 0xe9, 0x1d, 0x3e, 0x55, 0xe6, 0x3e, 0x3e, 0x03, 0xdd, 0xe0, 0x3d, 0x06, 0xf6, 0xd2, 0x3d,
0xf0, 0xda, 0xa5, 0x3d, 0xf7, 0x95, 0xed, 0x3d, 0x81, 0x6c, 0xad, 0x3c, 0x3f, 0xf4, 0x28, 0x3d,
0xad, 0xd9, 0xe2, 0x3d, 0xb2, 0xb2, 0xaf, 0xbd, 0x69, 0x59, 0x01, 0xbe, 0xe2, 0xc5, 0xfc, 0xbc,
0x5b, 0x33, 0xf8, 0xbd, 0xb2, 0x43, 0xbd, 0x3d, 0x65, 0x55, 0x09, 0xbd, 0x5b, 0x8b, 0x9d, 0x3d,
0x30, 0x44, 0x65, 0x3e, 0xd8, 0x09, 0x72, 0x3e, 0xfc, 0xc3, 0xa8, 0x3d, 0xe8, 0xf6, 0x60, 0x3d,
0x99, 0x56, 0x06, 0x3e, 0x5b, 0x05, 0x9e, 0x3c, 0x3d, 0x03, 0x1e, 0x3d, 0xb1, 0x60, 0xb6, 0x3e,
0x12, 0x08, 0xec, 0x3d, 0x11, 0xde, 0xb8, 0x3d, 0xb2, 0xba, 0xef, 0xbb, 0xb6, 0x21, 0xcf, 0x3d,
0xe0, 0x7b, 0x87, 0x3d, 0x4b, 0xdf, 0x73, 0x3d, 0x6e, 0x8e, 0x3e, 0x3e, 0x33, 0x2c, 0x73, 0xbd,
0xc0, 0x50, 0xb3, 0x3d, 0x7d, 0x36, 0x29, 0x3d, 0x68, 0xe5, 0x2d, 0x3e, 0xac, 0x1e, 0xd4, 0xbd,
0xfd, 0xdd, 0xe0, 0x3d, 0x68, 0x67, 0x75, 0xbc, 0xdf, 0x51, 0xd9, 0x3b, 0x68, 0xa9, 0x85, 0x3e,
0x4e, 0xbc, 0x35, 0x3c, 0xf2, 0x98, 0x17, 0xbe, 0x4e, 0x6e, 0x37, 0x3c, 0xa6, 0xf0, 0xb7, 0x3d,
0x7c, 0x25, 0x60, 0x3e, 0x82, 0x3e, 0x36, 0x3e, 0xe2, 0x0b, 0xf5, 0x3d, 0x8f, 0x6c, 0xde, 0xbd,
0xc1, 0xfa, 0x12, 0xbc, 0x21, 0x9f, 0xe8, 0xbb, 0x90, 0x15, 0x36, 0x3d, 0xc7, 0x89, 0x27, 0xbd,
0x31, 0xfc, 0x5e, 0xbc, 0x67, 0x7d, 0xf6, 0xbb, 0xf3, 0x9a, 0xef, 0x3d, 0x3a, 0x1b, 0x32, 0xbe,
0xae, 0x4e, 0xc1, 0x3d, 0x91, 0x98, 0x37, 0xbd, 0xff, 0x62, 0xb2, 0xbc, 0xb5, 0xbf, 0x00, 0xbd,
0x1e, 0xb9, 0x88, 0x3e, 0x27, 0xf9, 0x0a, 0x3e, 0xc2, 0xa7, 0xc5, 0xbc, 0x41, 0xd1, 0xd6, 0xbc,
0x15, 0x93, 0x6d, 0x3e, 0x1d, 0xdc, 0x3b, 0x3d, 0xdc, 0xc1, 0x83, 0x3d, 0xc8, 0x77, 0xb6, 0xbd,
0xf9, 0x5b, 0xc2, 0xbc, 0xb5, 0xc5, 0x41, 0x3b, 0x3d, 0x95, 0x0c, 0x3e, 0xf6, 0x67, 0x65, 0x3e,
0x1c, 0x10, 0x23, 0x3d, 0x63, 0xc8, 0xc1, 0x3c, 0xe9, 0x93, 0x58, 0xbd, 0x74, 0x20, 0xae, 0x3d,
0xe1, 0xd7, 0xa3, 0xbd, 0x4f, 0x39, 0x7a, 0x3c, 0x29, 0x98, 0x0e, 0x3e, 0xe9, 0x12, 0xac, 0xbd,
0xf7, 0x5d, 0x9f, 0x3c, 0x50, 0x67, 0x05, 0xbc, 0x25, 0x42, 0x09, 0x3e, 0x63, 0x0c, 0x38, 0x3b,
0x87, 0xcb, 0x4f, 0x3e, 0xf2, 0x14, 0x01, 0xbe, 0x9d, 0x95, 0x45, 0x3e, 0xe3, 0x6a, 0x69, 0x3e,
0x97, 0x98, 0x04, 0x3e, 0xc2, 0x7f, 0xbb, 0xbd, 0x57, 0xbb, 0x5e, 0x3d, 0x7b, 0x15, 0xb8, 0xba,
0xba, 0x51, 0x27, 0x3e, 0xad, 0x2c, 0x13, 0x3e, 0xc5, 0x06, 0x81, 0x3d, 0x15, 0xd7, 0x16, 0xbe,
0xa9, 0x5a, 0xc2, 0xbd, 0xbe, 0xf8, 0x41, 0xbd, 0x32, 0x10, 0x77, 0x3d, 0x9f, 0xf1, 0xb5, 0x3d,
0xe6, 0x5e, 0x61, 0x3e, 0xfd, 0x4e, 0x05, 0x3e, 0xe6, 0xa1, 0xa5, 0x3d, 0x35, 0xe0, 0x53, 0xbd,
0x99, 0x07, 0x87, 0x3d, 0x5e, 0x87, 0x41, 0xbe, 0xe7, 0xf6, 0xb7, 0x3d, 0xe3, 0x9c, 0x6b, 0x3d,
0xe1, 0xd2, 0xfa, 0x3d, 0x0f, 0x42, 0x54, 0xbd, 0x33, 0x16, 0xa2, 0xbd, 0xa7, 0xd4, 0x9a, 0xbd,
0xb1, 0x86, 0x50, 0x3d, 0x15, 0xab, 0x1e, 0x3e, 0xce, 0x69, 0xcc, 0x3d, 0x78, 0x69, 0xfd, 0x3d,
0xa3, 0xae, 0xdd, 0x3d, 0xb2, 0xb4, 0xf8, 0xbd, 0xde, 0x59, 0x51, 0x3d, 0x4c, 0xfb, 0x61, 0x3e,
0x9a, 0x00, 0x7b, 0x3c, 0x49, 0x47, 0x01, 0x3c, 0x89, 0x95, 0x6a, 0xbd, 0xe5, 0x24, 0xd3, 0xbc,
0x1a, 0x0a, 0x96, 0xbd, 0xcd, 0x16, 0xd6, 0xbd, 0x92, 0x5f, 0x78, 0x3d, 0x36, 0x5d, 0x31, 0xbe,
0xdc, 0x48, 0xa2, 0x3e, 0x7b, 0x13, 0x7f, 0x3e, 0xae, 0xba, 0x67, 0x3d, 0x9e, 0xe1, 0x93, 0xbd,
0x9c, 0x3d, 0x49, 0x3e, 0x80, 0xb0, 0x28, 0xbe, 0xfd, 0xdc, 0x98, 0x3d, 0x32, 0x0c, 0x81, 0x3e,
0x16, 0xcb, 0x10, 0x3d, 0xa7, 0x06, 0x30, 0xbe, 0xff, 0xee, 0x6d, 0xbd, 0x82, 0x04, 0x09, 0x3e,
0xf3, 0xb6, 0xb1, 0x3d, 0x9f, 0x9e, 0x1c, 0x3d, 0x36, 0x92, 0x25, 0x3e, 0x21, 0x3d, 0x1e, 0x3d,
0x75, 0x89, 0x7a, 0x3c, 0x69, 0xf8, 0x9a, 0xbd, 0xe7, 0xb0, 0xf0, 0x3d, 0xd2, 0x58, 0xac, 0xbd,
0x5e, 0xc0, 0x1f, 0x3e, 0x39, 0x7c, 0xa5, 0x3d, 0x63, 0xd9, 0x2b, 0xbd, 0x21, 0x78, 0x06, 0x3d,
0xc9, 0x20, 0xcc, 0x3c, 0xb6, 0x3b, 0xa6, 0xbd, 0x8a, 0x07, 0x14, 0x3d, 0xdd, 0x58, 0x1a, 0x3d,
0x68, 0x11, 0x3b, 0x3e, 0x4a, 0x8c, 0x70, 0x3d, 0x8a, 0x6c, 0x23, 0xbe, 0x8c, 0xd7, 0x99, 0x3d,
0xfe, 0xa0, 0x37, 0x3e, 0x51, 0xf2, 0x3a, 0xbd, 0x96, 0x08, 0xc8, 0xbb, 0x27, 0xee, 0x08, 0x3d,
0xa9, 0x77, 0x14, 0xbd, 0x8e, 0x4a, 0xe7, 0x3b, 0x14, 0xe2, 0x57, 0x3d, 0x86, 0x44, 0x6a, 0xbe,
0x4e, 0x6e, 0x25, 0x3e, 0x06, 0x9d, 0x4a, 0x3c, 0x05, 0x46, 0x36, 0x3e, 0xf1, 0xdf, 0x82, 0xbd,
0x1e, 0x3f, 0x88, 0xbe, 0xbb, 0x9d, 0xd7, 0xbd, 0xb9, 0x72, 0x0c, 0xbc, 0x57, 0xa1, 0x04, 0xbd,
0x40, 0xfe, 0x24, 0xbd, 0xa9, 0x65, 0x97, 0xbe, 0x48, 0x97, 0x59, 0xbe, 0x65, 0x01, 0x9d, 0xbc,
0x8a, 0x2a, 0x9b, 0x3c, 0x8f, 0xee, 0x26, 0x3d, 0x8a, 0xee, 0xbb, 0x3d, 0xa7, 0x31, 0x0f, 0xbe,
0x8b, 0x8c, 0xbe, 0xbd, 0x56, 0x2b, 0xa8, 0x3d, 0x77, 0xe5, 0x30, 0x3d, 0x61, 0x79, 0x99, 0xbd,
0xbc, 0x9e, 0x14, 0xbe, 0x45, 0x3c, 0xae, 0x3a, 0xa5, 0xc5, 0xe0, 0xbd, 0x47, 0x4d, 0x15, 0x3e,
0x10, 0x83, 0xa7, 0xbe, 0xba, 0x66, 0xf5, 0xbd, 0xc6, 0xe8, 0x33, 0xbe, 0x10, 0x50, 0x8f, 0x3c,
0xe1, 0xa4, 0xd6, 0xbd, 0x2e, 0xed, 0xa9, 0x3a, 0x2a, 0x26, 0x45, 0xbd, 0xf0, 0x46, 0x33, 0xbe,
0xa9, 0x68, 0x52, 0xbe, 0x1c, 0xd5, 0xce, 0xbd, 0x92, 0xb3, 0x7c, 0xbd, 0x01, 0x16, 0x1e, 0x3d,
0x53, 0x81, 0xff, 0xbb, 0x3e, 0xb8, 0x78, 0x3d, 0xd9, 0xfa, 0x0d, 0xbc, 0x37, 0x3a, 0xb5, 0xbb,
0x88, 0x72, 0x21, 0xbc, 0x2d, 0xa1, 0x0c, 0x3d, 0x42, 0xb5, 0x7d, 0x3c, 0x6b, 0xeb, 0x23, 0xbd,
0x40, 0x8b, 0x02, 0xbc, 0xa1, 0x61, 0x1c, 0x3d, 0xfc, 0xf9, 0x1a, 0xbd, 0x6f, 0x8e, 0x64, 0xbe,
0x16, 0xca, 0x23, 0x3e, 0x08, 0x9c, 0x1c, 0xbc, 0xec, 0x5d, 0x83, 0xbc, 0x71, 0x05, 0xa2, 0xbd,
0x99, 0xc7, 0x1a, 0xbe, 0x6a, 0x66, 0x1f, 0xbe, 0x7e, 0x15, 0x7e, 0x3d, 0xbb, 0xf7, 0x80, 0x3d,
0xd5, 0x03, 0x6b, 0xbd, 0x15, 0x68, 0x2f, 0xbc, 0xe3, 0xbc, 0x19, 0xbe, 0x33, 0x93, 0x10, 0x3d,
0xd3, 0x14, 0xb9, 0xbd, 0x8d, 0x4f, 0x76, 0xbd, 0x8b, 0xb1, 0xff, 0x3b, 0x3c, 0xa1, 0x64, 0xbe,
0x5f, 0x34, 0x7b, 0xba, 0xf6, 0x58, 0x97, 0xbd, 0xef, 0xdb, 0x1c, 0x3d, 0xca, 0xa6, 0xc7, 0xbd,
0xbb, 0x37, 0xcc, 0xbd, 0x9f, 0x7e, 0x47, 0xba, 0x3e, 0xb8, 0x11, 0xbd, 0xea, 0x4f, 0xe8, 0x3d,
0x98, 0x98, 0x43, 0xbe, 0x70, 0x49, 0x09, 0xbe, 0x61, 0xa2, 0x14, 0xbe, 0x90, 0x29, 0x28, 0x3d,
0xd7, 0xe6, 0x35, 0xbe, 0x82, 0x74, 0x32, 0x3b, 0xeb, 0x8b, 0x27, 0xbd, 0xaa, 0x8d, 0x3c, 0xbe,
0x23, 0x5b, 0xc2, 0xbd, 0x41, 0x3e, 0xb6, 0xba, 0x05, 0x3b, 0x8f, 0xbd, 0x1b, 0x28, 0xe1, 0xbd,
0x0a, 0x3a, 0x33, 0xbe, 0xee, 0x28, 0x79, 0x3d, 0xf0, 0xd2, 0x00, 0x3d, 0x09, 0x64, 0x28, 0x3d,
0x33, 0xd1, 0x2a, 0x3e, 0x02, 0x71, 0x49, 0x3d, 0x91, 0x0d, 0xac, 0xbd, 0x31, 0xee, 0xcc, 0x3d,
0x22, 0x8b, 0xd8, 0xbc, 0x75, 0xba, 0xdb, 0x3c, 0x57, 0xad, 0x1a, 0x3d, 0x6c, 0x57, 0x36, 0xbe,
0xab, 0x9d, 0xbe, 0x3d, 0x49, 0x7e, 0x87, 0x3d, 0x33, 0x22, 0x94, 0xbd, 0x1b, 0x2a, 0x39, 0xbe,
0xa2, 0x59, 0x7f, 0xbe, 0x0e, 0x22, 0x72, 0xbe, 0xa7, 0x2f, 0xc5, 0xbd, 0x98, 0x1f, 0x82, 0xbd,
0xa6, 0xc1, 0x28, 0xbd, 0x89, 0x21, 0xb2, 0xbc, 0xbe, 0x59, 0x14, 0xbe, 0x4e, 0xf6, 0xba, 0xbc,
0xf6, 0xdf, 0x2a, 0xbe, 0x54, 0x3a, 0x93, 0x3c, 0x6a, 0x0f, 0x15, 0x3e, 0xe9, 0x74, 0x69, 0xbe,
0xcb, 0x4b, 0x9e, 0xbb, 0x73, 0xcd, 0x18, 0xbe, 0x7f, 0x6c, 0x9e, 0xbd, 0x03, 0x26, 0x51, 0xbd,
0x15, 0x6d, 0x7a, 0xbe, 0x1f, 0x18, 0x7f, 0x3d, 0xd7, 0x30, 0x44, 0x3d, 0x83, 0xc8, 0xea, 0xbc,
0xf4, 0x81, 0xae, 0xbe, 0x29, 0xac, 0xd3, 0xbd, 0x4e, 0xb6, 0xe4, 0xbd, 0x86, 0xf9, 0x2b, 0xbd,
0x47, 0xe3, 0x58, 0xbd, 0x57, 0xb6, 0xc2, 0x3d, 0x22, 0x3f, 0xb4, 0x3d, 0x61, 0x9f, 0xed, 0xbd,
0x1a, 0x95, 0x3a, 0xbe, 0xb8, 0x5f, 0x96, 0xbd, 0xde, 0x86, 0x94, 0x3d, 0x23, 0xa5, 0x97, 0x3d,
0x97, 0x3e, 0x33, 0xbe, 0x00, 0x97, 0x21, 0x3d, 0xa4, 0xd8, 0x94, 0x3c, 0x78, 0x78, 0x3a, 0x3e,
0x88, 0xcc, 0xf4, 0x3b, 0x5e, 0x09, 0x9e, 0xbc, 0x2f, 0x33, 0x03, 0xbc, 0xbd, 0x23, 0x04, 0x3e,
0x18, 0xcc, 0x8e, 0xbe, 0x70, 0x88, 0x3e, 0x3e, 0xf0, 0xf6, 0x3a, 0x3d, 0xb3, 0xaf, 0x02, 0x3e,
0x58, 0x1f, 0xfd, 0xbd, 0xe4, 0x39, 0xd7, 0x3d, 0x3b, 0x79, 0x6f, 0x3d, 0xaa, 0x20, 0xc6, 0xbc,
0xe7, 0xe1, 0x83, 0xbc, 0xe3, 0x92, 0x03, 0x3e, 0x84, 0xab, 0x04, 0x3e, 0x0a, 0x66, 0x92, 0x3d,
0xc8, 0xb9, 0xc8, 0xbd, 0x4c, 0xbe, 0x0a, 0x3e, 0x61, 0x75, 0x4a, 0x3d, 0xf2, 0xbe, 0x31, 0x3e,
0xeb, 0x95, 0xf7, 0x3c, 0xdb, 0x51, 0x72, 0x3e, 0xbf, 0x0c, 0x02, 0x3e, 0x85, 0x6a, 0x2f, 0xbe,
0x08, 0x8c, 0x89, 0xbc, 0xda, 0x7a, 0xc2, 0x3d, 0x45, 0xe4, 0x80, 0x3e, 0xae, 0x5a, 0x2b, 0x3e,
0x1f, 0x1b, 0x1f, 0x3e, 0x2a, 0x53, 0x7d, 0x3e, 0x59, 0xf2, 0xc7, 0xbd, 0x48, 0x9e, 0xfd, 0xbc,
0xbd, 0xf5, 0x9b, 0x3e, 0x6f, 0xef, 0xbb, 0x3d, 0x6b, 0x9f, 0xf0, 0x3d, 0x2f, 0x45, 0x68, 0xbd,
0xe4, 0xff, 0xd6, 0x3d, 0x12, 0x49, 0x92, 0xbd, 0x26, 0x66, 0x87, 0xbd, 0x83, 0x44, 0xc5, 0x3d,
0xf7, 0xe7, 0xe1, 0x3d, 0x94, 0x97, 0x82, 0xbc, 0x69, 0xe0, 0x71, 0xbd, 0xc1, 0x37, 0x1d, 0xba,
0xe6, 0x88, 0xdb, 0x3d, 0xb9, 0xf3, 0x6a, 0xbd, 0x0d, 0x01, 0x97, 0xbd, 0x71, 0x02, 0xb5, 0x3d,
0x1c, 0x6e, 0x12, 0x3d, 0xe1, 0xb9, 0x2c, 0x3e, 0xb0, 0x17, 0x90, 0x3b, 0x7e, 0xbd, 0xe0, 0x3d,
0xfc, 0x9c, 0x46, 0xbe, 0x73, 0x37, 0xd6, 0x3d, 0x40, 0x2c, 0x03, 0x3e, 0x8f, 0x73, 0x15, 0x3d,
0xca, 0x99, 0x9b, 0xbd, 0xaa, 0x2d, 0x8d, 0x3d, 0xe5, 0x46, 0xaa, 0xbc, 0xa2, 0x20, 0x44, 0xbd,
0x04, 0x37, 0x23, 0xbd, 0x7c, 0xd2, 0x87, 0xbd, 0x71, 0x94, 0x0a, 0xbd, 0xae, 0x69, 0x65, 0x3e,
0xd6, 0xc1, 0x11, 0xbe, 0xb2, 0x16, 0x0d, 0x3e, 0x0e, 0x08, 0x82, 0x3d, 0xcd, 0x77, 0x5d, 0x3e,
0xc2, 0xc3, 0x0a, 0xbe, 0xa2, 0x55, 0x20, 0x3e, 0x2c, 0x4f, 0x98, 0x3e, 0xd9, 0x1c, 0x1d, 0xbe,
0x05, 0x61, 0xf2, 0xbc, 0x4d, 0xe4, 0x04, 0x3e, 0xec, 0xaf, 0xe3, 0x3d, 0x60, 0x97, 0x3a, 0x3e,
0x22, 0x4d, 0x94, 0x3d, 0x4b, 0x9f, 0x84, 0x3e, 0x2e, 0xfc, 0x20, 0xbd, 0x12, 0xc8, 0xb1, 0x3d,
0xf6, 0xdd, 0x8e, 0x3e, 0x20, 0x44, 0x56, 0x3e, 0xc9, 0x29, 0x82, 0x3e, 0x5e, 0x96, 0x29, 0x3d,
0x5d, 0xc8, 0x33, 0x3e, 0x03, 0xac, 0xd0, 0x3d, 0x4a, 0x73, 0x72, 0xbd, 0x0f, 0xc8, 0x68, 0x3e,
0xc3, 0x29, 0xe6, 0x3d, 0xe6, 0x8c, 0xe2, 0x3c, 0xd3, 0xdb, 0x00, 0xbe, 0x37, 0x55, 0x2c, 0x3d,
0x33, 0x75, 0x34, 0x3e, 0x09, 0x41, 0xb5, 0xbd, 0x91, 0x6a, 0x89, 0xbc, 0x79, 0xd2, 0x8f, 0x3c,
0xf5, 0xb8, 0xe8, 0x3b, 0x5b, 0xf6, 0xfd, 0x3d, 0xb6, 0x11, 0xce, 0xbc, 0xef, 0x93, 0x01, 0x3e,
0x85, 0x3d, 0x09, 0xbe, 0x54, 0xbe, 0xd1, 0x3d, 0x6d, 0x62, 0xfa, 0x3d, 0xfe, 0x60, 0x1f, 0x3d,
0xb7, 0x2c, 0x68, 0x3d, 0x61, 0xc8, 0x66, 0xbd, 0x15, 0xee, 0x66, 0xbe, 0x01, 0xb6, 0xa3, 0xbd,
0x9d, 0xa5, 0x34, 0xbd, 0xc6, 0xbc, 0x92, 0xbe, 0x39, 0x93, 0x03, 0xbe, 0x4b, 0xc1, 0xe8, 0x3d,
0x4e, 0xff, 0x0d, 0xbe, 0x59, 0xbd, 0x7f, 0x3d, 0x3b, 0x1f, 0x06, 0xbe, 0x37, 0x7f, 0x4b, 0x3e,
0x50, 0xaa, 0x72, 0xbe, 0xfc, 0xe1, 0x70, 0x3e, 0x55, 0xe0, 0xb6, 0x3e, 0x0f, 0x9d, 0x2f, 0xbe,
0xbc, 0x0f, 0xc5, 0xbd, 0x6c, 0x98, 0x0f, 0x3e, 0xce, 0x14, 0x44, 0x3d, 0xb4, 0x70, 0x6c, 0x3c,
0xa8, 0x1d, 0x22, 0x3d, 0xb9, 0x9f, 0x24, 0x3d, 0x60, 0x14, 0x6b, 0xbd, 0x75, 0xd6, 0x29, 0x3e,
0x68, 0x02, 0x8e, 0x3e, 0x78, 0x1f, 0x86, 0x3e, 0x35, 0x01, 0x02, 0x3e, 0xb4, 0xdf, 0xdc, 0x3d,
0x37, 0x55, 0xb9, 0x3c, 0xde, 0x67, 0xc6, 0x3c, 0xa3, 0x07, 0x39, 0xbe, 0xa5, 0x66, 0x25, 0x3e,
0x53, 0xcf, 0xb8, 0x3d, 0x42, 0xb4, 0xb0, 0x3d, 0x20, 0x3a, 0x86, 0x3b, 0x7e, 0x0a, 0xa7, 0x3d,
0xf3, 0xbd, 0x03, 0x3e, 0xf4, 0xd7, 0x19, 0xbd, 0xca, 0x6b, 0x16, 0x3d, 0x44, 0x51, 0xe8, 0x3b,
0x05, 0xaa, 0x40, 0x3e, 0x4f, 0x7d, 0xb5, 0x3b, 0x79, 0x7f, 0x58, 0xbb, 0xb1, 0x86, 0x71, 0xbd,
0x03, 0xff, 0x33, 0xbe, 0x2d, 0x4d, 0x29, 0xbd, 0x37, 0xfb, 0x74, 0x3c, 0x41, 0x38, 0x14, 0x3e,
0x36, 0x34, 0xb0, 0xbe, 0xf0, 0x51, 0x20, 0xbc, 0x69, 0x84, 0x9e, 0xbd, 0xbe, 0xc5, 0xd2, 0xba,
0xee, 0xc1, 0xbe, 0x3b, 0xfe, 0xe4, 0x28, 0x3e, 0xf1, 0x01, 0x01, 0xbe, 0x08, 0x4f, 0x7a, 0x3d,
0x9d, 0xe4, 0x25, 0xbc, 0x2b, 0x2b, 0x41, 0x3e, 0x81, 0x87, 0x18, 0xbc, 0x75, 0xa1, 0xd4, 0x3c,
0x5f, 0x88, 0xc5, 0x3c, 0xf1, 0x97, 0xff, 0x3c, 0x9e, 0xeb, 0x84, 0x3e, 0x07, 0xd1, 0x30, 0xbe,
0x66, 0x10, 0xd4, 0x3d, 0x9a, 0x0c, 0x17, 0x3d, 0xc2, 0x53, 0x0a, 0x3d, 0x7a, 0x45, 0xbe, 0x3d,
0x58, 0x49, 0xa4, 0x3d, 0x1c, 0x87, 0x58, 0xbd, 0xcc, 0x75, 0x15, 0xbe, 0xb8, 0xcc, 0x2a, 0xbd,
0x96, 0xbd, 0xe2, 0x3d, 0xe0, 0x14, 0x7b, 0x3d, 0xc2, 0xa9, 0x99, 0x3c, 0xba, 0x08, 0x40, 0xbd,
0x07, 0xab, 0x26, 0xbe, 0x90, 0x8e, 0x37, 0xbd, 0xdd, 0x78, 0xd8, 0xbd, 0xc5, 0x77, 0xec, 0x3d,
0x5f, 0x81, 0x26, 0x3d, 0x99, 0xba, 0x34, 0x3c, 0x96, 0x56, 0x1f, 0xbd, 0x51, 0x5f, 0x18, 0x3e,
0x41, 0xb3, 0x62, 0xbe, 0x56, 0x67, 0x5f, 0x3d, 0x38, 0x8f, 0x3d, 0xbd, 0xc5, 0x0a, 0x1c, 0x3d,
0x64, 0x8e, 0x6a, 0x3d, 0x88, 0x1c, 0xe1, 0x3c, 0xc9, 0x06, 0x83, 0x3d, 0x7c, 0x58, 0xa4, 0x3d,
0xa9, 0xe0, 0x59, 0xbe, 0xb8, 0xf1, 0x7c, 0x3c, 0x94, 0xef, 0xd1, 0x3d, 0x89, 0x4c, 0x1a, 0x3d,
0xc3, 0x2a, 0x27, 0xbd, 0xde, 0x4c, 0x9f, 0x3d, 0x79, 0x2d, 0x27, 0xbe, 0x96, 0xce, 0x13, 0xbd,
0x28, 0xb4, 0xf6, 0xbc, 0x2e, 0x49, 0xaa, 0x3b, 0xeb, 0x3c, 0x03, 0xbe, 0x4b, 0x67, 0x04, 0x3e,
0x0c, 0x2a, 0xa4, 0xbd, 0x7f, 0x2b, 0x0a, 0x3e, 0x08, 0x11, 0x27, 0xbd, 0x0e, 0x31, 0x00, 0x3d,
0x4b, 0xb5, 0x1c, 0x3e, 0x0f, 0x8b, 0x94, 0x3d, 0x6c, 0x0e, 0x9e, 0x3e, 0x15, 0x81, 0x22, 0xbe,
0x36, 0xc4, 0x40, 0x3d, 0xe0, 0x08, 0x1e, 0xbd, 0xc7, 0xa0, 0x01, 0x3d, 0xd4, 0xae, 0x39, 0x3e,
0xca, 0xc2, 0xaa, 0x3d, 0x8a, 0x14, 0x55, 0x3d, 0x6c, 0x33, 0x9f, 0xbc, 0x89, 0xc6, 0x20, 0x3b,
0x7e, 0xe1, 0x38, 0x3e, 0x80, 0x96, 0xf0, 0xbc, 0x5b, 0x84, 0x8d, 0xbd, 0x19, 0xf1, 0x02, 0x3e,
0x1d, 0x9d, 0x0b, 0xbe, 0xe9, 0x4c, 0x11, 0xbd, 0x86, 0x3c, 0x98, 0xbd, 0x0e, 0xae, 0xbc, 0x3b,
0x2c, 0x7e, 0xae, 0x3c, 0xe1, 0xa0, 0x78, 0x3d, 0xa7, 0xba, 0xa0, 0x3d, 0x0c, 0x83, 0x77, 0xbc,
0x29, 0xa4, 0x13, 0xbe, 0xd6, 0x33, 0x12, 0xbd, 0x2d, 0x14, 0x7d, 0xbd, 0x4a, 0x39, 0xd8, 0x3d,
0xf3, 0x16, 0x03, 0xbd, 0x20, 0xc4, 0x06, 0x3e, 0xb1, 0x11, 0x2f, 0x3d, 0x99, 0x3f, 0x90, 0x3d,
0x08, 0xa9, 0x51, 0xbe, 0x7d, 0x51, 0xe2, 0x3d, 0x3d, 0x4e, 0x58, 0x3e, 0x46, 0xc1, 0x1c, 0x3b,
0x2d, 0xb7, 0x2c, 0xbd, 0x14, 0xbe, 0xcd, 0x3d, 0x7b, 0x0e, 0x2a, 0xbe, 0xae, 0x36, 0xac, 0x3d,
0x71, 0x34, 0xcf, 0x3c, 0x52, 0xf7, 0x2b, 0xbe, 0xd6, 0xfb, 0xde, 0x3d, 0x96, 0xfb, 0x01, 0x3e,
0x21, 0xdf, 0xac, 0xbb, 0xfc, 0xe8, 0x29, 0x3e, 0x96, 0x65, 0xb7, 0xbd, 0xff, 0xdd, 0xe0, 0x3d,
0xcc, 0x52, 0x4a, 0x3e, 0x8d, 0x24, 0xfd, 0x3d, 0x8d, 0x67, 0x16, 0x3d, 0xde, 0x98, 0x08, 0xbe,
0xb2, 0xb7, 0xb4, 0xbc, 0xb5, 0x5c, 0x42, 0xbb, 0x9c, 0x08, 0xc6, 0x3d, 0x75, 0xf7, 0xe0, 0x3d,
0xc9, 0xb5, 0x15, 0x3e, 0x9c, 0x54, 0x15, 0x3e, 0x9d, 0xd6, 0x61, 0xbc, 0x61, 0x77, 0xcc, 0xbd,
0x30, 0xce, 0x7a, 0x3e, 0xaf, 0xfe, 0xbe, 0xbc, 0x2b, 0xc6, 0xfb, 0x3b, 0x5f, 0x7c, 0x98, 0x3d,
0x47, 0xbd, 0xb7, 0x3b, 0xc8, 0xb0, 0x84, 0x3d, 0xab, 0xc0, 0xfb, 0xbd, 0x74, 0x3b, 0xfa, 0x3d,
0x05, 0x29, 0x37, 0x3e, 0x06, 0xc0, 0xec, 0x3d, 0x34, 0x26, 0xe0, 0xbd, 0x31, 0x29, 0xb9, 0x3d,
0x92, 0x6f, 0x0d, 0xbd, 0x9f, 0xbf, 0xb8, 0xbd, 0xd2, 0x90, 0xb5, 0xbc, 0xb3, 0x2f, 0xcf, 0xbd,
0x5b, 0x36, 0x6e, 0x3e, 0x89, 0x04, 0x4b, 0x3e, 0x8e, 0x6b, 0xbd, 0xbd, 0x5e, 0x4f, 0xa1, 0xbc,
0x28, 0x55, 0x5a, 0x3e, 0x90, 0x12, 0xe6, 0xbe, 0xe9, 0x57, 0x53, 0x3e, 0x6d, 0x3d, 0x88, 0x3e,
0x56, 0x0b, 0x98, 0x3e, 0x9f, 0x87, 0xb8, 0xbd, 0x4b, 0x99, 0xa5, 0xbe, 0x80, 0x51, 0xb4, 0xbd,
0xb6, 0xbb, 0x01, 0x3e, 0x9e, 0x16, 0x8b, 0xbe, 0x2e, 0x1f, 0x3f, 0x3d, 0x0d, 0xb3, 0xa2, 0x3c,
0x3d, 0x11, 0xd2, 0x3d, 0x5a, 0x53, 0x52, 0x3d, 0x32, 0x84, 0xaf, 0x3d, 0xed, 0x61, 0x18, 0xbe,
0x3a, 0xee, 0x37, 0x3d, 0x1b, 0x41, 0x12, 0xbd, 0x44, 0xe8, 0x8d, 0x3c, 0x62, 0xc9, 0x97, 0xbd,
0x69, 0xd7, 0x8b, 0x3e, 0x19, 0x59, 0xd9, 0xbd, 0xcf, 0x82, 0xaf, 0xbb, 0xbd, 0x44, 0x29, 0xbd,
0x8d, 0x43, 0x03, 0x3e, 0x1f, 0x52, 0x63, 0xbd, 0xa4, 0xee, 0x04, 0x3e, 0x64, 0xe0, 0xd8, 0x3c,
0xca, 0x7b, 0x6a, 0xbd, 0xec, 0x6f, 0x07, 0xbe, 0x92, 0xdc, 0xa5, 0xbd, 0xb9, 0x9c, 0x20, 0xbe,
0x05, 0xec, 0x23, 0xbe, 0x91, 0xb5, 0xbf, 0xbd, 0x4a, 0xa3, 0xa7, 0x3d, 0x01, 0x2d, 0x95, 0xbd,
0xaf, 0x7c, 0x7c, 0xbd, 0xbc, 0xf2, 0x29, 0xbe, 0x62, 0xed, 0x03, 0xbd, 0x53, 0xf7, 0x5f, 0x3d,
0x28, 0x6d, 0x2f, 0xbd, 0x2f, 0x60, 0xd0, 0xbd, 0xc7, 0xf7, 0xae, 0xbd, 0xe7, 0x14, 0xfc, 0xbc,
0xca, 0xa6, 0x1d, 0x3e, 0xfd, 0x56, 0x7e, 0x3e, 0x86, 0x5c, 0xfc, 0x3c, 0x95, 0x52, 0xe8, 0xbc,
0x4c, 0x69, 0x5e, 0x3e, 0x59, 0xcf, 0xa3, 0xbe, 0x52, 0xbb, 0x29, 0xbd, 0x08, 0x56, 0x2e, 0x3e,
0x80, 0x10, 0x81, 0x3d, 0x62, 0x84, 0x3a, 0xbe, 0xfd, 0x31, 0x1f, 0xbe, 0x66, 0x4a, 0x2c, 0xbd,
0xbd, 0xdb, 0xb7, 0xbd, 0xa4, 0x02, 0x15, 0xbe, 0x60, 0xab, 0xb3, 0x3d, 0xc8, 0x78, 0x14, 0xbe,
0xab, 0xfc, 0xb3, 0x3d, 0x09, 0x5c, 0x51, 0xbd, 0x68, 0xd6, 0x34, 0x3e, 0x17, 0x49, 0x02, 0xbe,
0x1d, 0x1a, 0xda, 0x3d, 0x23, 0x9b, 0xb8, 0xbd, 0xa7, 0xc1, 0x6c, 0x3d, 0x4e, 0xcc, 0x96, 0x3d,
0xe5, 0x8d, 0x6e, 0x3e, 0xd8, 0x36, 0x0c, 0xbb, 0xca, 0x8a, 0xd7, 0xbd, 0x62, 0x79, 0xa0, 0xbd,
0xe1, 0x91, 0x92, 0xbd, 0x80, 0x3b, 0x98, 0x3c, 0x3d, 0xf5, 0xe8, 0x3d, 0x0a, 0xab, 0xe4, 0xbd,
0xca, 0x9a, 0x81, 0xbd, 0x4c, 0x80, 0x6d, 0x3d, 0x76, 0xa2, 0xd1, 0xbd, 0xfd, 0x04, 0xaa, 0x3d,
0xb0, 0x12, 0xa8, 0xbd, 0x50, 0x25, 0x96, 0x3c, 0xb8, 0x0f, 0xaf, 0xbc, 0x58, 0xbd, 0xab, 0xbd,
0x01, 0x1f, 0x52, 0xbd, 0x9e, 0x72, 0x62, 0xbc, 0x16, 0xde, 0xba, 0x3d, 0x22, 0x96, 0xd2, 0xbd,
0x5b, 0x21, 0xef, 0xbc, 0xde, 0x5e, 0x89, 0xbc, 0x2f, 0x84, 0xcc, 0xbc, 0xaf, 0x0c, 0xb9, 0xbb,
0xbe, 0x80, 0x7f, 0x3e, 0x5c, 0x94, 0x22, 0x3e, 0xfc, 0xe0, 0xad, 0x3d, 0x06, 0x90, 0xb1, 0xbd,
0x2f, 0xbf, 0x47, 0x3e, 0x95, 0x04, 0xaf, 0xbe, 0xe5, 0x37, 0x24, 0x3e, 0x8b, 0xad, 0x20, 0x3e,
0x9c, 0x59, 0x19, 0x3e, 0xb9, 0x43, 0xbe, 0xbd, 0xb0, 0xff, 0xec, 0xbc, 0x58, 0x5f, 0x04, 0x3d,
0x18, 0x2e, 0x1a, 0x3d, 0xae, 0xf7, 0xa5, 0xbd, 0x29, 0x6d, 0x20, 0x3d, 0x86, 0xf6, 0xa8, 0xbd,
0xf3, 0x09, 0x03, 0x3e, 0xed, 0xcf, 0x48, 0x3d, 0xe8, 0x73, 0xa6, 0x3d, 0x60, 0x54, 0xad, 0x3d,
0xaf, 0xe6, 0x40, 0x3e, 0x02, 0x6b, 0x9c, 0xbd, 0xda, 0xba, 0x83, 0x3d, 0x83, 0x15, 0xec, 0x3d,
0xef, 0x99, 0x2a, 0x3e, 0x7a, 0x49, 0x91, 0xbd, 0xee, 0x8b, 0xf1, 0x3c, 0xa2, 0x15, 0x14, 0xbe,
0xd4, 0x32, 0x16, 0xbe, 0xa7, 0xc2, 0x06, 0x3d, 0x28, 0x76, 0x10, 0xbd, 0x4c, 0x62, 0x05, 0xbc,
0x65, 0x44, 0x61, 0xbe, 0x15, 0x1a, 0x57, 0xbe, 0x02, 0x5e, 0xb1, 0x3d, 0xf8, 0x3c, 0xa0, 0xbd,
0x4b, 0x70, 0xa2, 0x3d, 0x53, 0xeb, 0xcb, 0xbc, 0x2e, 0x02, 0xa1, 0x3c, 0xc6, 0x69, 0x35, 0xbe,
0xf7, 0x13, 0x9a, 0xbd, 0x8b, 0xc1, 0x2f, 0xbd, 0x65, 0x1d, 0x24, 0xbd, 0xc7, 0x8b, 0x72, 0x3c,
0xac, 0x3b, 0x96, 0x3c, 0xf0, 0x93, 0x87, 0x3d, 0x12, 0xd7, 0x23, 0x3c, 0x0a, 0x5a, 0x71, 0x3b,
0x9c, 0x87, 0xf5, 0x3e, 0x28, 0xfe, 0xcf, 0x3d, 0x24, 0x05, 0xbd, 0x3d, 0x41, 0xc6, 0x11, 0xbd,
0x5a, 0xf7, 0xb6, 0x3e, 0xc5, 0x24, 0xe9, 0x3b, 0x9a, 0x58, 0x98, 0x3c, 0xf2, 0xd0, 0xd6, 0x3e,
0xca, 0xa8, 0x76, 0x3e, 0xe9, 0xe1, 0xd1, 0xbd, 0x88, 0x7c, 0xae, 0xbd, 0xa1, 0xdd, 0x17, 0x3d,
0xe1, 0x0c, 0x0c, 0x3c, 0xb0, 0x0d, 0x34, 0xbd, 0x00, 0x1e, 0x23, 0x3e, 0x16, 0x69, 0x17, 0xbe,
0xd7, 0x36, 0x00, 0x3e, 0x4a, 0x16, 0x1f, 0x3c, 0x11, 0x01, 0x49, 0x3d, 0x91, 0x4d, 0x57, 0xbd,
0x8e, 0xf1, 0xc6, 0x3d, 0x69, 0xc7, 0xab, 0xbc, 0x89, 0xf3, 0xc5, 0xbc, 0xf9, 0xd5, 0x84, 0xbe,
0x95, 0x29, 0x71, 0x3e, 0x7d, 0xdc, 0x4a, 0x3a, 0xdc, 0xd0, 0x78, 0x3e, 0x41, 0x0c, 0xc0, 0xbd,
0xad, 0xfd, 0x2a, 0x3d, 0x07, 0x21, 0x66, 0x3d, 0x00, 0x4d, 0x87, 0x3d, 0x9f, 0x86, 0xd0, 0x3d,
0x04, 0x34, 0x97, 0xbe, 0x4a, 0x86, 0x45, 0xbe, 0x84, 0x3d, 0xa3, 0xbd, 0x82, 0x29, 0xa3, 0xbc,
0x38, 0x7b, 0x3e, 0xbe, 0x1f, 0x07, 0x2e, 0xbc, 0xd4, 0x13, 0xf5, 0x3d, 0x9d, 0xd4, 0x16, 0xbe,
0xba, 0xb6, 0x63, 0xbd, 0x69, 0x6c, 0x25, 0xbe, 0xbb, 0xfb, 0x24, 0x3d, 0xf6, 0x2b, 0x97, 0xbd,
0x1f, 0xbb, 0x39, 0x3c, 0x99, 0xcb, 0x3b, 0x3d, 0xab, 0x19, 0xcd, 0x3c, 0x9d, 0x21, 0xc7, 0xbb,
0xe2, 0x87, 0xc6, 0x3e, 0x73, 0xc6, 0x77, 0x3d, 0x65, 0xcd, 0x7e, 0x3d, 0x94, 0x12, 0x18, 0xbe,
0xeb, 0x73, 0x61, 0x3e, 0x39, 0x94, 0x27, 0xbc, 0xd0, 0x42, 0xdb, 0x3c, 0x4a, 0xc9, 0x76, 0x3e,
0xa1, 0x3c, 0x81, 0x3e, 0xe8, 0x60, 0x69, 0xbd, 0xd6, 0xeb, 0x09, 0x3d, 0x39, 0xd1, 0x5d, 0x3d,
0x0b, 0x2c, 0xb1, 0xbd, 0x7d, 0xc2, 0x83, 0x3c, 0xf7, 0x39, 0x8c, 0x3e, 0xce, 0x01, 0xb2, 0xbd,
0x95, 0xda, 0x11, 0x3e, 0x2c, 0x6d, 0xd4, 0x3c, 0x7e, 0xcc, 0xa0, 0x3d, 0x80, 0xca, 0xfd, 0xbd,
0x28, 0xeb, 0x91, 0xbd, 0xe1, 0xf6, 0xc6, 0x3c, 0x83, 0x46, 0x2b, 0x3d, 0x35, 0x7f, 0x8a, 0xbd,
0x13, 0xb0, 0x4a, 0x3e, 0xf7, 0x79, 0x0b, 0x3d, 0x85, 0x99, 0x56, 0x3c, 0xdf, 0x87, 0xf1, 0x3b,
0xd9, 0x12, 0x87, 0xbd, 0x37, 0x4e, 0x51, 0x3d, 0x45, 0x25, 0xd2, 0x3c, 0xc3, 0x52, 0x46, 0x3d,
0x04, 0x2a, 0x33, 0xbe, 0x21, 0x68, 0x82, 0xbd, 0x48, 0x28, 0x48, 0x3b, 0xb3, 0x27, 0x8b, 0x3d,
0x88, 0x13, 0x53, 0xbe, 0x23, 0x0e, 0xfd, 0xbc, 0xf4, 0xcf, 0x89, 0xbd, 0x47, 0x70, 0xbc, 0xbd,
0xa5, 0x57, 0x75, 0xbd, 0xed, 0x59, 0xbf, 0xbd, 0x34, 0x62, 0x4c, 0xbd, 0xd9, 0x4e, 0xcf, 0x3d,
0xf3, 0xe0, 0x77, 0xbd, 0x92, 0x42, 0x2d, 0x3c, 0xbd, 0xf5, 0x52, 0x3c, 0xa2, 0x5a, 0x7a, 0xbd,
0x93, 0x5a, 0xbf, 0x3e, 0x9c, 0x60, 0x57, 0x3e, 0x2c, 0x07, 0xe7, 0x3d, 0xca, 0x03, 0x84, 0xbd,
0x9b, 0xb4, 0x04, 0x3e, 0x14, 0x1b, 0x08, 0xbe, 0xc6, 0x23, 0xae, 0x3c, 0x1f, 0x8f, 0xd0, 0x3e,
0x3e, 0xd7, 0xb2, 0x3d, 0x4f, 0x6a, 0x9d, 0x3d, 0x9a, 0xa1, 0xc4, 0xbd, 0xf0, 0x1c, 0x8f, 0x3c,
0x6a, 0x55, 0x83, 0x3d, 0xb8, 0xe1, 0x24, 0xbd, 0x42, 0xc3, 0x33, 0x3e, 0xb1, 0xf8, 0x11, 0xbd,
0x5a, 0x25, 0x7c, 0x3e, 0x30, 0xc1, 0x29, 0xbe, 0x2f, 0x59, 0x02, 0x3e, 0xcd, 0x0b, 0x01, 0xbd,
0x65, 0x63, 0x2d, 0x3d, 0xc0, 0x3e, 0x7b, 0x3d, 0xc7, 0x4f, 0x3a, 0x3e, 0x91, 0x6e, 0x0b, 0xbc,
0x6b, 0x55, 0x60, 0x3e, 0xe5, 0x2a, 0x7c, 0xbd, 0x7f, 0x02, 0xf4, 0x3d, 0x3c, 0xe2, 0xca, 0xbb,
0xbc, 0xd6, 0x3c, 0xbe, 0x6c, 0xbe, 0x9d, 0x3d, 0x71, 0x7b, 0x2a, 0x3d, 0xfd, 0x91, 0x55, 0xbd,
0x59, 0x48, 0xd2, 0xbe, 0x3e, 0x21, 0xa1, 0xbd, 0x5f, 0xf6, 0x3d, 0xbd, 0x25, 0x66, 0x24, 0xbd,
